{
  "version": "1.0",
  "truncation": null,
  "padding": null,
  "added_tokens": [
    {
      "id": 0,
      "content": "[UNK]",
      "single_word": false,
      "lstrip": false,
      "rstrip": false,
      "normalized": false,
      "special": true
    },
    {
      "id": 1,
      "content": "[CLS]",
      "single_word": false,
      "lstrip": false,
      "rstrip": false,
      "normalized": false,
      "special": true
    },
    {
      "id": 2,
      "content": "[SEP]",
      "single_word": false,
      "lstrip": false,
      "rstrip": false,
      "normalized": false,
      "special": true
    },
    {
      "id": 3,
      "content": "[PAD]",
      "single_word": false,
      "lstrip": false,
      "rstrip": false,
      "normalized": false,
      "special": true
    },
    {
      "id": 4,
      "content": "{U}",
      "single_word": false,
      "lstrip": false,
      "rstrip": false,
      "normalized": false,
      "special": true
    },
    {
      "id": 5,
      "content": "{W}",
      "single_word": false,
      "lstrip": false,
      "rstrip": false,
      "normalized": false,
      "special": true
    },
    {
      "id": 6,
      "content": "{R}",
      "single_word": false,
      "lstrip": false,
      "rstrip": false,
      "normalized": false,
      "special": true
    },
    {
      "id": 7,
      "content": "{B}",
      "single_word": false,
      "lstrip": false,
      "rstrip": false,
      "normalized": false,
      "special": true
    },
    {
      "id": 8,
      "content": "{G}",
      "single_word": false,
      "lstrip": false,
      "rstrip": false,
      "normalized": false,
      "special": true
    },
    {
      "id": 9,
      "content": "{T}",
      "single_word": false,
      "lstrip": false,
      "rstrip": false,
      "normalized": false,
      "special": true
    },
    {
      "id": 10,
      "content": "{X}",
      "single_word": false,
      "lstrip": false,
      "rstrip": false,
      "normalized": false,
      "special": true
    }
  ],
  "normalizer": null,
  "pre_tokenizer": {
    "type": "Whitespace"
  },
  "post_processor": null,
  "decoder": null,
  "model": {
    "type": "BPE",
    "dropout": null,
    "unk_token": "[UNK]",
    "continuing_subword_prefix": null,
    "end_of_word_suffix": null,
    "fuse_unk": false,
    "byte_fallback": false,
    "vocab": {
      "[UNK]": 0,
      "[CLS]": 1,
      "[SEP]": 2,
      "[PAD]": 3,
      "{U}": 4,
      "{W}": 5,
      "{R}": 6,
      "{B}": 7,
      "{G}": 8,
      "{T}": 9,
      "{X}": 10,
      "!": 11,
      "\"": 12,
      "#": 13,
      "$": 14,
      "%": 15,
      "&": 16,
      "'": 17,
      "(": 18,
      ")": 19,
      "+": 20,
      ",": 21,
      "-": 22,
      ".": 23,
      "/": 24,
      "0": 25,
      "1": 26,
      "2": 27,
      "3": 28,
      "4": 29,
      "5": 30,
      "6": 31,
      "7": 32,
      "8": 33,
      "9": 34,
      ":": 35,
      ";": 36,
      "?": 37,
      "[": 38,
      "]": 39,
      "_": 40,
      "a": 41,
      "b": 42,
      "c": 43,
      "d": 44,
      "e": 45,
      "f": 46,
      "g": 47,
      "h": 48,
      "i": 49,
      "j": 50,
      "k": 51,
      "l": 52,
      "m": 53,
      "n": 54,
      "o": 55,
      "p": 56,
      "q": 57,
      "r": 58,
      "s": 59,
      "t": 60,
      "u": 61,
      "v": 62,
      "w": 63,
      "x": 64,
      "y": 65,
      "z": 66,
      "{": 67,
      "|": 68,
      "}": 69,
      "~": 70,
      "—": 71,
      "re": 72,
      "th": 73,
      "at": 74,
      "ou": 75,
      "nt": 76,
      "ar": 77,
      "er": 78,
      "an": 79,
      "you": 80,
      "en": 81,
      "reat": 82,
      "creat": 83,
      "the": 84,
      "in": 85,
      "ure": 86,
      "creature": 87,
      "le": 88,
      "ge": 89,
      "ard": 90,
      "co": 91,
      "ac": 92,
      "on": 93,
      "st": 94,
      "ro": 95,
      "it": 96,
      "to": 97,
      "or": 98,
      "card": 99,
      "if": 100,
      "and": 101,
      "el": 102,
      "is": 103,
      "of": 104,
      "get": 105,
      "ay": 106,
      "al": 107,
      "ent": 108,
      "att": 109,
      "wh": 110,
      "your": 111,
      "ing": 112,
      "tar": 113,
      "target": 114,
      "rol": 115,
      "ur": 116,
      "cont": 117,
      "control": 118,
      "fi": 119,
      "when": 120,
      "this": 121,
      "de": 122,
      "as": 123,
      "tur": 124,
      "turn": 125,
      "am": 126,
      "ve": 127,
      "eld": 128,
      "batt": 129,
      "battle": 130,
      "field": 131,
      "battlefield": 132,
      "ers": 133,
      "ch": 134,
      "ed": 135,
      "es": 136,
      "ra": 137,
      "}:": 138,
      ".)": 139,
      "pl": 140,
      "il": 141,
      "ad": 142,
      "ast": 143,
      "that": 144,
      "be": 145,
      "ach": 146,
      "wi": 147,
      "man": 148,
      "ut": 149,
      "sp": 150,
      "end": 151,
      "with": 152,
      "ex": 153,
      "enters": 154,
      "ount": 155,
      "put": 156,
      "unt": 157,
      "pp": 158,
      "}{": 159,
      "play": 160,
      "ev": 161,
      "ly": 162,
      "/+": 163,
      "may": 164,
      "ic": 165,
      "count": 166,
      "add": 167,
      "each": 168,
      "ell": 169,
      "age": 170,
      "ever": 171,
      "spell": 172,
      "fro": 173,
      "from": 174,
      "whenever": 175,
      "dam": 176,
      "damage": 177,
      "cast": 178,
      "player": 179,
      "lo": 180,
      "cards": 181,
      "se": 182,
      "deal": 183,
      "},": 184,
      "ack": 185,
      "for": 186,
      "ain": 187,
      "mb": 188,
      "act": 189,
      "until": 190,
      "creatures": 191,
      "ib": 192,
      "land": 193,
      "ant": 194,
      "fly": 195,
      "flying": 196,
      "ary": 197,
      "dra": 198,
      "ow": 199,
      "ile": 200,
      "its": 201,
      "hand": 202,
      "lif": 203,
      "nto": 204,
      "lib": 205,
      "libr": 206,
      "library": 207,
      "gain": 208,
      "gra": 209,
      "grave": 210,
      "yard": 211,
      "graveyard": 212,
      "can": 213,
      "art": 214,
      "draw": 215,
      "ken": 216,
      "exile": 217,
      "deals": 218,
      "ific": 219,
      "counter": 220,
      "rific": 221,
      "sac": 222,
      "sacrific": 223,
      "ep": 224,
      "mana": 225,
      "ther": 226,
      "any": 227,
      "life": 228,
      "token": 229,
      "chant": 230,
      "enchant": 231,
      "ifact": 232,
      "artifact": 233,
      "onent": 234,
      "opp": 235,
      "opponent": 236,
      "then": 237,
      "other": 238,
      "ta": 239,
      "attack": 240,
      "sacrifice": 241,
      "}.": 242,
      "cho": 243,
      "one": 244,
      "up": 245,
      "qu": 246,
      "pped": 247,
      "gets": 248,
      "les": 249,
      "equ": 250,
      "mo": 251,
      "create": 252,
      "ck": 253,
      "ke": 254,
      "wo": 255,
      "blo": 256,
      "cost": 257,
      "ose": 258,
      "two": 259,
      "un": 260,
      "less": 261,
      "block": 262,
      "dest": 263,
      "gin": 264,
      "begin": 265,
      "ning": 266,
      "per": 267,
      "beginning": 268,
      "pay": 269,
      "into": 270,
      "manent": 271,
      "permanent": 272,
      "all": 273,
      "return": 274,
      "({": 275,
      "ir": 276,
      "own": 277,
      "roy": 278,
      "destroy": 279,
      "ies": 280,
      "sh": 281,
      "ave": 282,
      "dis": 283,
      "tapped": 284,
      "has": 285,
      "ion": 286,
      "top": 287,
      "comb": 288,
      "der": 289,
      "choose": 290,
      "umb": 291,
      "umber": 292,
      "number": 293,
      "ong": 294,
      "counters": 295,
      "combat": 296,
      "col": 297,
      "color": 298,
      "com": 299,
      "do": 300,
      "bl": 301,
      "ab": 302,
      "ate": 303,
      "ue": 304,
      "amp": 305,
      "inst": 306,
      "ce": 307,
      "more": 308,
      "ff": 309,
      "pow": 310,
      "have": 311,
      "unta": 312,
      "power": 313,
      "non": 314,
      "~.": 315,
      "reve": 316,
      "ri": 317,
      "onto": 318,
      "gains": 319,
      "ld": 320,
      "their": 321,
      "iv": 322,
      "discard": 323,
      "}.)": 324,
      "ere": 325,
      "keep": 326,
      "upkeep": 327,
      "step": 328,
      "equal": 329,
      "gh": 330,
      "blocked": 331,
      "equi": 332,
      "only": 333,
      "ext": 334,
      "ilit": 335,
      "abilit": 336,
      "uff": 337,
      "shuff": 338,
      "enchanted": 339,
      "reveal": 340,
      "ment": 341,
      "under": 342,
      "tr": 343,
      "orc": 344,
      "untap": 345,
      "arch": 346,
      "thre": 347,
      "attacks": 348,
      "aste": 349,
      "haste": 350,
      "owner": 351,
      "next": 352,
      "ct": 353,
      "im": 354,
      "ery": 355,
      "three": 356,
      "are": 357,
      "sorc": 358,
      "~:": 359,
      "sorcery": 360,
      "another": 361,
      "alk": 362,
      "controls": 363,
      "shuffle": 364,
      "walk": 365,
      "ould": 366,
      "becom": 367,
      "ample": 368,
      "search": 369,
      "by": 370,
      "ty": 371,
      "activ": 372,
      "trample": 373,
      "ot": 374,
      "fl": 375,
      "tou": 376,
      "they": 377,
      "cop": 378,
      "val": 379,
      "dies": 380,
      "long": 381,
      "becomes": 382,
      "them": 383,
      ".\"": 384,
      "would": 385,
      "value": 386,
      "ess": 387,
      "ame": 388,
      "ition": 389,
      "addition": 390,
      "ler": 391,
      "plan": 392,
      "black": 393,
      "ses": 394,
      "typ": 395,
      "copy": 396,
      "ash": 397,
      "rst": 398,
      "first": 399,
      "ace": 400,
      "tim": 401,
      "planes": 402,
      "planeswalk": 403,
      "red": 404,
      "spells": 405,
      "fo": 406,
      "tap": 407,
      "ig": 408,
      "ite": 409,
      "stri": 410,
      "rest": 411,
      "move": 412,
      "controller": 413,
      "where": 414,
      "strike": 415,
      "out": 416,
      "ead": 417,
      "white": 418,
      "flash": 419,
      "activate": 420,
      "than": 421,
      "gre": 422,
      "remove": 423,
      "enchantment": 424,
      "bas": 425,
      "way": 426,
      "dealt": 427,
      "green": 428,
      "instead": 429,
      "pro": 430,
      "our": 431,
      "tokens": 432,
      "time": 433,
      "ance": 434,
      "ness": 435,
      "unless": 436,
      "attacking": 437,
      "planeswalker": 438,
      "def": 439,
      "/-": 440,
      "among": 441,
      "equip": 442,
      "instant": 443,
      "vig": 444,
      "ilance": 445,
      "vigilance": 446,
      "lands": 447,
      "additional": 448,
      "defend": 449,
      "dur": 450,
      "during": 451,
      "ok": 452,
      "abilities": 453,
      "nonland": 454,
      "without": 455,
      "loses": 456,
      "exc": 457,
      "those": 458,
      "basic": 459,
      "look": 460,
      "bot": 461,
      "ill": 462,
      "ghness": 463,
      "toughness": 464,
      "tom": 465,
      "ability": 466,
      "bottom": 467,
      "ect": 468,
      "om": 469,
      "equipped": 470,
      "ept": 471,
      "type": 472,
      "except": 473,
      "back": 474,
      "don": 475,
      "face": 476,
      "permanents": 477,
      "so": 478,
      "id": 479,
      "exiled": 480,
      "cl": 481,
      "ru": 482,
      "costs": 483,
      "ie": 484,
      "attach": 485,
      "pre": 486,
      "was": 487,
      "order": 488,
      "ink": 489,
      "four": 490,
      "ener": 491,
      "sen": 492,
      "chosen": 493,
      "vent": 494,
      "elink": 495,
      "lifelink": 496,
      "ick": 497,
      "paying": 498,
      "reg": 499,
      "sc": 500,
      "lose": 501,
      "opponents": 502,
      "\"{": 503,
      "ated": 504,
      "rand": 505,
      "ruct": 506,
      "great": 507,
      "random": 508,
      "ath": 509,
      "regener": 510,
      "ph": 511,
      "reach": 512,
      "discards": 513,
      "con": 514,
      "prevent": 515,
      "touch": 516,
      "blue": 517,
      "no": 518,
      "death": 519,
      "go": 520,
      "ry": 521,
      "ter": 522,
      "cy": 523,
      "ible": 524,
      "destruct": 525,
      "indestruct": 526,
      "indestructible": 527,
      "deathtouch": 528,
      "flashback": 529,
      "si": 530,
      "comm": 531,
      "zo": 532,
      "zomb": 533,
      "does": 534,
      "command": 535,
      "scry": 536,
      "artifacts": 537,
      "colorless": 538,
      "defending": 539,
      "mu": 540,
      "game": 541,
      "targets": 542,
      "kick": 543,
      "leg": 544,
      "mill": 545,
      "leave": 546,
      "rou": 547,
      "legend": 548,
      "greater": 549,
      "led": 550,
      "ice": 551,
      "types": 552,
      "su": 553,
      "down": 554,
      "many": 555,
      "tal": 556,
      "doesn": 557,
      "sw": 558,
      "legendary": 559,
      "sacrifices": 560,
      "ection": 561,
      "prot": 562,
      "cling": 563,
      "~,": 564,
      "ains": 565,
      "men": 566,
      "menace": 567,
      "protection": 568,
      "bo": 569,
      "forest": 570,
      "us": 571,
      "ght": 572,
      "~'": 573,
      "cycling": 574,
      "zombie": 575,
      "defender": 576,
      "ble": 577,
      "draws": 578,
      "ii": 579,
      "name": 580,
      "ca": 581,
      "ange": 582,
      "dou": 583,
      "double": 584,
      "total": 585,
      "able": 586,
      "swamp": 587,
      "pays": 588,
      "players": 589,
      "mon": 590,
      "five": 591,
      "phas": 592,
      "fore": 593,
      "untapped": 594,
      "noncreature": 595,
      "ough": 596,
      "ew": 597,
      "nam": 598,
      "af": 599,
      "even": 600,
      "hu": 601,
      "after": 602,
      "tre": 603,
      "human": 604,
      "aur": 605,
      "there": 606,
      "spend": 607,
      "ip": 608,
      "ded": 609,
      "pa": 610,
      "leaves": 611,
      "choice": 612,
      "spir": 613,
      "gon": 614,
      "dragon": 615,
      "est": 616,
      "blocking": 617,
      "asure": 618,
      "treasure": 619,
      "island": 620,
      ".\")": 621,
      "sour": 622,
      "nonto": 623,
      "nontoken": 624,
      "named": 625,
      "mor": 626,
      "commander": 627,
      "seven": 628,
      "blin": 629,
      "goblin": 630,
      "though": 631,
      "attached": 632,
      "casts": 633,
      "od": 634,
      "once": 635,
      "part": 636,
      "isn": 637,
      "regenerate": 638,
      "mount": 639,
      "war": 640,
      "char": 641,
      "spirit": 642,
      "sa": 643,
      "hex": 644,
      "proof": 645,
      "hexproof": 646,
      "tk": 647,
      "activated": 648,
      "spent": 649,
      "source": 650,
      "charge": 651,
      "regenerated": 652,
      "aled": 653,
      "last": 654,
      "ffect": 655,
      "equipment": 656,
      "much": 657,
      "revealed": 658,
      "ered": 659,
      "not": 660,
      "vo": 661,
      "tri": 662,
      "change": 663,
      "still": 664,
      "ight": 665,
      "mut": 666,
      "ear": 667,
      "enter": 668,
      "both": 669,
      "ele": 670,
      "band": 671,
      "morph": 672,
      "phase": 673,
      "before": 674,
      "same": 675,
      "new": 676,
      "effect": 677,
      "rather": 678,
      "trig": 679,
      "rior": 680,
      "warrior": 681,
      "ity": 682,
      "paid": 683,
      "vot": 684,
      "reveals": 685,
      "amount": 686,
      "po": 687,
      "ldi": 688,
      "soldi": 689,
      "mills": 690,
      "ist": 691,
      "lem": 692,
      "kicked": 693,
      "kicker": 694,
      "pe": 695,
      "blocks": 696,
      "plus": 697,
      "prol": 698,
      "main": 699,
      "lt": 700,
      "soldier": 701,
      "had": 702,
      "win": 703,
      "while": 704,
      "mountain": 705,
      "ner": 706,
      "ze": 707,
      "base": 708,
      "partner": 709,
      "dif": 710,
      "sl": 711,
      "aura": 712,
      "em": 713,
      "cau": 714,
      "were": 715,
      "also": 716,
      "my": 717,
      "sacrificed": 718,
      "ive": 719,
      "plains": 720,
      "elf": 721,
      "roll": 722,
      "emb": 723,
      "10": 724,
      "mental": 725,
      "elemental": 726,
      "ver": 727,
      "ied": 728,
      "ward": 729,
      "roun": 730,
      "could": 731,
      "fere": 732,
      "shuffles": 733,
      "puts": 734,
      "differe": 735,
      "ise": 736,
      "um": 737,
      "night": 738,
      "os": 739,
      "vel": 740,
      "countered": 741,
      "flip": 742,
      "six": 743,
      "alty": 744,
      "sliv": 745,
      "ass": 746,
      "start": 747,
      "share": 748,
      "div": 749,
      "form": 750,
      "cond": 751,
      "second": 752,
      "colors": 753,
      "mutate": 754,
      "trigg": 755,
      "ire": 756,
      "ian": 757,
      "graveyards": 758,
      "fall": 759,
      "loy": 760,
      "become": 761,
      "emblem": 762,
      "ison": 763,
      "phy": 764,
      "loyalty": 765,
      "mad": 766,
      "divi": 767,
      "pile": 768,
      "die": 769,
      "madness": 770,
      "level": 771,
      "ma": 772,
      "landfall": 773,
      "choo": 774,
      "ves": 775,
      "phyre": 776,
      "chooses": 777,
      "pt": 778,
      "creates": 779,
      "poison": 780,
      "ation": 781,
      "deck": 782,
      "cre": 783,
      "phyrex": 784,
      "phyrexian": 785,
      "destroyed": 786,
      "ft": 787,
      "kin": 788,
      "times": 789,
      "who": 790,
      "iii": 791,
      "wise": 792,
      "planeswalkers": 793,
      "fol": 794,
      "attacked": 795,
      "otherwise": 796,
      "army": 797,
      "wor": 798,
      "op": 799,
      "cha": 800,
      "—{": 801,
      "different": 802,
      "ul": 803,
      "food": 804,
      "hic": 805,
      "vehic": 806,
      "anywhere": 807,
      "twi": 808,
      "causes": 809,
      "banding": 810,
      "twice": 811,
      "removed": 812,
      "saprol": 813,
      "saproling": 814,
      "owners": 815,
      "least": 816,
      "enchantments": 817,
      "comp": 818,
      "sliver": 819,
      "starting": 820,
      "over": 821,
      "vamp": 822,
      "vampire": 823,
      "ally": 824,
      "sn": 825,
      "ei": 826,
      "ird": 827,
      "min": 828,
      "ates": 829,
      "either": 830,
      "20": 831,
      "hi": 832,
      "wall": 833,
      "nonblack": 834,
      "monst": 835,
      "exiles": 836,
      "ten": 837,
      "hal": 838,
      "roud": 839,
      "sag": 840,
      "angel": 841,
      "kind": 842,
      "wol": 843,
      "shroud": 844,
      "ring": 845,
      "tem": 846,
      "earth": 847,
      "triggers": 848,
      "unearth": 849,
      "hor": 850,
      "sol": 851,
      "fight": 852,
      "hands": 853,
      "copies": 854,
      "crew": 855,
      "ted": 856,
      "rem": 857,
      "cu": 858,
      "nin": 859,
      "evo": 860,
      "remains": 861,
      "vehicle": 862,
      "du": 863,
      "devot": 864,
      "devotion": 865,
      "folk": 866,
      "resol": 867,
      "cyc": 868,
      "zard": 869,
      "casting": 870,
      "av": 871,
      "hel": 872,
      "greatest": 873,
      "commanders": 874,
      "ans": 875,
      "side": 876,
      "size": 877,
      "ces": 878,
      "being": 879,
      "did": 880,
      "beast": 881,
      "divided": 882,
      "wizard": 883,
      "echo": 884,
      "steps": 885,
      "monarch": 886,
      "didn": 887,
      "help": 888,
      "half": 889,
      "shad": 890,
      "wolf": 891,
      "chaos": 892,
      "knight": 893,
      "controlled": 894,
      "shadow": 895,
      "excess": 896,
      "rounded": 897,
      "outside": 898,
      "cas": 899,
      "few": 900,
      "me": 901,
      "blood": 902,
      "nonartifact": 903,
      "ser": 904,
      "snow": 905,
      "tempt": 906,
      "died": 907,
      "suspend": 908,
      "fa": 909,
      "ling": 910,
      "evoke": 911,
      "stor": 912,
      "turned": 913,
      "effects": 914,
      "resu": 915,
      "discarded": 916,
      "result": 917,
      "fights": 918,
      "produ": 919,
      "cycle": 920,
      "thing": 921,
      "lat": 922,
      "sur": 923,
      "voke": 924,
      "lore": 925,
      "lost": 926,
      "gue": 927,
      "shares": 928,
      "mer": 929,
      "say": 930,
      "imum": 931,
      "mult": 932,
      "sk": 933,
      "zombies": 934,
      "high": 935,
      "saga": 936,
      "oil": 937,
      "coin": 938,
      "tempts": 939,
      "cat": 940,
      "round": 941,
      "tell": 942,
      "erate": 943,
      "ensu": 944,
      "ensues": 945,
      "every": 946,
      "iferate": 947,
      "proliferate": 948,
      "turns": 949,
      "foretell": 950,
      "const": 951,
      "pri": 952,
      "ract": 953,
      "squ": 954,
      "ximum": 955,
      "convoke": 956,
      "maximum": 957,
      "resolves": 958,
      "stick": 959,
      "read": 960,
      "let": 961,
      "ign": 962,
      "fewer": 963,
      "cade": 964,
      "cascade": 965,
      "prow": 966,
      "text": 967,
      "rogue": 968,
      "del": 969,
      "zone": 970,
      "alone": 971,
      "ninj": 972,
      "cler": 973,
      "cleric": 974,
      "take": 975,
      "rous": 976,
      "phases": 977,
      "word": 978,
      "monstrous": 979,
      "colo": 980,
      "colored": 981,
      "fear": 982,
      "assign": 983,
      "trans": 984,
      "esca": 985,
      "aren": 986,
      "multi": 987,
      "anion": 988,
      "companion": 989,
      "nonbasic": 990,
      "ren": 991,
      "decl": 992,
      "ready": 993,
      "tu": 994,
      "ann": 995,
      "extra": 996,
      "vest": 997,
      "int": 998,
      "redu": 999,
      "bird": 1000,
      "ground": 1001,
      "background": 1002,
      "merfolk": 1003,
      "votes": 1004,
      "ous": 1005,
      "already": 1006,
      "declare": 1007,
      "rat": 1008,
      "invest": 1009,
      "void": 1010,
      "investig": 1011,
      "pres": 1012,
      "ond": 1013,
      "entered": 1014,
      "been": 1015,
      "}.\"": 1016,
      "ident": 1017,
      "islandwalk": 1018,
      "sticker": 1019,
      "ship": 1020,
      "clue": 1021,
      "most": 1022,
      "comes": 1023,
      "identity": 1024,
      "changeling": 1025,
      "vis": 1026,
      "shi": 1027,
      "open": 1028,
      "old": 1029,
      "ator": 1030,
      "unblocked": 1031,
      "ank": 1032,
      "gained": 1033,
      "swampwalk": 1034,
      "spl": 1035,
      "ero": 1036,
      "gered": 1037,
      "triggered": 1038,
      "cause": 1039,
      "petu": 1040,
      "sy": 1041,
      "islands": 1042,
      "give": 1043,
      "room": 1044,
      "amass": 1045,
      "ci": 1046,
      "par": 1047,
      "xic": 1048,
      "aries": 1049,
      "toxic": 1050,
      "attract": 1051,
      "investigate": 1052,
      "attraction": 1053,
      "ol": 1054,
      "za": 1055,
      "demon": 1056,
      "perpetu": 1057,
      "perpetually": 1058,
      "ired": 1059,
      ").": 1060,
      "dun": 1061,
      "te": 1062,
      "geon": 1063,
      "dev": 1064,
      "sect": 1065,
      "dungeon": 1066,
      "tw": 1067,
      "oun": 1068,
      "targeted": 1069,
      "piles": 1070,
      "present": 1071,
      "ince": 1072,
      "low": 1073,
      "insect": 1074,
      "combin": 1075,
      "gy": 1076,
      "since": 1077,
      "init": 1078,
      "ely": 1079,
      "golem": 1080,
      "auras": 1081,
      "istor": 1082,
      "cra": 1083,
      "represent": 1084,
      "veil": 1085,
      "ap": 1086,
      "histor": 1087,
      "remain": 1088,
      "arcan": 1089,
      "ali": 1090,
      "icate": 1091,
      "urza": 1092,
      "lesser": 1093,
      "enough": 1094,
      "zi": 1095,
      "surveil": 1096,
      "prowess": 1097,
      "bu": 1098,
      "adds": 1099,
      "overlo": 1100,
      "renown": 1101,
      "historic": 1102,
      "thop": 1103,
      "cor": 1104,
      "anything": 1105,
      "visit": 1106,
      "overload": 1107,
      "thopter": 1108,
      "rel": 1109,
      "utsu": 1110,
      "expl": 1111,
      "ninjutsu": 1112,
      "arcane": 1113,
      "eldra": 1114,
      "returns": 1115,
      "thresh": 1116,
      "party": 1117,
      "eldrazi": 1118,
      "came": 1119,
      "tied": 1120,
      "soon": 1121,
      "prevented": 1122,
      "mountains": 1123,
      "ore": 1124,
      "sing": 1125,
      "threshold": 1126,
      "devoid": 1127,
      "irrel": 1128,
      "energy": 1129,
      "horse": 1130,
      "squirrel": 1131,
      "ced": 1132,
      "ker": 1133,
      "ence": 1134,
      "ibut": 1135,
      "craft": 1136,
      "day": 1137,
      "acle": 1138,
      "paired": 1139,
      "cumu": 1140,
      "escape": 1141,
      "venture": 1142,
      "forestwalk": 1143,
      "bands": 1144,
      "lative": 1145,
      "skip": 1146,
      "ibute": 1147,
      "cumulative": 1148,
      "dragons": 1149,
      "faer": 1150,
      "din": 1151,
      "transform": 1152,
      "sided": 1153,
      "divide": 1154,
      "he": 1155,
      "manship": 1156,
      "exchange": 1157,
      "single": 1158,
      "horsemanship": 1159,
      "stack": 1160,
      "repl": 1161,
      "inf": 1162,
      "incu": 1163,
      "exact": 1164,
      "separ": 1165,
      "incub": 1166,
      "attackers": 1167,
      "construct": 1168,
      "exactly": 1169,
      "ish": 1170,
      "exer": 1171,
      "aff": 1172,
      "dy": 1173,
      "et": 1174,
      "gam": 1175,
      "inity": 1176,
      "asse": 1177,
      "assemb": 1178,
      "dist": 1179,
      "bey": 1180,
      "best": 1181,
      "domain": 1182,
      "combination": 1183,
      "gi": 1184,
      "swamps": 1185,
      "beyond": 1186,
      "tor": 1187,
      "forests": 1188,
      "reb": 1189,
      "elves": 1190,
      "produce": 1191,
      "oul": 1192,
      "goblins": 1193,
      "trigger": 1194,
      "highest": 1195,
      "symb": 1196,
      "d20": 1197,
      "third": 1198,
      "attacker": 1199,
      "cess": 1200,
      "city": 1201,
      "symbol": 1202,
      "ium": 1203,
      "ting": 1204,
      "repe": 1205,
      "ster": 1206,
      "flank": 1207,
      "process": 1208,
      "repeat": 1209,
      "flanking": 1210,
      "bless": 1211,
      "soul": 1212,
      "orcs": 1213,
      "blessing": 1214,
      "br": 1215,
      "but": 1216,
      "grou": 1217,
      "mutates": 1218,
      "ular": 1219,
      "multicolored": 1220,
      "group": 1221,
      "putting": 1222,
      "storage": 1223,
      "ues": 1224,
      "})": 1225,
      "ifest": 1226,
      "manifest": 1227,
      "theme": 1228,
      "shield": 1229,
      "declared": 1230,
      "infect": 1231,
      "ith": 1232,
      "pers": 1233,
      "use": 1234,
      "plant": 1235,
      "faerie": 1236,
      "bid": 1237,
      "created": 1238,
      "slivers": 1239,
      "eight": 1240,
      "ger": 1241,
      "mir": 1242,
      "ribute": 1243,
      "osaur": 1244,
      "dinosaur": 1245,
      "aw": 1246,
      "quest": 1247,
      "irium": 1248,
      "must": 1249,
      "delirium": 1250,
      "again": 1251,
      "nce": 1252,
      "lasts": 1253,
      "distribute": 1254,
      "gure": 1255,
      "figure": 1256,
      "mod": 1257,
      "difference": 1258,
      "renowned": 1259,
      "entwin": 1260,
      "storm": 1261,
      "bestow": 1262,
      "giant": 1263,
      "entwine": 1264,
      "indef": 1265,
      "orph": 1266,
      "exist": 1267,
      "megam": 1268,
      "initely": 1269,
      "explo": 1270,
      "indefinitely": 1271,
      "megamorph": 1272,
      "13": 1273,
      "tion": 1274,
      "recon": 1275,
      "row": 1276,
      "names": 1277,
      "assigns": 1278,
      "reconfigure": 1279,
      "mil": 1280,
      "dash": 1281,
      "treat": 1282,
      "enco": 1283,
      "left": 1284,
      "ros": 1285,
      "milled": 1286,
      "we": 1287,
      "fade": 1288,
      "ience": 1289,
      "draft": 1290,
      "nonlegendary": 1291,
      "servo": 1292,
      "ound": 1293,
      "affinity": 1294,
      "dice": 1295,
      "iz": 1296,
      "exper": 1297,
      "print": 1298,
      "experience": 1299,
      "ai": 1300,
      "alted": 1301,
      "exalted": 1302,
      "mode": 1303,
      ",\"": 1304,
      "ha": 1305,
      "pir": 1306,
      "sch": 1307,
      "spe": 1308,
      "see": 1309,
      "weren": 1310,
      "worker": 1311,
      "comple": 1312,
      "away": 1313,
      "lers": 1314,
      "ark": 1315,
      "ror": 1316,
      "itz": 1317,
      "controllers": 1318,
      "blitz": 1319,
      "imid": 1320,
      "intimid": 1321,
      "schem": 1322,
      "intimidate": 1323,
      "thir": 1324,
      "spore": 1325,
      "counts": 1326,
      "goad": 1327,
      "follow": 1328,
      "splice": 1329,
      "hero": 1330,
      "ven": 1331,
      "dec": 1332,
      "role": 1333,
      "prize": 1334,
      "scheme": 1335,
      "cit": 1336,
      "won": 1337,
      "toward": 1338,
      "unspent": 1339,
      "returned": 1340,
      "aven": 1341,
      "buy": 1342,
      "izen": 1343,
      "citizen": 1344,
      "ich": 1345,
      "libraries": 1346,
      "minus": 1347,
      "walls": 1348,
      "anni": 1349,
      "assembly": 1350,
      "ating": 1351,
      "taps": 1352,
      "later": 1353,
      "alize": 1354,
      "tra": 1355,
      "stone": 1356,
      "outlast": 1357,
      "horror": 1358,
      "buyback": 1359,
      "cleave": 1360,
      "hil": 1361,
      "wasn": 1362,
      "tree": 1363,
      "sources": 1364,
      "vote": 1365,
      "mountainwalk": 1366,
      "annihil": 1367,
      "ayed": 1368,
      "adv": 1369,
      "spi": 1370,
      "treefolk": 1371,
      "bar": 1372,
      "gu": 1373,
      "humans": 1374,
      "decayed": 1375,
      "alm": 1376,
      "chann": 1377,
      "set": 1378,
      "mag": 1379,
      "replicate": 1380,
      "channel": 1381,
      "sam": 1382,
      "whose": 1383,
      "chose": 1384,
      "discarding": 1385,
      "embalm": 1386,
      "which": 1387,
      "nine": 1388,
      "dying": 1389,
      "produced": 1390,
      "ho": 1391,
      "enty": 1392,
      "playing": 1393,
      "ellation": 1394,
      "constellation": 1395,
      "devil": 1396,
      "twenty": 1397,
      "miracle": 1398,
      "annihilator": 1399,
      "fac": 1400,
      "urai": 1401,
      "sagas": 1402,
      "represents": 1403,
      "advance": 1404,
      "samurai": 1405,
      "ake": 1406,
      "example": 1407,
      "landcycling": 1408,
      "myr": 1409,
      "metal": 1410,
      "separates": 1411,
      "spider": 1412,
      "done": 1413,
      "jure": 1414,
      "ko": 1415,
      "vers": 1416,
      "conjure": 1417,
      "rebound": 1418,
      "activating": 1419,
      "words": 1420,
      "head": 1421,
      "ug": 1422,
      "wur": 1423,
      "ative": 1424,
      "imprint": 1425,
      "searches": 1426,
      "values": 1427,
      "metalcraft": 1428,
      "wurm": 1429,
      "deser": 1430,
      "powerstone": 1431,
      "delve": 1432,
      "team": 1433,
      "magic": 1434,
      "bur": 1435,
      "ia": 1436,
      "mage": 1437,
      "mare": 1438,
      "clash": 1439,
      "tern": 1440,
      "legendaries": 1441,
      "speci": 1442,
      "etern": 1443,
      "rup": 1444,
      "arn": 1445,
      "unattach": 1446,
      "clu": 1447,
      "bol": 1448,
      "fin": 1449,
      "contra": 1450,
      "secre": 1451,
      "secret": 1452,
      "cr": 1453,
      "li": 1454,
      "rin": 1455,
      "inclu": 1456,
      "ption": 1457,
      "exert": 1458,
      "ag": 1459,
      "dre": 1460,
      "lu": 1461,
      "prov": 1462,
      "entering": 1463,
      "pop": 1464,
      "snake": 1465,
      "monstros": 1466,
      "multikicker": 1467,
      "reduces": 1468,
      "split": 1469,
      "ets": 1470,
      "faced": 1471,
      "eternalize": 1472,
      "monstrosity": 1473,
      "pack": 1474,
      "off": 1475,
      "true": 1476,
      "phant": 1477,
      "symbols": 1478,
      "desert": 1479,
      "contraption": 1480,
      "ful": 1481,
      "nive": 1482,
      "stun": 1483,
      "asc": 1484,
      "beare": 1485,
      "modif": 1486,
      "improv": 1487,
      "connive": 1488,
      "phased": 1489,
      "hide": 1490,
      "corrup": 1491,
      "bearer": 1492,
      "modified": 1493,
      "improvise": 1494,
      "bear": 1495,
      "incubator": 1496,
      "magecraft": 1497,
      "ske": 1498,
      "will": 1499,
      "sist": 1500,
      "elephant": 1501,
      "mine": 1502,
      "pirate": 1503,
      "heroic": 1504,
      "nightmare": 1505,
      "higher": 1506,
      "incubate": 1507,
      "wer": 1508,
      "ances": 1509,
      "drawn": 1510,
      "motion": 1511,
      "illus": 1512,
      "regular": 1513,
      "illusion": 1514,
      "19": 1515,
      "fri": 1516,
      "instances": 1517,
      "powers": 1518,
      "rats": 1519,
      "persist": 1520,
      "friend": 1521,
      "ll": 1522,
      "na": 1523,
      "oo": 1524,
      "undying": 1525,
      "vehicles": 1526,
      "reduce": 1527,
      "hideaway": 1528,
      "cil": 1529,
      "coun": 1530,
      "een": 1531,
      "itch": 1532,
      "precombat": 1533,
      "susp": 1534,
      "devour": 1535,
      "exerted": 1536,
      "seek": 1537,
      "ascend": 1538,
      "council": 1539,
      "12": 1540,
      "aim": 1541,
      "zes": 1542,
      "scaven": 1543,
      "rowth": 1544,
      "verse": 1545,
      "ctor": 1546,
      "betw": 1547,
      "werewolf": 1548,
      "vampires": 1549,
      "bloodthir": 1550,
      "apon": 1551,
      "transforms": 1552,
      "weapon": 1553,
      "between": 1554,
      "bloodthirst": 1555,
      "kh": 1556,
      "kith": 1557,
      "ort": 1558,
      "iving": 1559,
      "spirits": 1560,
      "ulate": 1561,
      "populate": 1562,
      "kithkin": 1563,
      "ak": 1564,
      "dred": 1565,
      "armor": 1566,
      "else": 1567,
      "morbid": 1568,
      "ooze": 1569,
      "cur": 1570,
      "den": 1571,
      "gate": 1572,
      "living": 1573,
      "treated": 1574,
      "ding": 1575,
      "fero": 1576,
      "tower": 1577,
      "god": 1578,
      "pair": 1579,
      "cious": 1580,
      "alizes": 1581,
      "modular": 1582,
      "haunt": 1583,
      "specializes": 1584,
      "bolster": 1585,
      "scavenge": 1586,
      "dredge": 1587,
      "ferocious": 1588,
      "fe": 1589,
      "growth": 1590,
      "hour": 1591,
      "des": 1592,
      "book": 1593,
      "teen": 1594,
      "initi": 1595,
      "germ": 1596,
      "awn": 1597,
      "exploit": 1598,
      "completed": 1599,
      "following": 1600,
      "drew": 1601,
      "esh": 1602,
      "raid": 1603,
      "blockers": 1604,
      "hasn": 1605,
      "note": 1606,
      "reduced": 1607,
      "opening": 1608,
      "encore": 1609,
      "connives": 1610,
      "initiative": 1611,
      "kra": 1612,
      "lect": 1613,
      "coven": 1614,
      "spawn": 1615,
      "shrin": 1616,
      "dog": 1617,
      "noncombat": 1618,
      "right": 1619,
      "ations": 1620,
      "leton": 1621,
      "bond": 1622,
      "dwar": 1623,
      "hy": 1624,
      "hin": 1625,
      "ka": 1626,
      "la": 1627,
      "thr": 1628,
      "acy": 1629,
      "totem": 1630,
      "ante": 1631,
      "claim": 1632,
      "supp": 1633,
      "switch": 1634,
      "skeleton": 1635,
      "ey": 1636,
      "mast": 1637,
      "ended": 1638,
      "ifter": 1639,
      "champ": 1640,
      "ading": 1641,
      "sacrificing": 1642,
      "proto": 1643,
      "changed": 1644,
      "escap": 1645,
      "shido": 1646,
      "bushido": 1647,
      "champion": 1648,
      "hell": 1649,
      "him": 1650,
      "ix": 1651,
      "revo": 1652,
      "wither": 1653,
      "plays": 1654,
      "unchanged": 1655,
      "shap": 1656,
      "riad": 1657,
      "backup": 1658,
      "rules": 1659,
      "conver": 1660,
      "boo": 1661,
      "myriad": 1662,
      "soulbond": 1663,
      "guess": 1664,
      "shapesh": 1665,
      "fading": 1666,
      "pent": 1667,
      "page": 1668,
      "ord": 1669,
      "played": 1670,
      "ifications": 1671,
      "bold": 1672,
      "wins": 1673,
      "surge": 1674,
      "letter": 1675,
      "transmut": 1676,
      "rebel": 1677,
      "modifications": 1678,
      "exploits": 1679,
      "encoded": 1680,
      "secretly": 1681,
      "kraken": 1682,
      "support": 1683,
      "shapeshifter": 1684,
      "iance": 1685,
      "kn": 1686,
      "van": 1687,
      "learn": 1688,
      "contains": 1689,
      "sham": 1690,
      "scion": 1691,
      "consist": 1692,
      "gold": 1693,
      "sum": 1694,
      "emer": 1695,
      "dupl": 1696,
      "prowl": 1697,
      "kobold": 1698,
      "revolt": 1699,
      "consists": 1700,
      "aded": 1701,
      "sun": 1702,
      "arro": 1703,
      "whead": 1704,
      "unpaired": 1705,
      "planar": 1706,
      "mono": 1707,
      "odd": 1708,
      "noted": 1709,
      "ninja": 1710,
      "ously": 1711,
      "tort": 1712,
      "transmute": 1713,
      "arrowhead": 1714,
      "fate": 1715,
      "ran": 1716,
      "wra": 1717,
      "retr": 1718,
      "robot": 1719,
      "ved": 1720,
      "key": 1721,
      "goaded": 1722,
      "evol": 1723,
      "brack": 1724,
      "person": 1725,
      "crank": 1726,
      "suspended": 1727,
      "emerge": 1728,
      "eg": 1729,
      "gar": 1730,
      "mark": 1731,
      "ift": 1732,
      "owns": 1733,
      "keeps": 1734,
      "wolves": 1735,
      "square": 1736,
      "khans": 1737,
      "prototype": 1738,
      "shaman": 1739,
      "retrace": 1740,
      "evolve": 1741,
      "affect": 1742,
      "aug": 1743,
      "bal": 1744,
      "kes": 1745,
      "ramp": 1746,
      "acing": 1747,
      "ask": 1748,
      "spect": 1749,
      "frog": 1750,
      "nonwhite": 1751,
      "skips": 1752,
      "replacing": 1753,
      "train": 1754,
      "summon": 1755,
      "brackets": 1756,
      "augment": 1757,
      "da": 1758,
      "year": 1759,
      "extort": 1760,
      "doom": 1761,
      "igno": 1762,
      "ome": 1763,
      "evenly": 1764,
      "warriors": 1765,
      "post": 1766,
      "resolved": 1767,
      "aving": 1768,
      "appl": 1769,
      "ishing": 1770,
      "corrupted": 1771,
      "throne": 1772,
      "ignore": 1773,
      "bent": 1774,
      "kor": 1775,
      "lie": 1776,
      "mate": 1777,
      "sick": 1778,
      "wear": 1779,
      "dep": 1780,
      "itself": 1781,
      "artist": 1782,
      "~.\"": 1783,
      "mentor": 1784,
      "goat": 1785,
      "emp": 1786,
      "skul": 1787,
      "explore": 1788,
      "hellbent": 1789,
      "converge": 1790,
      "wraith": 1791,
      "rampage": 1792,
      "spectacle": 1793,
      "sickness": 1794,
      "explores": 1795,
      "15": 1796,
      "bre": 1797,
      "gas": 1798,
      "nor": 1799,
      "erker": 1800,
      "contin": 1801,
      "unattached": 1802,
      "conspir": 1803,
      "using": 1804,
      "pegas": 1805,
      "compleated": 1806,
      "burst": 1807,
      "dwarf": 1808,
      "vanishing": 1809,
      "monocolored": 1810,
      "conspiracy": 1811,
      "bers": 1812,
      "mele": 1813,
      "ss": 1814,
      "ualty": 1815,
      "enant": 1816,
      "rock": 1817,
      "dethrone": 1818,
      "rage": 1819,
      "adventure": 1820,
      "utenant": 1821,
      "lesson": 1822,
      "bla": 1823,
      "untaps": 1824,
      "fling": 1825,
      "pho": 1826,
      "world": 1827,
      "casualty": 1828,
      "letion": 1829,
      "followed": 1830,
      "like": 1831,
      "friends": 1832,
      "hydra": 1833,
      "summoning": 1834,
      "apply": 1835,
      "lieutenant": 1836,
      "depletion": 1837,
      "pegasus": 1838,
      "melee": 1839,
      "cle": 1840,
      "gr": 1841,
      "his": 1842,
      "lin": 1843,
      "mire": 1844,
      "boast": 1845,
      "berserker": 1846,
      "bat": 1847,
      "fab": 1848,
      "fract": 1849,
      "ne": 1850,
      "rush": 1851,
      "inkling": 1852,
      "soldiers": 1853,
      "ump": 1854,
      "complet": 1855,
      "training": 1856,
      "fabr": 1857,
      "fractal": 1858,
      "ki": 1859,
      "ove": 1860,
      "atar": 1861,
      "above": 1862,
      "flav": 1863,
      "monk": 1864,
      "kinds": 1865,
      "avatar": 1866,
      "full": 1867,
      "shrine": 1868,
      "mastery": 1869,
      "duplicate": 1870,
      "sunburst": 1871,
      "flavor": 1872,
      "jump": 1873,
      "neither": 1874,
      "rhin": 1875,
      "thru": 1876,
      "enl": 1877,
      "ime": 1878,
      "wizards": 1879,
      "fewest": 1880,
      "skulk": 1881,
      "fabricate": 1882,
      "rhino": 1883,
      "thrull": 1884,
      "aken": 1885,
      "ather": 1886,
      "atch": 1887,
      "enrage": 1888,
      "ict": 1889,
      "loss": 1890,
      "sub": 1891,
      "foods": 1892,
      "serpent": 1893,
      "awaken": 1894,
      "booster": 1895,
      "ax": 1896,
      "cent": 1897,
      "meld": 1898,
      "ota": 1899,
      "some": 1900,
      "}\"": 1901,
      "stu": 1902,
      "ality": 1903,
      "ada": 1904,
      "ics": 1905,
      "shift": 1906,
      "slime": 1907,
      "pters": 1908,
      "minota": 1909,
      "halfling": 1910,
      "divides": 1911,
      "clashing": 1912,
      "includes": 1913,
      "escapes": 1914,
      "minotaur": 1915,
      "'\"": 1916,
      "fun": 1917,
      "ide": 1918,
      "vow": 1919,
      "ref": 1920,
      "spellbook": 1921,
      "graft": 1922,
      "alliance": 1923,
      "seconds": 1924,
      "crewed": 1925,
      "bloodrush": 1926,
      "everything": 1927,
      "soulshift": 1928,
      "bargain": 1929,
      "bargained": 1930,
      "luck": 1931,
      "cry": 1932,
      "nong": 1933,
      "oc": 1934,
      "pse": 1935,
      "pter": 1936,
      "ycling": 1937,
      "reen": 1938,
      "orn": 1939,
      "plain": 1940,
      "landwalk": 1941,
      "scycling": 1942,
      "common": 1943,
      "chapter": 1944,
      "knights": 1945,
      "coins": 1946,
      "corpse": 1947,
      "heal": 1948,
      "empty": 1949,
      "adapt": 1950,
      "nongreen": 1951,
      "plainscycling": 1952,
      "14": 1953,
      "ber": 1954,
      "cal": 1955,
      "pest": 1956,
      "alion": 1957,
      "forever": 1958,
      "iple": 1959,
      "divinity": 1960,
      "multiple": 1961,
      "stickers": 1962,
      "separate": 1963,
      "including": 1964,
      "luk": 1965,
      "feather": 1966,
      "affected": 1967,
      "'{": 1968,
      "gri": 1969,
      "how": 1970,
      "ering": 1971,
      "ens": 1972,
      "cover": 1973,
      "fire": 1974,
      "drake": 1975,
      "come": 1976,
      "results": 1977,
      "affl": 1978,
      "egg": 1979,
      "clean": 1980,
      "gus": 1981,
      "ju": 1982,
      "mite": 1983,
      "tide": 1984,
      "ang": 1985,
      "enda": 1986,
      "tribute": 1987,
      "mining": 1988,
      "lowest": 1989,
      "brick": 1990,
      "thirteen": 1991,
      "host": 1992,
      "postcombat": 1993,
      "afflict": 1994,
      "cleanup": 1995,
      "hom": 1996,
      "ters": 1997,
      "leash": 1998,
      "unleash": 1999,
      "undergrowth": 2000,
      "activates": 2001,
      "strive": 2002,
      "treasures": 2003,
      "plainswalk": 2004,
      "lection": 2005,
      "octop": 2006,
      "bount": 2007,
      "got": 2008,
      "haven": 2009,
      "ja": 2010,
      "mar": 2011,
      "ox": 2012,
      "ately": 2013,
      "stand": 2014,
      "stay": 2015,
      "battalion": 2016,
      "corn": 2017,
      "enlist": 2018,
      "fungus": 2019,
      "bounty": 2020,
      "gotcha": 2021,
      ".'\"": 2022,
      "hat": 2023,
      "here": 2024,
      "having": 2025,
      "ple": 2026,
      "rate": 2027,
      "ving": 2028,
      "wish": 2029,
      "sprock": 2030,
      "takes": 2031,
      "searched": 2032,
      "looks": 2033,
      "pher": 2034,
      "touching": 2035,
      "totals": 2036,
      "creas": 2037,
      "crews": 2038,
      "intens": 2039,
      "teammate": 2040,
      "blade": 2041,
      "intensity": 2042,
      "11": 2043,
      "gor": 2044,
      "gates": 2045,
      "har": 2046,
      "self": 2047,
      "vit": 2048,
      "endum": 2049,
      "addendum": 2050,
      "frodo": 2051,
      "tour": 2052,
      "phen": 2053,
      "used": 2054,
      "cycled": 2055,
      "cats": 2056,
      "squirrels": 2057,
      "faeries": 2058,
      "eye": 2059,
      "centaur": 2060,
      "stays": 2061,
      "ether": 2062,
      "ham": 2063,
      "kal": 2064,
      "lord": 2065,
      "uously": 2066,
      "wat": 2067,
      "yle": 2068,
      "ane": 2069,
      "coward": 2070,
      "rodin": 2071,
      "escal": 2072,
      "raven": 2073,
      "uni": 2074,
      "doctor": 2075,
      "point": 2076,
      "mountaincycling": 2077,
      "flips": 2078,
      "produces": 2079,
      "cipher": 2080,
      "separately": 2081,
      "mirrodin": 2082,
      "dogs": 2083,
      "know": 2084,
      "wears": 2085,
      "continuously": 2086,
      "sprockets": 2087,
      "water": 2088,
      "escalate": 2089,
      "!\"": 2090,
      "ape": 2091,
      "cna": 2092,
      "light": 2093,
      "sim": 2094,
      "uses": 2095,
      "ult": 2096,
      "via": 2097,
      "ani": 2098,
      "rox": 2099,
      "rolled": 2100,
      "vecna": 2101,
      "sector": 2102,
      "tail": 2103,
      "assin": 2104,
      "assassin": 2105,
      "demons": 2106,
      "burden": 2107,
      "vowel": 2108,
      "ravenous": 2109,
      "bin": 2110,
      "clow": 2111,
      "ipped": 2112,
      "sor": 2113,
      "tact": 2114,
      "vi": 2115,
      "zero": 2116,
      "insp": 2117,
      "inence": 2118,
      "increas": 2119,
      "inger": 2120,
      "begins": 2121,
      "ions": 2122,
      "riot": 2123,
      "flame": 2124,
      "eminence": 2125,
      "surv": 2126,
      "finish": 2127,
      "kobolds": 2128,
      "completely": 2129,
      "clown": 2130,
      "inspired": 2131,
      "bel": 2132,
      "cen": 2133,
      "cro": 2134,
      "cus": 2135,
      "dire": 2136,
      "ika": 2137,
      "king": 2138,
      "match": 2139,
      "oin": 2140,
      "rally": 2141,
      "vok": 2142,
      "yr": 2143,
      "yor": 2144,
      "encounter": 2145,
      "told": 2146,
      "andon": 2147,
      "lock": 2148,
      "active": 2149,
      "abandon": 2150,
      "omen": 2151,
      "rule": 2152,
      "scre": 2153,
      "touches": 2154,
      "sive": 2155,
      "wind": 2156,
      "velin": 2157,
      "minion": 2158,
      "monster": 2159,
      "angels": 2160,
      "mercen": 2161,
      "combine": 2162,
      "height": 2163,
      "games": 2164,
      "corruption": 2165,
      "lair": 2166,
      "javelin": 2167,
      "vitality": 2168,
      "direct": 2169,
      "ahead": 2170,
      "car": 2171,
      "carn": 2172,
      "numb": 2173,
      "net": 2174,
      "ob": 2175,
      "oth": 2176,
      "uro": 2177,
      "ena": 2178,
      "lead": 2179,
      "rog": 2180,
      "spire": 2181,
      "exp": 2182,
      "cele": 2183,
      "longer": 2184,
      "foot": 2185,
      "item": 2186,
      "conspire": 2187,
      "nothing": 2188,
      "box": 2189,
      "forestcycling": 2190,
      "phasing": 2191,
      "slumber": 2192,
      "chapters": 2193,
      "skipped": 2194,
      "letters": 2195,
      "pirates": 2196,
      "heads": 2197,
      "breath": 2198,
      "study": 2199,
      "tactics": 2200,
      "scream": 2201,
      "),": 2202,
      "bor": 2203,
      "flo": 2204,
      "her": 2205,
      "han": 2206,
      "krox": 2207,
      "sil": 2208,
      "tent": 2209,
      "zz": 2210,
      "anim": 2211,
      "levia": 2212,
      "demonst": 2213,
      "amant": 2214,
      "rad": 2215,
      "adamant": 2216,
      "locus": 2217,
      "force": 2218,
      "shark": 2219,
      "scrying": 2220,
      "ledge": 2221,
      "sword": 2222,
      "swampcycling": 2223,
      "triple": 2224,
      "werewolves": 2225,
      "rolls": 2226,
      "resolving": 2227,
      "clerics": 2228,
      "assemble": 2229,
      "hope": 2230,
      "aneously": 2231,
      "watermark": 2232,
      "simult": 2233,
      "numbers": 2234,
      "kroxa": 2235,
      "tentacle": 2236,
      "leviathan": 2237,
      "simultaneously": 2238,
      "[+": 2239,
      "dic": 2240,
      "dile": 2241,
      "dru": 2242,
      "hid": 2243,
      "hol": 2244,
      "mid": 2245,
      "remin": 2246,
      "ley": 2247,
      "ify": 2248,
      "ander": 2249,
      "assist": 2250,
      "rag": 2251,
      "icke": 2252,
      "log": 2253,
      "acter": 2254,
      "moth": 2255,
      "nonattacking": 2256,
      "timing": 2257,
      "idable": 2258,
      "class": 2259,
      "pha": 2260,
      "convok": 2261,
      "character": 2262,
      "voice": 2263,
      "formidable": 2264,
      "saprolings": 2265,
      "cycles": 2266,
      "inter": 2267,
      "attractions": 2268,
      "golems": 2269,
      "assembles": 2270,
      "whichever": 2271,
      "specialize": 2272,
      "naut": 2273,
      "reflection": 2274,
      "grim": 2275,
      "just": 2276,
      "octopus": 2277,
      "phenomen": 2278,
      "knowledge": 2279,
      "mercenary": 2280,
      "celebr": 2281,
      "druid": 2282,
      "reminder": 2283,
      "convoked": 2284,
      "phenomenon": 2285,
      "50": 2286,
      "]:": 2287,
      "__": 2288,
      "ague": 2289,
      "bri": 2290,
      "fif": 2291,
      "fuse": 2292,
      "grin": 2293,
      "pur": 2294,
      "ras": 2295,
      "run": 2296,
      "sm": 2297,
      "tain": 2298,
      "var": 2299,
      "rein": 2300,
      "ata": 2301,
      "enix": 2302,
      "inn": 2303,
      "iter": 2304,
      "ors": 2305,
      "iss": 2306,
      "whether": 2307,
      "detain": 2308,
      "che": 2309,
      "place": 2310,
      "loon": 2311,
      "que": 2312,
      "blink": 2313,
      "upkeeps": 2314,
      "tyran": 2315,
      "activation": 2316,
      "looked": 2317,
      "clues": 2318,
      "boon": 2319,
      "forecast": 2320,
      "foretold": 2321,
      "afterlife": 2322,
      "mutated": 2323,
      "poluk": 2324,
      "make": 2325,
      "horde": 2326,
      "ansion": 2327,
      "syr": 2328,
      "final": 2329,
      "nightmares": 2330,
      "curs": 2331,
      "haunting": 2332,
      "ranos": 2333,
      "balloon": 2334,
      "daunt": 2335,
      "phoenix": 2336,
      "hamster": 2337,
      "kaldra": 2338,
      "tails": 2339,
      "vowels": 2340,
      "leads": 2341,
      "expansion": 2342,
      "grimgrin": 2343,
      "celebration": 2344,
      "reinforce": 2345,
      "blinkmoth": 2346,
      "tyranid": 2347,
      "polukranos": 2348,
      "acorn": 2349,
      "ben": 2350,
      "cred": 2351,
      "crow": 2352,
      "dar": 2353,
      "eal": 2354,
      "hit": 2355,
      "jug": 2356,
      "join": 2357,
      "ky": 2358,
      "kar": 2359,
      "las": 2360,
      "mig": 2361,
      "mma": 2362,
      "pin": 2363,
      "sis": 2364,
      "tit": 2365,
      "arm": 2366,
      "inge": 2367,
      "leaving": 2368,
      "iffin": 2369,
      "andra": 2370,
      "chandra": 2371,
      "select": 2372,
      "table": 2373,
      "cked": 2374,
      "undaunt": 2375,
      "about": 2376,
      "instance": 2377,
      "rith": 2378,
      "plane": 2379,
      "provoke": 2380,
      "omn": 2381,
      "phyrexians": 2382,
      "ulus": 2383,
      "avite": 2384,
      "devou": 2385,
      "bidding": 2386,
      "gernaut": 2387,
      "escaped": 2388,
      "championship": 2389,
      "guesses": 2390,
      "phoros": 2391,
      "griffin": 2392,
      "melds": 2393,
      "flood": 2394,
      "silver": 2395,
      "dilemma": 2396,
      "hidden": 2397,
      "purphoros": 2398,
      "juggernaut": 2399,
      "undaunted": 2400,
      "aj": 2401,
      "eus": 2402,
      "fast": 2403,
      "fbl": 2404,
      "mika": 2405,
      "ram": 2406,
      "rer": 2407,
      "thp": 2408,
      "aring": 2409,
      "lego": 2410,
      "cohor": 2411,
      "str": 2412,
      "rope": 2413,
      "ortion": 2414,
      "elve": 2415,
      "alpha": 2416,
      "plague": 2417,
      "advis": 2418,
      "astart": 2419,
      "searching": 2420,
      "rubin": 2421,
      "scroll": 2422,
      "boar": 2423,
      "voted": 2424,
      "differently": 2425,
      "avan": 2426,
      "says": 2427,
      "twelve": 2428,
      "printed": 2429,
      "bolas": 2430,
      "agenda": 2431,
      "dream": 2432,
      "suspect": 2433,
      "shrines": 2434,
      "skeletons": 2435,
      "eyes": 2436,
      "robots": 2437,
      "gargo": 2438,
      "complete": 2439,
      "unique": 2440,
      "lightning": 2441,
      "below": 2442,
      "rogues": 2443,
      "demonstrate": 2444,
      "ragavan": 2445,
      "cursed": 2446,
      "ajani": 2447,
      "fblthp": 2448,
      "mikaeus": 2449,
      "legolas": 2450,
      "cohort": 2451,
      "astartes": 2452,
      ".]": 2453,
      "fre": 2454,
      "gim": 2455,
      "ject": 2456,
      "kma": 2457,
      "nat": 2458,
      "pil": 2459,
      "sat": 2460,
      "sent": 2461,
      "reward": 2462,
      "arid": 2463,
      "arag": 2464,
      "indic": 2465,
      "iling": 2466,
      "wicked": 2467,
      "spark": 2468,
      "exiling": 2469,
      "ices": 2470,
      "loz": 2471,
      "seat": 2472,
      "forces": 2473,
      "grakma": 2474,
      "drawing": 2475,
      "choices": 2476,
      "scout": 2477,
      "voting": 2478,
      "drafted": 2479,
      "offer": 2480,
      "offering": 2481,
      "haunts": 2482,
      "balan": 2483,
      "subgame": 2484,
      "standard": 2485,
      "increase": 2486,
      "radiance": 2487,
      "fifteen": 2488,
      "migloz": 2489,
      "omnath": 2490,
      "juggernauts": 2491,
      "gimli": 2492,
      "pilot": 2493,
      "satyr": 2494,
      "aragorn": 2495,
      "grakmaw": 2496,
      "az": 2497,
      "ale": 2498,
      "bra": 2499,
      "ball": 2500,
      "culus": 2501,
      "dj": 2502,
      "dr": 2503,
      "fish": 2504,
      "gl": 2505,
      "gla": 2506,
      "ien": 2507,
      "nation": 2508,
      "opters": 2509,
      "san": 2510,
      "sig": 2511,
      "recor": 2512,
      "reselect": 2513,
      "thopters": 2514,
      "arix": 2515,
      "thes": 2516,
      "stage": 2517,
      "stop": 2518,
      "roma": 2519,
      "ori": 2520,
      "elenda": 2521,
      "yourself": 2522,
      "deon": 2523,
      "dered": 2524,
      "deter": 2525,
      "ama": 2526,
      "ampl": 2527,
      "beg": 2528,
      "sphin": 2529,
      "putin": 2530,
      "fort": 2531,
      "unculus": 2532,
      "ongo": 2533,
      "tract": 2534,
      "area": 2535,
      "foe": 2536,
      "wasp": 2537,
      "monkey": 2538,
      "islandcycling": 2539,
      "odai": 2540,
      "100": 2541,
      "couldn": 2542,
      "decks": 2543,
      "minimum": 2544,
      "200": 2545,
      "methes": 2546,
      "squad": 2547,
      "gideon": 2548,
      "dinosaurs": 2549,
      "kogla": 2550,
      "kher": 2551,
      "curse": 2552,
      "pentavite": 2553,
      "fateful": 2554,
      "subtract": 2555,
      "something": 2556,
      "homunculus": 2557,
      "survive": 2558,
      "rasputin": 2559,
      "kyodai": 2560,
      "titan": 2561,
      "devoured": 2562,
      "rubinia": 2563,
      "gargoyle": 2564,
      "djinn": 2565,
      "record": 2566,
      "arixmethes": 2567,
      "amplify": 2568,
      "sphinx": 2569,
      "].": 2570,
      "cir": 2571,
      "gener": 2572,
      "grand": 2573,
      "hn": 2574,
      "hunt": 2575,
      "hack": 2576,
      "jace": 2577,
      "lil": 2578,
      "ogre": 2579,
      "sal": 2580,
      "vill": 2581,
      "wr": 2582,
      "xos": 2583,
      "ya": 2584,
      "reroll": 2585,
      "revel": 2586,
      "enn": 2587,
      "ela": 2588,
      "isela": 2589,
      "ild": 2590,
      "adri": 2591,
      "oney": 2592,
      "quality": 2593,
      "allies": 2594,
      "she": 2595,
      "nonenchantment": 2596,
      "flu": 2597,
      "ruk": 2598,
      "warlock": 2599,
      "makes": 2600,
      "kinship": 2601,
      "teddy": 2602,
      "merry": 2603,
      "parley": 2604,
      "gyru": 2605,
      "crab": 2606,
      "question": 2607,
      "giants": 2608,
      "weir": 2609,
      "contraptions": 2610,
      "feet": 2611,
      "garruk": 2612,
      "hanweir": 2613,
      "credit": 2614,
      "ingest": 2615,
      "indicated": 2616,
      "ongoing": 2617,
      "\"[": 2618,
      "(~": 2619,
      "],": 2620,
      "bles": 2621,
      "born": 2622,
      "due": 2623,
      "iy": 2624,
      "iod": 2625,
      "kav": 2626,
      "lage": 2627,
      "mish": 2628,
      "money": 2629,
      "pi": 2630,
      "ps": 2631,
      "pink": 2632,
      "portion": 2633,
      "rison": 2634,
      "sand": 2635,
      "wen": 2636,
      "xant": 2637,
      "reverse": 2638,
      "arwen": 2639,
      "eng": 2640,
      "incarn": 2641,
      "influ": 2642,
      "ora": 2643,
      "urb": 2644,
      "demate": 2645,
      "chroma": 2646,
      "rap": 2647,
      "ends": 2648,
      "pple": 2649,
      "ibery": 2650,
      "artific": 2651,
      "epic": 2652,
      "moon": 2653,
      "keim": 2654,
      "rie": 2655,
      "valor": 2656,
      "board": 2657,
      "mony": 2658,
      "pause": 2659,
      "volo": 2660,
      "ears": 2661,
      "pool": 2662,
      "winning": 2663,
      "starts": 2664,
      "iana": 2665,
      "horn": 2666,
      "heliod": 2667,
      "series": 2668,
      "tempting": 2669,
      "pridemate": 2670,
      "investigates": 2671,
      "bribery": 2672,
      "hak": 2673,
      "speak": 2674,
      "secrets": 2675,
      "cron": 2676,
      "master": 2677,
      "wearing": 2678,
      "worlds": 2679,
      "lines": 2680,
      "necron": 2681,
      "lukka": 2682,
      "marit": 2683,
      "harmony": 2684,
      "cowards": 2685,
      "yorvo": 2686,
      "direction": 2687,
      "object": 2688,
      "bordered": 2689,
      "liliana": 2690,
      "salam": 2691,
      "kavu": 2692,
      "mishra": 2693,
      "xantcha": 2694,
      "influence": 2695,
      "keimi": 2696,
      "ae": 2697,
      "bro": 2698,
      "cart": 2699,
      "call": 2700,
      "eath": 2701,
      "lab": 2702,
      "miss": 2703,
      "ron": 2704,
      "sle": 2705,
      "son": 2706,
      "tle": 2707,
      "tus": 2708,
      "vir": 2709,
      "wy": 2710,
      "ys": 2711,
      "ouche": 2712,
      "anos": 2713,
      "inel": 2714,
      "cove": 2715,
      "ingen": 2716,
      "assa": 2717,
      "owned": 2718,
      "cerer": 2719,
      "ripple": 2720,
      "areth": 2721,
      "arecrow": 2722,
      "copied": 2723,
      "planeswalks": 2724,
      "restart": 2725,
      "scarecrow": 2726,
      "gos": 2727,
      "goes": 2728,
      "rough": 2729,
      "seventh": 2730,
      "istics": 2731,
      "elementals": 2732,
      "ulf": 2733,
      "assigned": 2734,
      "amassed": 2735,
      "combined": 2736,
      "manifests": 2737,
      "manifested": 2738,
      "devils": 2739,
      "curses": 2740,
      "dwarves": 2741,
      "guessed": 2742,
      "duplic": 2743,
      "keyword": 2744,
      "wraiths": 2745,
      "blaze": 2746,
      "sorcerer": 2747,
      "abandoned": 2748,
      "characteristics": 2749,
      "rune": 2750,
      "beneath": 2751,
      "championships": 2752,
      "advisors": 2753,
      "natur": 2754,
      "sentinel": 2755,
      "began": 2756,
      "gyruda": 2757,
      "cartouche": 2758,
      "..": 2759,
      "25": 2760,
      "app": 2761,
      "cer": 2762,
      "dri": 2763,
      "fell": 2764,
      "fest": 2765,
      "hir": 2766,
      "jack": 2767,
      "jour": 2768,
      "jection": 2769,
      "klo": 2770,
      "mal": 2771,
      "mnation": 2772,
      "nis": 2773,
      "native": 2774,
      "pr": 2775,
      "pie": 2776,
      "pass": 2777,
      "psy": 2778,
      "rib": 2779,
      "sar": 2780,
      "slog": 2781,
      "tie": 2782,
      "uity": 2783,
      "vadri": 2784,
      "well": 2785,
      "xena": 2786,
      "xander": 2787,
      "rect": 2788,
      "throw": 2789,
      "thys": 2790,
      "through": 2791,
      "ana": 2792,
      "answ": 2793,
      "anax": 2794,
      "inspir": 2795,
      "ged": 2796,
      "ones": 2797,
      "sticke": 2798,
      "tos": 2799,
      "ife": 2800,
      "elk": 2801,
      "urk": 2802,
      "deci": 2803,
      "demnation": 2804,
      "rare": 2805,
      "bee": 2806,
      "sealed": 2807,
      "ibal": 2808,
      "kenrith": 2809,
      "unk": 2810,
      "unspecializes": 2811,
      "shard": 2812,
      "collection": 2813,
      "coming": 2814,
      "dom": 2815,
      "blast": 2816,
      "flag": 2817,
      "asht": 2818,
      "moves": 2819,
      "progr": 2820,
      "omar": 2821,
      "soot": 2822,
      "condemnation": 2823,
      "legs": 2824,
      "body": 2825,
      "ighten": 2826,
      "slug": 2827,
      "work": 2828,
      "ulasht": 2829,
      "ava": 2830,
      "sideboard": 2831,
      "serf": 2832,
      "tempted": 2833,
      "wordy": 2834,
      "tuk": 2835,
      "press": 2836,
      "disturb": 2837,
      "guard": 2838,
      "lizard": 2839,
      "krakens": 2840,
      "goldber": 2841,
      "continues": 2842,
      "grace": 2843,
      "serpents": 2844,
      "healing": 2845,
      "octopuses": 2846,
      "boxes": 2847,
      "zzt": 2848,
      "animate": 2849,
      "leviathans": 2850,
      "hollow": 2851,
      "darien": 2852,
      "origin": 2853,
      "determine": 2854,
      "generic": 2855,
      "wrong": 2856,
      "incarnation": 2857,
      "haktos": 2858,
      "ingenuity": 2859,
      "natural": 2860,
      "appears": 2861,
      "drizzt": 2862,
      "journ": 2863,
      "klothys": 2864,
      "nissa": 2865,
      "slogurk": 2866,
      "vadrik": 2867,
      "xenagos": 2868,
      "stickered": 2869,
      "flagbearer": 2870,
      "program": 2871,
      "goldberry": 2872,
      "\"~": 2873,
      "30": 2874,
      "aver": 2875,
      "bit": 2876,
      "bow": 2877,
      "bring": 2878,
      "dan": 2879,
      "dle": 2880,
      "dent": 2881,
      "dark": 2882,
      "eth": 2883,
      "etr": 2884,
      "fer": 2885,
      "fren": 2886,
      "found": 2887,
      "fang": 2888,
      "finger": 2889,
      "ial": 2890,
      "mlin": 2891,
      "pact": 2892,
      "ray": 2893,
      "ssive": 2894,
      "tiv": 2895,
      "twin": 2896,
      "troll": 2897,
      "ticke": 2898,
      "vax": 2899,
      "yes": 2900,
      "recover": 2901,
      "oud": 2902,
      "ara": 2903,
      "ine": 2904,
      "inite": 2905,
      "tooth": 2906,
      "whis": 2907,
      "contain": 2908,
      "rak": 2909,
      "ilable": 2910,
      "ical": 2911,
      "front": 2912,
      "actions": 2913,
      "cannon": 2914,
      "perf": 2915,
      "perform": 2916,
      "destroys": 2917,
      "sho": 2918,
      "ima": 2919,
      "tymare": 2920,
      "tyvar": 2921,
      "gremlin": 2922,
      "gressive": 2923,
      "instants": 2924,
      "scul": 2925,
      "randomly": 2926,
      "regenerates": 2927,
      "goll": 2928,
      "legal": 2929,
      "prote": 2930,
      "protect": 2931,
      "vol": 2932,
      "peop": 2933,
      "elfth": 2934,
      "vern": 2935,
      "phyl": 2936,
      "phyresis": 2937,
      "worm": 2938,
      "mines": 2939,
      "delay": 2940,
      "birds": 2941,
      "twelfth": 2942,
      "remaining": 2943,
      "infinite": 2944,
      "distance": 2945,
      "weaver": 2946,
      "trapped": 2947,
      "aggressive": 2948,
      "akes": 2949,
      "haunted": 2950,
      "enlighten": 2951,
      "student": 2952,
      "minotaurs": 2953,
      "gorm": 2954,
      "unicorn": 2955,
      "surviv": 2956,
      "crovax": 2957,
      "yorion": 2958,
      "directly": 2959,
      "strife": 2960,
      "revelers": 2961,
      "artificer": 2962,
      "moonfolk": 2963,
      "salamander": 2964,
      "covered": 2965,
      "fellow": 2966,
      "festering": 2967,
      "inspiration": 2968,
      "available": 2969,
      "pressure": 2970,
      "etrata": 2971,
      "frenz": 2972,
      "ticket": 2973,
      "toothy": 2974,
      "tymaret": 2975,
      "gollum": 2976,
      "people": 2977,
      "enlightened": 2978,
      "aid": 2979,
      "aph": 2980,
      "aeg": 2981,
      "bon": 2982,
      "cun": 2983,
      "clock": 2984,
      "dry": 2985,
      "eur": 2986,
      "fits": 2987,
      "fates": 2988,
      "gn": 2989,
      "ginger": 2990,
      "hot": 2991,
      "ious": 2992,
      "ku": 2993,
      "kren": 2994,
      "kram": 2995,
      "law": 2996,
      "mac": 2997,
      "med": 2998,
      "nag": 2999,
      "nyle": 3000,
      "ored": 3001,
      "ocity": 3002,
      "py": 3003,
      "pra": 3004,
      "rh": 3005,
      "ral": 3006,
      "song": 3007,
      "tong": 3008,
      "tink": 3009,
      "va": 3010,
      "vy": 3011,
      "wing": 3012,
      "witch": 3013,
      "wild": 3014,
      "xus": 3015,
      "zac": 3016,
      "recent": 3017,
      "rejection": 3018,
      "thassa": 3019,
      "enora": 3020,
      "gether": 3021,
      "stat": 3022,
      "stored": 3023,
      "rop": 3024,
      "tomb": 3025,
      "together": 3026,
      "elenora": 3027,
      "ism": 3028,
      "ofprint": 3029,
      "aly": 3030,
      "contest": 3031,
      "deep": 3032,
      "rager": 3033,
      "bet": 3034,
      "spear": 3035,
      "sphere": 3036,
      "ppo": 3037,
      "ainous": 3038,
      "actery": 3039,
      "drain": 3040,
      "graveborn": 3041,
      "tahn": 3042,
      "quick": 3043,
      "shel": 3044,
      "shann": 3045,
      "colle": 3046,
      "doing": 3047,
      "dominion": 3048,
      "blaring": 3049,
      "nonsnow": 3050,
      "eret": 3051,
      "erebo": 3052,
      "trus": 3053,
      "tribal": 3054,
      "walking": 3055,
      "vala": 3056,
      "idance": 3057,
      "fourth": 3058,
      "fourteen": 3059,
      "phage": 3060,
      "muster": 3061,
      "legacy": 3062,
      "cavern": 3063,
      "spending": 3064,
      "petal": 3065,
      "myst": 3066,
      "velocity": 3067,
      "ires": 3068,
      "chakram": 3069,
      "slivercycling": 3070,
      "hippo": 3071,
      "horses": 3072,
      "story": 3073,
      "squid": 3074,
      "igned": 3075,
      "renata": 3076,
      "correct": 3077,
      "visited": 3078,
      "infection": 3079,
      "soulblade": 3080,
      "guidance": 3081,
      "hoofprint": 3082,
      "faces": 3083,
      "find": 3084,
      "packs": 3085,
      "skewer": 3086,
      "lau": 3087,
      "converted": 3088,
      "garth": 3089,
      "daxos": 3090,
      "posted": 3091,
      "empires": 3092,
      "line": 3093,
      "linvala": 3094,
      "covering": 3095,
      "marath": 3096,
      "finishes": 3097,
      "croak": 3098,
      "others": 3099,
      "midway": 3100,
      "____": 3101,
      "arids": 3102,
      "grandeur": 3103,
      "villainous": 3104,
      "broken": 3105,
      "psych": 3106,
      "ribbon": 3107,
      "originally": 3108,
      "journal": 3109,
      "phylactery": 3110,
      "aegis": 3111,
      "dryad": 3112,
      "fateseal": 3113,
      "krenko": 3114,
      "macie": 3115,
      "naga": 3116,
      "nylea": 3117,
      "tongue": 3118,
      "zacama": 3119,
      "tahngarth": 3120,
      "quickly": 3121,
      "shanna": 3122,
      "erebos": 3123,
      "truss": 3124,
      ",]": 3125,
      "00": 3126,
      "au": 3127,
      "ba": 3128,
      "cut": 3129,
      "cate": 3130,
      "cru": 3131,
      "d6": 3132,
      "fam": 3133,
      "gen": 3134,
      "gisela": 3135,
      "hun": 3136,
      "hatch": 3137,
      "henn": 3138,
      "jor": 3139,
      "jur": 3140,
      "kel": 3141,
      "lar": 3142,
      "mrith": 3143,
      "nar": 3144,
      "now": 3145,
      "svy": 3146,
      "uth": 3147,
      "vice": 3148,
      "yx": 3149,
      "yan": 3150,
      "yus": 3151,
      "rep": 3152,
      "ret": 3153,
      "rent": 3154,
      "reju": 3155,
      "thic": 3156,
      "around": 3157,
      "erator": 3158,
      "enh": 3159,
      "inside": 3160,
      "geist": 3161,
      "ony": 3162,
      "steal": 3163,
      "elun": 3164,
      "whom": 3165,
      "ingdeath": 3166,
      "desc": 3167,
      "chim": 3168,
      "within": 3169,
      "pping": 3170,
      "icingdeath": 3171,
      "frost": 3172,
      "forman": 3173,
      "action": 3174,
      "antes": 3175,
      "cannot": 3176,
      "choos": 3177,
      "una": 3178,
      "une": 3179,
      "performan": 3180,
      "iryx": 3181,
      "domin": 3182,
      "nonblue": 3183,
      "rid": 3184,
      "impres": 3185,
      "ashi": 3186,
      "fox": 3187,
      "removes": 3188,
      "defen": 3189,
      "claw": 3190,
      "cloud": 3191,
      "vention": 3192,
      "cone": 3193,
      "godo": 3194,
      "zol": 3195,
      "mull": 3196,
      "such": 3197,
      "capt": 3198,
      "nament": 3199,
      "vold": 3200,
      "newt": 3201,
      "mythic": 3202,
      "poisonous": 3203,
      "beasts": 3204,
      "mech": 3205,
      "meters": 3206,
      "sky": 3207,
      "skith": 3208,
      "declaring": 3209,
      "}.\")": 3210,
      "tet": 3211,
      "heart": 3212,
      "bruna": 3213,
      "bidder": 3214,
      "rowan": 3215,
      "ounds": 3216,
      "spec": 3217,
      "thirty": 3218,
      "venation": 3219,
      "travel": 3220,
      "annihilation": 3221,
      "versa": 3222,
      "nahir": 3223,
      "current": 3224,
      "feed": 3225,
      "hellion": 3226,
      "known": 3227,
      "break": 3228,
      "normal": 3229,
      "continue": 3230,
      "likewise": 3231,
      "refers": 3232,
      "enlists": 3233,
      "gorgon": 3234,
      "tournament": 3235,
      "binding": 3236,
      "increased": 3237,
      "animar": 3238,
      "intervention": 3239,
      "small": 3240,
      "ramos": 3241,
      "yahenn": 3242,
      "iymrith": 3243,
      "risona": 3244,
      "label": 3245,
      "mission": 3246,
      "jackal": 3247,
      "pieces": 3248,
      "shoe": 3249,
      "cunning": 3250,
      "gnome": 3251,
      "tinkering": 3252,
      "correctly": 3253,
      "hatchling": 3254,
      "juri": 3255,
      "svyelun": 3256,
      "yanling": 3257,
      "yusri": 3258,
      "rejuvenation": 3259,
      "choosing": 3260,
      "impressive": 3261,
      "mullig": 3262,
      "skithiryx": 3263,
      "nahiri": 3264,
      "yahenni": 3265,
      "\",": 3266,
      "\"[+": 3267,
      "40": 3268,
      "?\"": 3269,
      "ade": 3270,
      "aun": 3271,
      "aaz": 3272,
      "bi": 3273,
      "ban": 3274,
      "bad": 3275,
      "bess": 3276,
      "big": 3277,
      "bbit": 3278,
      "clo": 3279,
      "d4": 3280,
      "d10": 3281,
      "drop": 3282,
      "eon": 3283,
      "eom": 3284,
      "fr": 3285,
      "far": 3286,
      "fur": 3287,
      "fame": 3288,
      "gers": 3289,
      "gift": 3290,
      "hip": 3291,
      "ico": 3292,
      "imo": 3293,
      "jar": 3294,
      "jay": 3295,
      "jele": 3296,
      "jareth": 3297,
      "junk": 3298,
      "lena": 3299,
      "lbri": 3300,
      "mou": 3301,
      "mit": 3302,
      "mant": 3303,
      "mask": 3304,
      "nast": 3305,
      "oy": 3306,
      "oros": 3307,
      "pit": 3308,
      "pain": 3309,
      "pup": 3310,
      "path": 3311,
      "ptor": 3312,
      "pict": 3313,
      "rion": 3314,
      "rise": 3315,
      "rans": 3316,
      "sup": 3317,
      "tele": 3318,
      "umon": 3319,
      "wn": 3320,
      "wis": 3321,
      "wast": 3322,
      "wage": 3323,
      "yomar": 3324,
      "zation": 3325,
      "rece": 3326,
      "recru": 3327,
      "thal": 3328,
      "ari": 3329,
      "arika": 3330,
      "youn": 3331,
      "enki": 3332,
      "these": 3333,
      "ination": 3334,
      "lethal": 3335,
      "gem": 3336,
      "geki": 3337,
      "cook": 3338,
      "state": 3339,
      "store": 3340,
      "stang": 3341,
      "strate": 3342,
      "toy": 3343,
      "tose": 3344,
      "town": 3345,
      "isan": 3346,
      "iseng": 3347,
      "atter": 3348,
      "wham": 3349,
      "whale": 3350,
      "contract": 3351,
      "elder": 3352,
      "chip": 3353,
      "plas": 3354,
      "plot": 3355,
      "added": 3356,
      "beat": 3357,
      "became": 3358,
      "behol": 3359,
      "utes": 3360,
      "spr": 3361,
      "spid": 3362,
      "ppin": 3363,
      "event": 3364,
      "evid": 3365,
      "ically": 3366,
      "lobel": 3367,
      "forged": 3368,
      "ibou": 3369,
      "drag": 3370,
      "cano": 3371,
      "tabor": 3372,
      "motiv": 3373,
      "univ": 3374,
      "unity": 3375,
      "perrie": 3376,
      "permission": 3377,
      "alliter": 3378,
      "show": 3379,
      "ional": 3380,
      "cols": 3381,
      "abian": 3382,
      "noncommander": 3383,
      "rig": 3384,
      "rider": 3385,
      "ldron": 3386,
      "ivan": 3387,
      "underworld": 3388,
      "truth": 3389,
      "imps": 3390,
      "arest": 3391,
      "sorcer": 3392,
      "walker": 3393,
      "ametra": 3394,
      "timin": 3395,
      "redhorn": 3396,
      "fold": 3397,
      "igaaz": 3398,
      "okaun": 3399,
      "oma": 3400,
      "prey": 3401,
      "ickkn": 3402,
      "regrowth": 3403,
      "goal": 3404,
      "terror": 3405,
      "bog": 3406,
      "doubles": 3407,
      "estalk": 3408,
      "moria": 3409,
      "oda": 3410,
      "warp": 3411,
      "charix": 3412,
      "said": 3413,
      "voja": 3414,
      "mutant": 3415,
      "voter": 3416,
      "pokey": 3417,
      "peace": 3418,
      "cauldron": 3419,
      "ived": 3420,
      "embark": 3421,
      "warden": 3422,
      "falls": 3423,
      "poisoned": 3424,
      "ownership": 3425,
      "component": 3426,
      "mind": 3427,
      "minutes": 3428,
      "meter": 3429,
      "skanos": 3430,
      "foretelling": 3431,
      "intet": 3432,
      "shigeki": 3433,
      "opens": 3434,
      "syl": 3435,
      "paraly": 3436,
      "transformed": 3437,
      "dynast": 3438,
      "souls": 3439,
      "brisela": 3440,
      "against": 3441,
      "weird": 3442,
      "ized": 3443,
      "modes": 3444,
      "haak": 3445,
      "heroes": 3446,
      "stoneforged": 3447,
      "barian": 3448,
      "barbarian": 3449,
      "hokey": 3450,
      "kotose": 3451,
      "criter": 3452,
      "include": 3453,
      "199": 3454,
      "deneth": 3455,
      "designed": 3456,
      "eyestalk": 3457,
      "protocols": 3458,
      "knickkn": 3459,
      "trains": 3460,
      "years": 3461,
      "korvold": 3462,
      "skullbri": 3463,
      "flings": 3464,
      "nearest": 3465,
      "kiyomar": 3466,
      "thrulls": 3467,
      "someone": 3468,
      "halflings": 3469,
      "grist": 3470,
      "homage": 3471,
      "homarids": 3472,
      "gory": 3473,
      "tourach": 3474,
      "eyeball": 3475,
      "hammer": 3476,
      "carrion": 3477,
      "caribou": 3478,
      "carnage": 3479,
      "watermarks": 3480,
      "interplanar": 3481,
      "darigaaz": 3482,
      "karumon": 3483,
      "karametra": 3484,
      "sisay": 3485,
      "alphabet": 3486,
      "balanced": 3487,
      "ballard": 3488,
      "sigard": 3489,
      "fortune": 3490,
      "titania": 3491,
      "sheep": 3492,
      "pippin": 3493,
      "rapid": 3494,
      "objective": 3495,
      "aeve": 3496,
      "virtus": 3497,
      "duplicates": 3498,
      "sarulf": 3499,
      "tieflings": 3500,
      "answer": 3501,
      "decide": 3502,
      "beebles": 3503,
      "works": 3504,
      "whispers": 3505,
      "perfect": 3506,
      "imagin": 3507,
      "sculptor": 3508,
      "protects": 3509,
      "volcano": 3510,
      "fellowship": 3511,
      "clockwise": 3512,
      "rhoda": 3513,
      "statue": 3514,
      "contested": 3515,
      "shelob": 3516,
      "collector": 3517,
      "mystic": 3518,
      "laugh": 3519,
      "psychic": 3520,
      "category": 3521,
      "large": 3522,
      "descent": 3523,
      "performance": 3524,
      "dominate": 3525,
      "mechtitan": 3526,
      "eomer": 3527,
      "icore": 3528,
      "imoen": 3529,
      "jaya": 3530,
      "jeleva": 3531,
      "junkyard": 3532,
      "pupa": 3533,
      "picture": 3534,
      "ransom": 3535,
      "super": 3536,
      "wisdom": 3537,
      "received": 3538,
      "recruiter": 3539,
      "enkira": 3540,
      "cookbook": 3541,
      "stangg": 3542,
      "isengard": 3543,
      "whammy": 3544,
      "beholder": 3545,
      "spiders": 3546,
      "evidence": 3547,
      "lobelia": 3548,
      "taborax": 3549,
      "motivate": 3550,
      "univers": 3551,
      "alliterative": 3552,
      "paralyzation": 3553,
      "dynastic": 3554,
      "haakon": 3555,
      "criteria": 3556,
      "denethor": 3557,
      "knickknack": 3558,
      "skullbriar": 3559,
      "kiyomaro": 3560,
      "karumonix": 3561,
      "26": 3562,
      "air": 3563,
      "athre": 3564,
      "azol": 3565,
      "bil": 3566,
      "bbl": 3567,
      "cure": 3568,
      "cam": 3569,
      "cell": 3570,
      "cali": 3571,
      "d8": 3572,
      "ee": 3573,
      "eep": 3574,
      "eak": 3575,
      "feld": 3576,
      "gle": 3577,
      "gand": 3578,
      "gone": 3579,
      "ira": 3580,
      "jir": 3581,
      "jol": 3582,
      "jho": 3583,
      "kan": 3584,
      "kib": 3585,
      "koma": 3586,
      "ni": 3587,
      "nur": 3588,
      "ned": 3589,
      "none": 3590,
      "nzo": 3591,
      "nus": 3592,
      "oh": 3593,
      "ost": 3594,
      "pel": 3595,
      "rit": 3596,
      "rur": 3597,
      "ration": 3598,
      "saur": 3599,
      "tam": 3600,
      "uber": 3601,
      "vant": 3602,
      "very": 3603,
      "vort": 3604,
      "wounds": 3605,
      "yash": 3606,
      "yisan": 3607,
      "zed": 3608,
      "zareth": 3609,
      "zuber": 3610,
      "}'": 3611,
      "remo": 3612,
      "retri": 3613,
      "revi": 3614,
      "thar": 3615,
      "threat": 3616,
      "ntle": 3617,
      "arkey": 3618,
      "era": 3619,
      "ina": 3620,
      "inform": 3621,
      "gentle": 3622,
      "coil": 3623,
      "aces": 3624,
      "stenn": 3625,
      "rod": 3626,
      "ito": 3627,
      "tolu": 3628,
      "elite": 3629,
      "elia": 3630,
      "elix": 3631,
      "ayer": 3632,
      "ald": 3633,
      "alf": 3634,
      "alive": 3635,
      "deen": 3636,
      "dead": 3637,
      "derevi": 3638,
      "amber": 3639,
      "veter": 3640,
      "cher": 3641,
      "rain": 3642,
      "liberator": 3643,
      "keen": 3644,
      "permanently": 3645,
      "allen": 3646,
      "royal": 3647,
      "shag": 3648,
      "shivan": 3649,
      "sharkey": 3650,
      "dissol": 3651,
      "dispel": 3652,
      "derm": 3653,
      "rix": 3654,
      "ivy": 3655,
      "ghost": 3656,
      "ments": 3657,
      "archer": 3658,
      "archon": 3659,
      "outlaw": 3660,
      "grenzo": 3661,
      "prof": 3662,
      "click": 3663,
      "ief": 3664,
      "previ": 3665,
      "sense": 3666,
      "terfly": 3667,
      "swarm": 3668,
      "sweep": 3669,
      "ips": 3670,
      "warform": 3671,
      "earned": 3672,
      "poly": 3673,
      "winner": 3674,
      "verazol": 3675,
      "loyal": 3676,
      "snakes": 3677,
      "cuit": 3678,
      "met": 3679,
      "meta": 3680,
      "servant": 3681,
      "tutor": 3682,
      "vish": 3683,
      "parad": 3684,
      "lower": 3685,
      "arcanum": 3686,
      "repeats": 3687,
      "butterfly": 3688,
      "itha": 3689,
      "germany": 3690,
      "piru": 3691,
      "traxos": 3692,
      "horrors": 3693,
      "guenh": 3694,
      "magnet": 3695,
      "version": 3696,
      "magical": 3697,
      "deserts": 3698,
      "illusions": 3699,
      "oozes": 3700,
      "denial": 3701,
      "exploited": 3702,
      "notebook": 3703,
      "kaito": 3704,
      "kadeen": 3705,
      "laelia": 3706,
      "thrun": 3707,
      "marked": 3708,
      "ifters": 3709,
      "askurza": 3710,
      "breya": 3711,
      "need": 3712,
      "marwy": 3713,
      "stands": 3714,
      "harvest": 3715,
      "radha": 3716,
      "midnight": 3717,
      "smash": 3718,
      "advisor": 3719,
      "free": 3720,
      "satyrs": 3721,
      "drone": 3722,
      "sigrid": 3723,
      "stops": 3724,
      "circle": 3725,
      "circuit": 3726,
      "hacker": 3727,
      "iyo": 3728,
      "engulf": 3729,
      "horns": 3730,
      "sleight": 3731,
      "wyvar": 3732,
      "...": 3733,
      "blaster": 3734,
      "tuktuk": 3735,
      "\"~\"": 3736,
      "danitha": 3737,
      "protector": 3738,
      "frenzy": 3739,
      "wings": 3740,
      "recently": 3741,
      "famil": 3742,
      "narset": 3743,
      "repose": 3744,
      "chimera": 3745,
      "defense": 3746,
      "captain": 3747,
      "mulligans": 3748,
      "fury": 3749,
      "jarad": 3750,
      "mouse": 3751,
      "wastes": 3752,
      "young": 3753,
      "strateg": 3754,
      "alphabetically": 3755,
      "sigarda": 3756,
      "athreos": 3757,
      "bbling": 3758,
      "calix": 3759,
      "feldon": 3760,
      "gandalf": 3761,
      "jirina": 3762,
      "jhoira": 3763,
      "kanar": 3764,
      "ruric": 3765,
      "sauron": 3766,
      "tamiyo": 3767,
      "vortex": 3768,
      "yasharn": 3769,
      "zubera": 3770,
      "removing": 3771,
      "retriever": 3772,
      "information": 3773,
      "toluz": 3774,
      "elixir": 3775,
      "veteran": 3776,
      "shagrat": 3777,
      "dissolve": 3778,
      "ghostform": 3779,
      "guenhwyvar": 3780,
      "marwyn": 3781,
      "16": 3782,
      "ah": 3783,
      "aan": 3784,
      "afl": 3785,
      "avoid": 3786,
      "aether": 3787,
      "auro": 3788,
      "bland": 3789,
      "bble": 3790,
      "bright": 3791,
      "cing": 3792,
      "cep": 3793,
      "care": 3794,
      "cept": 3795,
      "close": 3796,
      "cros": 3797,
      "dum": 3798,
      "etor": 3799,
      "efre": 3800,
      "ecut": 3801,
      "fing": 3802,
      "fles": 3803,
      "farid": 3804,
      "ga": 3805,
      "gth": 3806,
      "gat": 3807,
      "gro": 3808,
      "gis": 3809,
      "gather": 3810,
      "gae": 3811,
      "gunk": 3812,
      "hall": 3813,
      "hive": 3814,
      "hold": 3815,
      "ier": 3816,
      "iac": 3817,
      "imb": 3818,
      "ios": 3819,
      "imod": 3820,
      "ides": 3821,
      "jo": 3822,
      "jab": 3823,
      "jare": 3824,
      "ked": 3825,
      "kose": 3826,
      "kange": 3827,
      "khor": 3828,
      "kamber": 3829,
      "late": 3830,
      "lld": 3831,
      "lash": 3832,
      "laur": 3833,
      "mard": 3834,
      "mic": 3835,
      "mow": 3836,
      "march": 3837,
      "mph": 3838,
      "matter": 3839,
      "nev": 3840,
      "nequ": 3841,
      "num": 3842,
      "ndr": 3843,
      "og": 3844,
      "pun": 3845,
      "proud": 3846,
      "paren": 3847,
      "rk": 3848,
      "ric": 3849,
      "range": 3850,
      "sic": 3851,
      "smo": 3852,
      "sza": 3853,
      "ts": 3854,
      "tard": 3855,
      "tch": 3856,
      "test": 3857,
      "uk": 3858,
      "ual": 3859,
      "ugin": 3860,
      "vath": 3861,
      "vras": 3862,
      "watch": 3863,
      "xen": 3864,
      "yu": 3865,
      "yell": 3866,
      "yser": 3867,
      "yet": 3868,
      "yang": 3869,
      "zones": 3870,
      "zndr": 3871,
      "{}.": 3872,
      "rex": 3873,
      "rede": 3874,
      "renew": 3875,
      "reset": 3876,
      "revers": 3877,
      "thi": 3878,
      "thalion": 3879,
      "thief": 3880,
      "atog": 3881,
      "ought": 3882,
      "nts": 3883,
      "nter": 3884,
      "ars": 3885,
      "arashi": 3886,
      "arabian": 3887,
      "eral": 3888,
      "eric": 3889,
      "ercer": 3890,
      "anow": 3891,
      "youth": 3892,
      "enie": 3893,
      "enem": 3894,
      "theses": 3895,
      "inous": 3896,
      "iniac": 3897,
      "lek": 3898,
      "lent": 3899,
      "acid": 3900,
      "accept": 3901,
      "ons": 3902,
      "sts": 3903,
      "stal": 3904,
      "stalk": 3905,
      "stash": 3906,
      "stren": 3907,
      "stakes": 3908,
      "rot": 3909,
      "rosh": 3910,
      "ital": 3911,
      "too": 3912,
      "today": 3913,
      "orb": 3914,
      "orous": 3915,
      "orfin": 3916,
      "ified": 3917,
      "eland": 3918,
      "elos": 3919,
      "ellect": 3920,
      "isol": 3921,
      "isions": 3922,
      "ayes": 3923,
      "alena": 3924,
      "attend": 3925,
      "attered": 3926,
      "urrk": 3927,
      "contortion": 3928,
      "dek": 3929,
      "desp": 3930,
      "decreas": 3931,
      "ase": 3932,
      "turtle": 3933,
      "americ": 3934,
      "amorous": 3935,
      "battlements": 3936,
      "chs": 3937,
      "ches": 3938,
      "chains": 3939,
      "challen": 3940,
      "raz": 3941,
      "rant": 3942,
      "ploy": 3943,
      "places": 3944,
      "advent": 3945,
      "adju": 3946,
      "beam": 3947,
      "beta": 3948,
      "wire": 3949,
      "wime": 3950,
      "mannequ": 3951,
      "spon": 3952,
      "space": 3953,
      "spite": 3954,
      "spinn": 3955,
      "spara": 3956,
      "ender": 3957,
      "ending": 3958,
      "explains": 3959,
      "execut": 3960,
      "evil": 3961,
      "icized": 3962,
      "everflame": 3963,
      "spellmorph": 3964,
      "lotus": 3965,
      "acks": 3966,
      "ants": 3967,
      "antim": 3968,
      "cani": 3969,
      "tax": 3970,
      "tapping": 3971,
      "}.'\"": 3972,
      "choses": 3973,
      "quill": 3974,
      "quint": 3975,
      "moc": 3976,
      "mogis": 3977,
      "unn": 3978,
      "unquestion": 3979,
      "allons": 3980,
      "shab": 3981,
      "shrie": 3982,
      "shattered": 3983,
      "disenchant": 3984,
      "disint": 3985,
      "combo": 3986,
      "cold": 3987,
      "absor": 3988,
      "install": 3989,
      "nonred": 3990,
      "rich": 3991,
      "underne": 3992,
      "archelos": 3993,
      "imp": 3994,
      "impetu": 3995,
      "immard": 3996,
      "shuffled": 3997,
      "essional": 3998,
      "based": 3999,
      "proce": 4000,
      "timey": 4001,
      "bottle": 4002,
      "illa": 4003,
      "tomcani": 4004,
      "omic": 4005,
      "ids": 4006,
      "climb": 4007,
      "regul": 4008,
      "regna": 4009,
      "scrap": 4010,
      "athoin": 4011,
      "regeneration": 4012,
      "gobble": 4013,
      "cyber": 4014,
      "zoret": 4015,
      "muxus": 4016,
      "mulld": 4017,
      "music": 4018,
      "suo": 4019,
      "boom": 4020,
      "bolt": 4021,
      "foreshadow": 4022,
      "dragonfire": 4023,
      "vorosh": 4024,
      "early": 4025,
      "eleven": 4026,
      "ists": 4027,
      "pet": 4028,
      "zethi": 4029,
      "slide": 4030,
      "slinger": 4031,
      "slaan": 4032,
      "slurrk": 4033,
      "employ": 4034,
      "nights": 4035,
      "format": 4036,
      "maarika": 4037,
      "sneak": 4038,
      "mined": 4039,
      "hixus": 4040,
      "halana": 4041,
      "temple": 4042,
      "solafl": 4043,
      "fighting": 4044,
      "avy": 4045,
      "mean": 4046,
      "seraph": 4047,
      "guests": 4048,
      "everyone": 4049,
      "rency": 4050,
      "intellect": 4051,
      "rata": 4052,
      "ators": 4053,
      "splt": 4054,
      "tezz": 4055,
      "tefer": 4056,
      "device": 4057,
      "dungeons": 4058,
      "history": 4059,
      "bubbling": 4060,
      "keranos": 4061,
      "heavy": 4062,
      "exchanged": 4063,
      "gamma": 4064,
      "torment": 4065,
      "mirran": 4066,
      "weenie": 4067,
      "hazoret": 4068,
      "decisions": 4069,
      "avenger": 4070,
      "trap": 4071,
      "spikes": 4072,
      "guan": 4073,
      "devilkn": 4074,
      "wurms": 4075,
      "deserter": 4076,
      "crash": 4077,
      "agic": 4078,
      "fully": 4079,
      "corrupter": 4080,
      "sketch": 4081,
      "llanow": 4082,
      "ascendant": 4083,
      "currency": 4084,
      "krav": 4085,
      "hyper": 4086,
      "hyphen": 4087,
      "thrall": 4088,
      "switched": 4089,
      "sunset": 4090,
      "sunrise": 4091,
      "torture": 4092,
      "wrap": 4093,
      "garrison": 4094,
      "balance": 4095,
      "balrog": 4096,
      "dalek": 4097,
      "korlash": 4098,
      "brew": 4099,
      "photo": 4100,
      "clears": 4101,
      "flavorful": 4102,
      "jumping": 4103,
      "awakening": 4104,
      "crystal": 4105,
      "adapts": 4106,
      "fires": 4107,
      "heresy": 4108,
      "gorilla": 4109,
      "points": 4110,
      "roxi": 4111,
      "sectors": 4112,
      "assassins": 4113,
      "sorry": 4114,
      "vial": 4115,
      "carthalion": 4116,
      "footwear": 4117,
      "items": 4118,
      "demonstration": 4119,
      "dicators": 4120,
      "middle": 4121,
      "reflections": 4122,
      "brian": 4123,
      "credits": 4124,
      "pine": 4125,
      "arms": 4126,
      "ingeyser": 4127,
      "plaguebearer": 4128,
      "nature": 4129,
      "balancing": 4130,
      "brainiac": 4131,
      "braingeyser": 4132,
      "drink": 4133,
      "glorfin": 4134,
      "glamorous": 4135,
      "national": 4136,
      "sanwell": 4137,
      "orius": 4138,
      "determined": 4139,
      "fortify": 4140,
      "fortified": 4141,
      "crabs": 4142,
      "piercer": 4143,
      "callaph": 4144,
      "missile": 4145,
      "duplication": 4146,
      "prism": 4147,
      "answers": 4148,
      "decides": 4149,
      "omarthis": 4150,
      "founding": 4151,
      "fangs": 4152,
      "rakish": 4153,
      "performer": 4154,
      "protege": 4155,
      "survivor": 4156,
      "survivors": 4157,
      "frenzied": 4158,
      "medium": 4159,
      "praetor": 4160,
      "erette": 4161,
      "caverns": 4162,
      "bael": 4163,
      "hunger": 4164,
      "claws": 4165,
      "skyshark": 4166,
      "tetsuo": 4167,
      "species": 4168,
      "bio": 4169,
      "france": 4170,
      "manticore": 4171,
      "pathy": 4172,
      "telepathy": 4173,
      "plasmic": 4174,
      "sprite": 4175,
      "truthfully": 4176,
      "sorcerous": 4177,
      "bogbrew": 4178,
      "sylvia": 4179,
      "laughed": 4180,
      "bilbo": 4181,
      "nicol": 4182,
      "nurgle": 4183,
      "professional": 4184,
      "paradox": 4185,
      "...?": 4186,
      "avoidance": 4187,
      "aetherborn": 4188,
      "aurochs": 4189,
      "cephal": 4190,
      "dumathoin": 4191,
      "fingers": 4192,
      "flesh": 4193,
      "gaea": 4194,
      "imodane": 4195,
      "joke": 4196,
      "jared": 4197,
      "kosei": 4198,
      "kangee": 4199,
      "khorvath": 4200,
      "laurine": 4201,
      "mowu": 4202,
      "numeral": 4203,
      "parentheses": 4204,
      "szadek": 4205,
      "tardis": 4206,
      "vraska": 4207,
      "xenos": 4208,
      "yanggu": 4209,
      "zndrsplt": 4210,
      "renewer": 4211,
      "reversed": 4212,
      "enemy": 4213,
      "strength": 4214,
      "italicized": 4215,
      "isolation": 4216,
      "ayesha": 4217,
      "attendant": 4218,
      "contortionist": 4219,
      "despair": 4220,
      "decrease": 4221,
      "adventur": 4222,
      "adjudicators": 4223,
      "wimey": 4224,
      "mannequin": 4225,
      "spinnerette": 4226,
      "execution": 4227,
      "antimagic": 4228,
      "quintorius": 4229,
      "unquestionable": 4230,
      "shabraz": 4231,
      "shrieking": 4232,
      "disinteg": 4233,
      "underneath": 4234,
      "impetuous": 4235,
      "cyberman": 4236,
      "mulldr": 4237,
      "slaanesh": 4238,
      "employee": 4239,
      "solaflora": 4240,
      "tezzeret": 4241,
      "teferi": 4242,
      "devilknevil": 4243,
      "llanowar": 4244,
      "hyphenated": 4245,
      "glorfindel": 4246,
      "callaphe": 4247,
      "04": 4248,
      "704": 4249,
      "ales": 4250,
      "aval": 4251,
      "bue": 4252,
      "border": 4253,
      "bann": 4254,
      "brush": 4255,
      "cin": 4256,
      "catt": 4257,
      "civ": 4258,
      "dir": 4259,
      "d12": 4260,
      "eat": 4261,
      "eel": 4262,
      "eve": 4263,
      "eart": 4264,
      "eded": 4265,
      "fit": 4266,
      "fet": 4267,
      "gw": 4268,
      "gard": 4269,
      "gly": 4270,
      "glo": 4271,
      "grow": 4272,
      "gang": 4273,
      "held": 4274,
      "hits": 4275,
      "hler": 4276,
      "hire": 4277,
      "iar": 4278,
      "iro": 4279,
      "ipping": 4280,
      "kthe": 4281,
      "kit": 4282,
      "kant": 4283,
      "kill": 4284,
      "krup": 4285,
      "kki": 4286,
      "kima": 4287,
      "lit": 4288,
      "link": 4289,
      "lich": 4290,
      "mat": 4291,
      "ming": 4292,
      "mach": 4293,
      "mary": 4294,
      "mart": 4295,
      "mong": 4296,
      "mium": 4297,
      "mama": 4298,
      "mfar": 4299,
      "nad": 4300,
      "neg": 4301,
      "ov": 4302,
      "owh": 4303,
      "obu": 4304,
      "pac": 4305,
      "pul": 4306,
      "pony": 4307,
      "rar": 4308,
      "ries": 4309,
      "rasc": 4310,
      "sou": 4311,
      "seld": 4312,
      "sell": 4313,
      "sare": 4314,
      "sid": 4315,
      "sie": 4316,
      "sma": 4317,
      "schoo": 4318,
      "skin": 4319,
      "satch": 4320,
      "tan": 4321,
      "tear": 4322,
      "task": 4323,
      "uation": 4324,
      "uster": 4325,
      "vas": 4326,
      "vic": 4327,
      "viv": 4328,
      "vite": 4329,
      "vale": 4330,
      "vron": 4331,
      "wl": 4332,
      "wil": 4333,
      "wri": 4334,
      "wake": 4335,
      "wag": 4336,
      "wald": 4337,
      "yanni": 4338,
      "zon": 4339,
      "zink": 4340,
      "res": 4341,
      "reco": 4342,
      "requ": 4343,
      "reck": 4344,
      "reassemb": 4345,
      "relent": 4346,
      "thous": 4347,
      "atic": 4348,
      "arach": 4349,
      "erfinal": 4350,
      "errant": 4351,
      "errata": 4352,
      "anced": 4353,
      "ene": 4354,
      "enthrall": 4355,
      "ined": 4356,
      "ines": 4357,
      "inyr": 4358,
      "incin": 4359,
      "invas": 4360,
      "ures": 4361,
      "gest": 4362,
      "cool": 4363,
      "acere": 4364,
      "stim": 4365,
      "stref": 4366,
      "style": 4367,
      "steel": 4368,
      "roales": 4369,
      "anders": 4370,
      "andrix": 4371,
      "els": 4372,
      "elim": 4373,
      "elrod": 4374,
      "issor": 4375,
      "iskel": 4376,
      "alice": 4377,
      "urry": 4378,
      "filib": 4379,
      "decor": 4380,
      "ason": 4381,
      "amax": 4382,
      "veile": 4383,
      "chalice": 4384,
      "rabbit": 4385,
      "illeg": 4386,
      "astral": 4387,
      "betr": 4388,
      "bewitch": 4389,
      "manali": 4390,
      "utely": 4391,
      "spoil": 4392,
      "ppel": 4393,
      "icy": 4394,
      "icated": 4395,
      "agents": 4396,
      "losing": 4397,
      "lots": 4398,
      "sekki": 4399,
      "anta": 4400,
      "graf": 4401,
      "arterfinal": 4402,
      "counterclockwise": 4403,
      "rification": 4404,
      "anya": 4405,
      "oppos": 4406,
      "taking": 4407,
      "quandrix": 4408,
      "quarterfinal": 4409,
      "mold": 4410,
      "wood": 4411,
      "undead": 4412,
      "uninstall": 4413,
      "allic": 4414,
      "shell": 4415,
      "shot": 4416,
      "shred": 4417,
      "diss": 4418,
      "ionic": 4419,
      "doors": 4420,
      "blank": 4421,
      "abom": 4422,
      "absol": 4423,
      "abdel": 4424,
      "abides": 4425,
      "aberrant": 4426,
      "nonsorcery": 4427,
      "noninstant": 4428,
      "riel": 4429,
      "ivore": 4430,
      "shuffling": 4431,
      "try": 4432,
      "triskel": 4433,
      "archite": 4434,
      "archlich": 4435,
      "ctuation": 4436,
      "arek": 4437,
      "becoming": 4438,
      "flipping": 4439,
      "copying": 4440,
      "redist": 4441,
      "foil": 4442,
      "moved": 4443,
      "grell": 4444,
      "ways": 4445,
      "timeless": 4446,
      "defined": 4447,
      "epter": 4448,
      "iding": 4449,
      "rust": 4450,
      "ruel": 4451,
      "ruck": 4452,
      "iest": 4453,
      "premium": 4454,
      "senses": 4455,
      "scries": 4456,
      "scissor": 4457,
      "scepter": 4458,
      "phara": 4459,
      "conson": 4460,
      "touched": 4461,
      "gorex": 4462,
      "sight": 4463,
      "legions": 4464,
      "swiss": 4465,
      "usk": 4466,
      "capit": 4467,
      "fives": 4468,
      "paper": 4469,
      "pako": 4470,
      "notes": 4471,
      "tried": 4472,
      "changes": 4473,
      "banded": 4474,
      "bandits": 4475,
      "lemr": 4476,
      "peer": 4477,
      "zezon": 4478,
      "started": 4479,
      "phyrexia": 4480,
      "whole": 4481,
      "worn": 4482,
      "ops": 4483,
      "hix": 4484,
      "haldir": 4485,
      "resolve": 4486,
      "avacy": 4487,
      "helm": 4488,
      "wizardcycling": 4489,
      "shadowh": 4490,
      "meet": 4491,
      "multani": 4492,
      "prix": 4493,
      "prowler": 4494,
      "ninjas": 4495,
      "tuous": 4496,
      "syn": 4497,
      "cient": 4498,
      "tetra": 4499,
      "teki": 4500,
      "teeth": 4501,
      "section": 4502,
      "presenting": 4503,
      "cradle": 4504,
      "represented": 4505,
      "alien": 4506,
      "zimoc": 4507,
      "surveils": 4508,
      "explos": 4509,
      "squirrellink": 4510,
      "heir": 4511,
      "manifestation": 4512,
      "questions": 4513,
      "rosie": 4514,
      "web": 4515,
      "servos": 4516,
      "aihir": 4517,
      "happ": 4518,
      "hazezon": 4519,
      "deciding": 4520,
      "advanced": 4521,
      "spike": 4522,
      "embalmed": 4523,
      "ninety": 4524,
      "hobbit": 4525,
      "burn": 4526,
      "eternity": 4527,
      "contraband": 4528,
      "liked": 4529,
      "desertwalk": 4530,
      "bearers": 4531,
      "skemfar": 4532,
      "seeks": 4533,
      "scavengers": 4534,
      "aking": 4535,
      "denry": 4536,
      "hourgl": 4537,
      "lagrell": 4538,
      "vanguard": 4539,
      "shamans": 4540,
      "ranger": 4541,
      "posting": 4542,
      "necro": 4543,
      "inklings": 4544,
      "monks": 4545,
      "axelrod": 4546,
      "stuck": 4547,
      "calim": 4548,
      "pests": 4549,
      "grima": 4550,
      "homeland": 4551,
      "hereafter": 4552,
      "bladewing": 4553,
      "111": 4554,
      "harpy": 4555,
      "phenax": 4556,
      "etherium": 4557,
      "kalamax": 4558,
      "!\":": 4559,
      "anikthe": 4560,
      "mercenaries": 4561,
      "carnivore": 4562,
      "obzed": 4563,
      "leader": 4564,
      "hermit": 4565,
      "logt": 4566,
      "brie": 4567,
      "fifth": 4568,
      "check": 4569,
      "crown": 4570,
      "karox": 4571,
      "devourer": 4572,
      "strong": 4573,
      "freaking": 4574,
      "azor": 4575,
      "azir": 4576,
      "brawl": 4577,
      "begun": 4578,
      "circ": 4579,
      "generate": 4580,
      "reveler": 4581,
      "adrian": 4582,
      "warlocks": 4583,
      "psionic": 4584,
      "artificers": 4585,
      "salamanders": 4586,
      "sleep": 4587,
      "sonic": 4588,
      "virtuous": 4589,
      "assault": 4590,
      "prince": 4591,
      "guardian": 4592,
      "tivit": 4593,
      "whisper": 4594,
      "sculpt": 4595,
      "kuhn": 4596,
      "000": 4597,
      "retains": 4598,
      "tetzimoc": 4599,
      "currently": 4600,
      "badger": 4601,
      "cloist": 4602,
      "clothing": 4603,
      "masked": 4604,
      "township": 4605,
      "rigger": 4606,
      "riggers": 4607,
      "imaginary": 4608,
      "imaginative": 4609,
      "supertypes": 4610,
      "camarid": 4611,
      "jolene": 4612,
      "kibler": 4613,
      "rites": 4614,
      "previous": 4615,
      "polyp": 4616,
      "metallic": 4617,
      "metagame": 4618,
      "familiar": 4619,
      "strategist": 4620,
      "careful": 4621,
      "crossing": 4622,
      "efreet": 4623,
      "gathering": 4624,
      "jabari": 4625,
      "nevinyr": 4626,
      "punctuation": 4627,
      "smoke": 4628,
      "ukkima": 4629,
      "resets": 4630,
      "youthful": 4631,
      "american": 4632,
      "richard": 4633,
      "proceeded": 4634,
      "regulations": 4635,
      "booming": 4636,
      "petrification": 4637,
      "adventurous": 4638,
      "buehler": 4639,
      "banned": 4640,
      "brushwag": 4641,
      "catti": 4642,
      "civil": 4643,
      "fetch": 4644,
      "gwaihir": 4645,
      "glyph": 4646,
      "iroas": 4647,
      "kitt": 4648,
      "kanto": 4649,
      "kruphix": 4650,
      "nadier": 4651,
      "obuun": 4652,
      "pacif": 4653,
      "rarity": 4654,
      "rascal": 4655,
      "selden": 4656,
      "sarevok": 4657,
      "sidar": 4658,
      "siege": 4659,
      "smaug": 4660,
      "school": 4661,
      "satchel": 4662,
      "tanazir": 4663,
      "vivien": 4664,
      "vrondiss": 4665,
      "writhing": 4666,
      "yannik": 4667,
      "recovery": 4668,
      "require": 4669,
      "reassembling": 4670,
      "relentless": 4671,
      "thousand": 4672,
      "arachnus": 4673,
      "enthralling": 4674,
      "invasion": 4675,
      "acererak": 4676,
      "stimulus": 4677,
      "strefan": 4678,
      "roalesk": 4679,
      "filibuster": 4680,
      "decorated": 4681,
      "veiled": 4682,
      "illegally": 4683,
      "betrayer": 4684,
      "bewitching": 4685,
      "manalith": 4686,
      "spoilers": 4687,
      "opposition": 4688,
      "abomination": 4689,
      "absolutely": 4690,
      "triskelavite": 4691,
      "architect": 4692,
      "redistribute": 4693,
      "scissors": 4694,
      "pharaoh": 4695,
      "consonant": 4696,
      "avacyn": 4697,
      "shadowheart": 4698,
      "tetravite": 4699,
      "tekik": 4700,
      "hourglass": 4701,
      "lagrella": 4702,
      "homelands": 4703,
      "anikthea": 4704,
      "obzedat": 4705,
      "nevinyrral": 4706,
      "brushwagg": 4707,
      "\"),": 4708,
      "'-": 4709,
      "/,": 4710,
      "2k": 4711,
      "3s": 4712,
      "98": 4713,
      "99": 4714,
      "athe": 4715,
      "aut": 4716,
      "acon": 4717,
      "agon": 4718,
      "apo": 4719,
      "azi": 4720,
      "aish": 4721,
      "bs": 4722,
      "bard": 4723,
      "bing": 4724,
      "bly": 4725,
      "bile": 4726,
      "bite": 4727,
      "bill": 4728,
      "brand": 4729,
      "bled": 4730,
      "bank": 4731,
      "boul": 4732,
      "bster": 4733,
      "bho": 4734,
      "binger": 4735,
      "cel": 4736,
      "cage": 4737,
      "ctr": 4738,
      "cca": 4739,
      "cation": 4740,
      "cerate": 4741,
      "crush": 4742,
      "dde": 4743,
      "dast": 4744,
      "dim": 4745,
      "dare": 4746,
      "dig": 4747,
      "dance": 4748,
      "dav": 4749,
      "dawn": 4750,
      "dani": 4751,
      "dips": 4752,
      "ean": 4753,
      "ebe": 4754,
      "emon": 4755,
      "eted": 4756,
      "eating": 4757,
      "fu": 4758,
      "fal": 4759,
      "fend": 4760,
      "fact": 4761,
      "fink": 4762,
      "fei": 4763,
      "fought": 4764,
      "gs": 4765,
      "gut": 4766,
      "gic": 4767,
      "gall": 4768,
      "gown": 4769,
      "groom": 4770,
      "giving": 4771,
      "hr": 4772,
      "hay": 4773,
      "hur": 4774,
      "hiv": 4775,
      "hear": 4776,
      "home": 4777,
      "hang": 4778,
      "hounds": 4779,
      "husk": 4780,
      "ij": 4781,
      "ient": 4782,
      "ias": 4783,
      "iers": 4784,
      "imay": 4785,
      "igh": 4786,
      "iment": 4787,
      "ided": 4788,
      "iwar": 4789,
      "iation": 4790,
      "iately": 4791,
      "je": 4792,
      "jel": 4793,
      "jic": 4794,
      "jian": 4795,
      "jiwar": 4796,
      "kr": 4797,
      "kess": 4798,
      "kath": 4799,
      "kno": 4800,
      "kry": 4801,
      "kai": 4802,
      "kiss": 4803,
      "kurb": 4804,
      "lou": 4805,
      "lan": 4806,
      "lam": 4807,
      "lves": 4808,
      "lwind": 4809,
      "loud": 4810,
      "lacks": 4811,
      "lanta": 4812,
      "lhur": 4813,
      "mif": 4814,
      "mand": 4815,
      "mur": 4816,
      "might": 4817,
      "memb": 4818,
      "mates": 4819,
      "mix": 4820,
      "mender": 4821,
      "mists": 4822,
      "mias": 4823,
      "nn": 4824,
      "nu": 4825,
      "ny": 4826,
      "nan": 4827,
      "never": 4828,
      "nass": 4829,
      "ney": 4830,
      "och": 4831,
      "oper": 4832,
      "oph": 4833,
      "oderm": 4834,
      "pat": 4835,
      "pal": 4836,
      "pant": 4837,
      "pall": 4838,
      "pip": 4839,
      "port": 4840,
      "pyr": 4841,
      "ris": 4842,
      "ril": 4843,
      "rhu": 4844,
      "rity": 4845,
      "rangel": 4846,
      "ribut": 4847,
      "sage": 4848,
      "sition": 4849,
      "sign": 4850,
      "selves": 4851,
      "sark": 4852,
      "signed": 4853,
      "sifters": 4854,
      "ti": 4855,
      "tro": 4856,
      "tast": 4857,
      "tig": 4858,
      "tsen": 4859,
      "tze": 4860,
      "tte": 4861,
      "tish": 4862,
      "tears": 4863,
      "tibal": 4864,
      "tips": 4865,
      "tunn": 4866,
      "upp": 4867,
      "ubl": 4868,
      "ulet": 4869,
      "uish": 4870,
      "ubael": 4871,
      "vin": 4872,
      "vand": 4873,
      "varch": 4874,
      "vener": 4875,
      "ws": 4876,
      "wjack": 4877,
      "wants": 4878,
      "wreck": 4879,
      "yf": 4880,
      "yers": 4881,
      "yles": 4882,
      "yri": 4883,
      "yav": 4884,
      "zar": 4885,
      "zing": 4886,
      "zur": 4887,
      "zerker": 4888,
      "zhang": 4889,
      "~\"": 4890,
      "rear": 4891,
      "reorder": 4892,
      "rever": 4893,
      "rekind": 4894,
      "repri": 4895,
      "reconstruct": 4896,
      "retreat": 4897,
      "repair": 4898,
      "respect": 4899,
      "reanim": 4900,
      "reprogram": 4901,
      "respon": 4902,
      "ths": 4903,
      "thra": 4904,
      "thama": 4905,
      "thought": 4906,
      "ats": 4907,
      "atli": 4908,
      "atomic": 4909,
      "atlanta": 4910,
      "oubl": 4911,
      "arre": 4912,
      "arto": 4913,
      "arri": 4914,
      "argo": 4915,
      "arrow": 4916,
      "arfish": 4917,
      "arson": 4918,
      "array": 4919,
      "eron": 4920,
      "erup": 4921,
      "erce": 4922,
      "ermin": 4923,
      "erwear": 4924,
      "ertsen": 4925,
      "anx": 4926,
      "angra": 4927,
      "anche": 4928,
      "ancient": 4929,
      "ench": 4930,
      "engin": 4931,
      "enish": 4932,
      "ensive": 4933,
      "encer": 4934,
      "enmit": 4935,
      "thed": 4936,
      "theft": 4937,
      "inal": 4938,
      "inqu": 4939,
      "insur": 4940,
      "inator": 4941,
      "invit": 4942,
      "incar": 4943,
      "inanimate": 4944,
      "inches": 4945,
      "inarto": 4946,
      "leading": 4947,
      "league": 4948,
      "gear": 4949,
      "geertsen": 4950,
      "ardan": 4951,
      "ardly": 4952,
      "coor": 4953,
      "coast": 4954,
      "coru": 4955,
      "codes": 4956,
      "codile": 4957,
      "acious": 4958,
      "ongest": 4959,
      "stro": 4960,
      "sted": 4961,
      "stow": 4962,
      "stall": 4963,
      "stom": 4964,
      "staf": 4965,
      "stones": 4966,
      "stial": 4967,
      "stranger": 4968,
      "starfish": 4969,
      "stench": 4970,
      "rome": 4971,
      "rogate": 4972,
      "itter": 4973,
      "itous": 4974,
      "itting": 4975,
      "torst": 4976,
      "tostu": 4977,
      "oran": 4978,
      "orant": 4979,
      "ordered": 4980,
      "iforn": 4981,
      "elled": 4982,
      "elspe": 4983,
      "elven": 4984,
      "elstro": 4985,
      "ised": 4986,
      "isition": 4987,
      "issi": 4988,
      "aysi": 4989,
      "alir": 4990,
      "although": 4991,
      "align": 4992,
      "allow": 4993,
      "always": 4994,
      "alanx": 4995,
      "entch": 4996,
      "what": 4997,
      "whack": 4998,
      "whir": 4999,
      "inguish": 5000,
      "targeting": 5001,
      "urant": 5002,
      "fizz": 5003,
      "fierce": 5004,
      "deas": 5005,
      "dece": 5006,
      "demil": 5007,
      "demig": 5008,
      "derer": 5009,
      "ases": 5010,
      "turist": 5011,
      "ames": 5012,
      "amator": 5013,
      "ambit": 5014,
      "amulet": 5015,
      "aminarto": 5016,
      "ersion": 5017,
      "ching": 5018,
      "chain": 5019,
      "child": 5020,
      "chase": 5021,
      "chitter": 5022,
      "edic": 5023,
      "edient": 5024,
      "esis": 5025,
      "esid": 5026,
      "esbee": 5027,
      "rappel": 5028,
      ".))": 5029,
      "plow": 5030,
      "plun": 5031,
      "plite": 5032,
      "pliment": 5033,
      "ilt": 5034,
      "iler": 5035,
      "illed": 5036,
      "ilids": 5037,
      "adin": 5038,
      "adrup": 5039,
      "adoc": 5040,
      "astating": 5041,
      "thatmagic": 5042,
      "behin": 5043,
      "beacon": 5044,
      "bevand": 5045,
      "winter": 5046,
      "mancer": 5047,
      "spin": 5048,
      "spot": 5049,
      "spelled": 5050,
      "endless": 5051,
      "endurant": 5052,
      "puter": 5053,
      "icus": 5054,
      "ician": 5055,
      "icator": 5056,
      "los": 5057,
      "logi": 5058,
      "lobster": 5059,
      "location": 5060,
      "sepul": 5061,
      "season": 5062,
      "semif": 5063,
      "forge": 5064,
      "ibly": 5065,
      "ibles": 5066,
      "landship": 5067,
      "anti": 5068,
      "antage": 5069,
      "gaining": 5070,
      "grav": 5071,
      "graz": 5072,
      "grant": 5073,
      "grade": 5074,
      "countermagic": 5075,
      "ephar": 5076,
      "manabond": 5077,
      "taken": 5078,
      "tagard": 5079,
      "tajic": 5080,
      "tadeas": 5081,
      "}.'": 5082,
      "chosis": 5083,
      "upgrade": 5084,
      "quite": 5085,
      "quet": 5086,
      "quadrup": 5087,
      "moss": 5088,
      "mobile": 5089,
      "cket": 5090,
      "women": 5091,
      "blows": 5092,
      "undeathtouch": 5093,
      "unear": 5094,
      "unho": 5095,
      "unlike": 5096,
      "unspeak": 5097,
      "uncovered": 5098,
      "unmarked": 5099,
      "unrede": 5100,
      "unwrap": 5101,
      "peror": 5102,
      "allin": 5103,
      "allure": 5104,
      "iron": 5105,
      "iral": 5106,
      "shake": 5107,
      "short": 5108,
      "displace": 5109,
      "tops": 5110,
      "umbris": 5111,
      "colony": 5112,
      "compliment": 5113,
      "computer": 5114,
      "dos": 5115,
      "dood": 5116,
      "dovin": 5117,
      "bliss": 5118,
      "instruct": 5119,
      "cealed": 5120,
      "ceases": 5121,
      "powerful": 5122,
      "nonexist": 5123,
      "riage": 5124,
      "riarch": 5125,
      "rivener": 5126,
      "iva": 5127,
      "ively": 5128,
      "keeper": 5129,
      "ghired": 5130,
      "ghoul": 5131,
      "ghazi": 5132,
      "extermin": 5133,
      "extinguish": 5134,
      "underdog": 5135,
      "track": 5136,
      "trash": 5137,
      "trick": 5138,
      "orca": 5139,
      "arche": 5140,
      "archers": 5141,
      "archery": 5142,
      "archangel": 5143,
      "ctum": 5144,
      "imit": 5145,
      "image": 5146,
      "immed": 5147,
      "erys": 5148,
      "flipped": 5149,
      "flayer": 5150,
      "flurry": 5151,
      "flames": 5152,
      "copha": 5153,
      "vald": 5154,
      "themselves": 5155,
      "wouldn": 5156,
      "firstest": 5157,
      "tima": 5158,
      "focus": 5159,
      "restric": 5160,
      "outrider": 5161,
      "outerwear": 5162,
      "basri": 5163,
      "promo": 5164,
      "procl": 5165,
      "proved": 5166,
      "project": 5167,
      "projection": 5168,
      "probing": 5169,
      "ancement": 5170,
      "durnan": 5171,
      "oko": 5172,
      "oks": 5173,
      "illum": 5174,
      "omone": 5175,
      "omime": 5176,
      "ominous": 5177,
      "eption": 5178,
      "backstory": 5179,
      "donna": 5180,
      "donkey": 5181,
      "sored": 5182,
      "socket": 5183,
      "ruin": 5184,
      "ruinous": 5185,
      "iette": 5186,
      "prevale": 5187,
      "regal": 5188,
      "scle": 5189,
      "scating": 5190,
      "scrolls": 5191,
      "scale": 5192,
      "scrivener": 5193,
      "phones": 5194,
      "pharika": 5195,
      "phalanx": 5196,
      "confounding": 5197,
      "concealed": 5198,
      "node": 5199,
      "nowhere": 5200,
      "nodes": 5201,
      "deathpact": 5202,
      "good": 5203,
      "goyf": 5204,
      "termag": 5205,
      "terran": 5206,
      "scrycast": 5207,
      "muse": 5208,
      "muiral": 5209,
      "muscle": 5210,
      "rouse": 5211,
      "sworn": 5212,
      "swats": 5213,
      "caused": 5214,
      "cazur": 5215,
      "hum": 5216,
      "huge": 5217,
      "humph": 5218,
      "huatli": 5219,
      "paquet": 5220,
      "estone": 5221,
      "esteal": 5222,
      "spiritual": 5223,
      "saint": 5224,
      "sawjack": 5225,
      "trium": 5226,
      "electr": 5227,
      "morphine": 5228,
      "amounts": 5229,
      "pox": 5230,
      "pole": 5231,
      "posing": 5232,
      "position": 5233,
      "istic": 5234,
      "winch": 5235,
      "sligh": 5236,
      "emed": 5237,
      "emperor": 5238,
      "rolling": 5239,
      "umn": 5240,
      "umal": 5241,
      "diversion": 5242,
      "condition": 5243,
      "fallen": 5244,
      "emblems": 5245,
      "diego": 5246,
      "maz": 5247,
      "made": 5248,
      "major": 5249,
      "maelstro": 5250,
      "ptic": 5251,
      "kinfall": 5252,
      "opal": 5253,
      "ulven": 5254,
      "ultima": 5255,
      "twisted": 5256,
      "minor": 5257,
      "minsc": 5258,
      "ministor": 5259,
      "hinter": 5260,
      "halvar": 5261,
      "unearthly": 5262,
      "horrific": 5263,
      "hornet": 5264,
      "cube": 5265,
      "cult": 5266,
      "knightlifelink": 5267,
      "means": 5268,
      "mega": 5269,
      "storvald": 5270,
      "things": 5271,
      "surpr": 5272,
      "skilled": 5273,
      "catches": 5274,
      "rounds": 5275,
      "tells": 5276,
      "everypony": 5277,
      "primarch": 5278,
      "ignorant": 5279,
      "assignment": 5280,
      "transfigure": 5281,
      "transdim": 5282,
      "translocation": 5283,
      "announ": 5284,
      "rator": 5285,
      "investigated": 5286,
      "identical": 5287,
      "shipwreck": 5288,
      "syna": 5289,
      "symph": 5290,
      "paris": 5291,
      "paria": 5292,
      "parade": 5293,
      "paragon": 5294,
      "parcel": 5295,
      "zaar": 5296,
      "zahn": 5297,
      "teh": 5298,
      "devastating": 5299,
      "veils": 5300,
      "apse": 5301,
      "alized": 5302,
      "buzz": 5303,
      "budde": 5304,
      "built": 5305,
      "relay": 5306,
      "relics": 5307,
      "explain": 5308,
      "threshers": 5309,
      "dinator": 5310,
      "heat": 5311,
      "reply": 5312,
      "replicated": 5313,
      "replenish": 5314,
      "incubates": 5315,
      "constructed": 5316,
      "ishment": 5317,
      "etc": 5318,
      "distribut": 5319,
      "gix": 5320,
      "symbios": 5321,
      "brallin": 5322,
      "shields": 5323,
      "shieldwall": 5324,
      "gerous": 5325,
      "mirror": 5326,
      "aware": 5327,
      "storms": 5328,
      "explosive": 5329,
      "rosari": 5330,
      "weak": 5331,
      "drafts": 5332,
      "drafting": 5333,
      "hailer": 5334,
      "seething": 5335,
      "schemes": 5336,
      "spores": 5337,
      "venir": 5338,
      "deception": 5339,
      "wonder": 5340,
      "citizens": 5341,
      "trail": 5342,
      "trader": 5343,
      "traps": 5344,
      "tragic": 5345,
      "traumal": 5346,
      "advise": 5347,
      "advantage": 5348,
      "barge": 5349,
      "barrage": 5350,
      "barrity": 5351,
      "guel": 5352,
      "magnus": 5353,
      "nineteen": 5354,
      "hoplite": 5355,
      "hooks": 5356,
      "facing": 5357,
      "versions": 5358,
      "conjures": 5359,
      "ugluk": 5360,
      "deserving": 5361,
      "teammates": 5362,
      "bury": 5363,
      "burak": 5364,
      "bolism": 5365,
      "finery": 5366,
      "finishing": 5367,
      "crack": 5368,
      "cracks": 5369,
      "provided": 5370,
      "stunning": 5371,
      "ascended": 5372,
      "ascens": 5373,
      "hides": 5374,
      "nail": 5375,
      "nazahn": 5376,
      "devouring": 5377,
      "denim": 5378,
      "feat": 5379,
      "hyperf": 5380,
      "kaho": 5381,
      "kazar": 5382,
      "claimed": 5383,
      "suppres": 5384,
      "masticore": 5385,
      "championed": 5386,
      "himself": 5387,
      "revolves": 5388,
      "guessthatmagic": 5389,
      "transmutation": 5390,
      "scions": 5391,
      "summary": 5392,
      "sunlit": 5393,
      "monoblue": 5394,
      "bracketed": 5395,
      "garment": 5396,
      "garza": 5397,
      "marks": 5398,
      "baldur": 5399,
      "rampant": 5400,
      "asks": 5401,
      "asking": 5402,
      "summons": 5403,
      "daemon": 5404,
      "applau": 5405,
      "liest": 5406,
      "depths": 5407,
      "goats": 5408,
      "empyri": 5409,
      "breathe": 5410,
      "bretagard": 5411,
      "adventurer": 5412,
      "blazing": 5413,
      "phoebe": 5414,
      "grunn": 5415,
      "linde": 5416,
      "nether": 5417,
      "neuro": 5418,
      "fabricator": 5419,
      "subtype": 5420,
      "subterran": 5421,
      "funk": 5422,
      "fungi": 5423,
      "refuse": 5424,
      "reflect": 5425,
      "occurs": 5426,
      "bert": 5427,
      "berating": 5428,
      "berzerker": 5429,
      "called": 5430,
      "californ": 5431,
      "grizz": 5432,
      "however": 5433,
      "ensional": 5434,
      "oxen": 5435,
      "standing": 5436,
      "hats": 5437,
      "please": 5438,
      "sprocket": 5439,
      "pheromone": 5440,
      "harbinger": 5441,
      "vitu": 5442,
      "tactician": 5443,
      "flamebreak": 5444,
      "crocodile": 5445,
      "yrdom": 5446,
      "winds": 5447,
      "otharri": 5448,
      "expedient": 5449,
      "celestial": 5450,
      "breathsteal": 5451,
      "borteh": 5452,
      "floor": 5453,
      "herbert": 5454,
      "silvar": 5455,
      "phaeron": 5456,
      "interaction": 5457,
      "interrogate": 5458,
      "nautilids": 5459,
      "druids": 5460,
      "bride": 5461,
      "brimaz": 5462,
      "runestone": 5463,
      "queue": 5464,
      "benedic": 5465,
      "kyler": 5466,
      "title": 5467,
      "armour": 5468,
      "planechase": 5469,
      "omnissi": 5470,
      "gargoyles": 5471,
      "sentence": 5472,
      "indicating": 5473,
      "piloted": 5474,
      "alex": 5475,
      "brave": 5476,
      "ballistic": 5477,
      "sanctum": 5478,
      "sigil": 5479,
      "romao": 5480,
      "2000": 5481,
      "2001": 5482,
      "2004": 5483,
      "survived": 5484,
      "titanic": 5485,
      "village": 5486,
      "write": 5487,
      "gyrus": 5488,
      "sandfall": 5489,
      "incarnate": 5490,
      "rapacious": 5491,
      "rief": 5492,
      "pools": 5493,
      "hakim": 5494,
      "speaking": 5495,
      "brood": 5496,
      "labarre": 5497,
      "rona": 5498,
      "malaysi": 5499,
      "passed": 5500,
      "psychosis": 5501,
      "ribed": 5502,
      "saradoc": 5503,
      "sarcopha": 5504,
      "rection": 5505,
      "thrown": 5506,
      "beeble": 5507,
      "domri": 5508,
      "blastoderm": 5509,
      "original": 5510,
      "journey": 5511,
      "bringer": 5512,
      "dangerous": 5513,
      "darksteel": 5514,
      "feral": 5515,
      "ferny": 5516,
      "fingertips": 5517,
      "fingernail": 5518,
      "rakdos": 5519,
      "shoes": 5520,
      "protectiva": 5521,
      "volley": 5522,
      "lawyers": 5523,
      "medicus": 5524,
      "pyro": 5525,
      "prague": 5526,
      "praesid": 5527,
      "rhian": 5528,
      "static": 5529,
      "alyst": 5530,
      "better": 5531,
      "shelter": 5532,
      "college": 5533,
      "laud": 5534,
      "______": 5535,
      "__________": 5536,
      "psychatog": 5537,
      "autostu": 5538,
      "bazaar": 5539,
      "cutter": 5540,
      "famous": 5541,
      "genomic": 5542,
      "genesteal": 5543,
      "hundred": 5544,
      "kelp": 5545,
      "republ": 5546,
      "enhancement": 5547,
      "steals": 5548,
      "chimney": 5549,
      "riders": 5550,
      "ashiok": 5551,
      "clouds": 5552,
      "captive": 5553,
      "skyswarm": 5554,
      "specific": 5555,
      "feeder": 5556,
      "mulligan": 5557,
      "banana": 5558,
      "banishment": 5559,
      "frame": 5560,
      "mantle": 5561,
      "oyaminarto": 5562,
      "teleport": 5563,
      "statement": 5564,
      "storeroom": 5565,
      "elderhall": 5566,
      "plasma": 5567,
      "beats": 5568,
      "beatdown": 5569,
      "sprout": 5570,
      "showing": 5571,
      "sorceries": 5572,
      "folds": 5573,
      "bogardan": 5574,
      "1998": 5575,
      "1999": 5576,
      "laughs": 5577,
      "pictured": 5578,
      "supertype": 5579,
      "universe": 5580,
      "universes": 5581,
      "university": 5582,
      "camarids": 5583,
      "jolly": 5584,
      "kibo": 5585,
      "cherubael": 5586,
      "rainbow": 5587,
      "dermis": 5588,
      "previously": 5589,
      "polymorphine": 5590,
      "metabolism": 5591,
      "vishgraz": 5592,
      "\"~\":": 5593,
      "family": 5594,
      "strategic": 5595,
      "brightflame": 5596,
      "brightspear": 5597,
      "closest": 5598,
      "gatling": 5599,
      "gatstaf": 5600,
      "grothama": 5601,
      "groesbee": 5602,
      "hallar": 5603,
      "latest": 5604,
      "redeemer": 5605,
      "stalker": 5606,
      "stalking": 5607,
      "rotates": 5608,
      "challenge": 5609,
      "challenged": 5610,
      "beams": 5611,
      "wirefly": 5612,
      "sponsored": 5613,
      "taxes": 5614,
      "absorb": 5615,
      "absorption": 5616,
      "hyperphase": 5617,
      "hypertoxic": 5618,
      "photocopy": 5619,
      "photocopies": 5620,
      "brainiacs": 5621,
      "prismatic": 5622,
      "baeloth": 5623,
      "cephalid": 5624,
      "cephalids": 5625,
      "executioner": 5626,
      "disintegrator": 5627,
      "mulldrifter": 5628,
      "mulldrifters": 5629,
      "avalanche": 5630,
      "globe": 5631,
      "growl": 5632,
      "killbot": 5633,
      "matrix": 5634,
      "machines": 5635,
      "martyrdom": 5636,
      "monger": 5637,
      "negative": 5638,
      "souvenir": 5639,
      "wilson": 5640,
      "incinerator": 5641,
      "coolness": 5642,
      "eliminator": 5643,
      "quarterfinalist": 5644,
      "trynn": 5645,
      "ruckus": 5646,
      "capitalized": 5647,
      "synapse": 5648,
      "explosions": 5649,
      "happen": 5650,
      "necrodermis": 5651,
      "stronghold": 5652,
      "sculptures": 5653,
      "cloister": 5654,
      "pacifism": 5655,
      "requirement": 5656,
      "2k2": 5657,
      "autumn": 5658,
      "apologi": 5659,
      "aisha": 5660,
      "bardic": 5661,
      "branded": 5662,
      "boulder": 5663,
      "bholt": 5664,
      "crushing": 5665,
      "dastardly": 5666,
      "davriel": 5667,
      "dawnbringer": 5668,
      "daniel": 5669,
      "futurist": 5670,
      "finkel": 5671,
      "gutpip": 5672,
      "gallery": 5673,
      "haywire": 5674,
      "hivis": 5675,
      "hometown": 5676,
      "ijten": 5677,
      "imaya": 5678,
      "jelly": 5679,
      "jiang": 5680,
      "jiwari": 5681,
      "kessig": 5682,
      "kathril": 5683,
      "krydle": 5684,
      "kurbis": 5685,
      "lancer": 5686,
      "lambholt": 5687,
      "lhurgoyf": 5688,
      "mandibles": 5689,
      "murder": 5690,
      "mightstone": 5691,
      "member": 5692,
      "miasma": 5693,
      "nuijten": 5694,
      "nassif": 5695,
      "ochre": 5696,
      "operative": 5697,
      "patriarch": 5698,
      "paladin": 5699,
      "pantomime": 5700,
      "palliation": 5701,
      "pyrrhian": 5702,
      "rhuk": 5703,
      "rangeling": 5704,
      "sarkhan": 5705,
      "troops": 5706,
      "tasty": 5707,
      "tiger": 5708,
      "tzeentch": 5709,
      "tishana": 5710,
      "tibalt": 5711,
      "tunnels": 5712,
      "upper": 5713,
      "varchild": 5714,
      "yavimaya": 5715,
      "rearrange": 5716,
      "reverberating": 5717,
      "rekindling": 5718,
      "reprieve": 5719,
      "respectively": 5720,
      "reanimator": 5721,
      "reprogramming": 5722,
      "responded": 5723,
      "thraben": 5724,
      "oubliette": 5725,
      "argoth": 5726,
      "eruption": 5727,
      "angrath": 5728,
      "engine": 5729,
      "enmitic": 5730,
      "inquisition": 5731,
      "insurrection": 5732,
      "invited": 5733,
      "incarcerate": 5734,
      "coordinator": 5735,
      "coruscating": 5736,
      "stowage": 5737,
      "torsten": 5738,
      "elspeth": 5739,
      "alirios": 5740,
      "allows": 5741,
      "whirlwind": 5742,
      "fizzles": 5743,
      "demilich": 5744,
      "demigod": 5745,
      "ambitious": 5746,
      "chainsword": 5747,
      "children": 5748,
      "chittering": 5749,
      "plunderer": 5750,
      "behind": 5751,
      "spotted": 5752,
      "sepulcher": 5753,
      "semifinal": 5754,
      "ephara": 5755,
      "quadruples": 5756,
      "unearthed": 5757,
      "unholy": 5758,
      "unspeakable": 5759,
      "unredeemed": 5760,
      "displacement": 5761,
      "doodle": 5762,
      "instructed": 5763,
      "nonexistent": 5764,
      "exterminator": 5765,
      "extinguisher": 5766,
      "immediately": 5767,
      "restricted": 5768,
      "proclamator": 5769,
      "illumination": 5770,
      "prevalent": 5771,
      "termagants": 5772,
      "humpherys": 5773,
      "paquette": 5774,
      "sainted": 5775,
      "triumphant": 5776,
      "electrical": 5777,
      "maelstrom": 5778,
      "ulvenwald": 5779,
      "ministorum": 5780,
      "hinterland": 5781,
      "megalegendary": 5782,
      "surprise": 5783,
      "transdimensional": 5784,
      "announce": 5785,
      "synaptic": 5786,
      "symphony": 5787,
      "pariah": 5788,
      "distributes": 5789,
      "symbiosis": 5790,
      "mirrors": 5791,
      "rosarius": 5792,
      "weakstone": 5793,
      "barrityl": 5794,
      "burakos": 5795,
      "ascension": 5796,
      "hyperfrag": 5797,
      "kazarov": 5798,
      "suppressing": 5799,
      "guessthatmagiccard": 5800,
      "applauded": 5801,
      "empyrial": 5802,
      "neurotraumal": 5803,
      "subterranean": 5804,
      "california": 5805,
      "grizzled": 5806,
      "breathstealer": 5807,
      "benediction": 5808,
      "omnissiah": 5809,
      "sarcophagus": 5810,
      "praesidium": 5811,
      "autostubs": 5812,
      "genestealer": 5813,
      "republic": 5814,
      "oyaminartok": 5815,
      "groesbeek": 5816,
      "apologize": 5817,
      "gutpipes": 5818,
      "!'": 5819,
      "\".": 5820,
      "\":": 5821,
      "\").": 5822,
      "(\"": 5823,
      "-,": 5824,
      ".'": 5825,
      "17": 5826,
      "18": 5827,
      "22": 5828,
      "24": 5829,
      "96": 5830,
      "97": 5831,
      "aa": 5832,
      "aif": 5833,
      "aunt": 5834,
      "aqu": 5835,
      "abl": 5836,
      "award": 5837,
      "aum": 5838,
      "aker": 5839,
      "ager": 5840,
      "apple": 5841,
      "aguel": 5842,
      "bes": 5843,
      "bend": 5844,
      "bell": 5845,
      "bru": 5846,
      "bus": 5847,
      "brat": 5848,
      "boun": 5849,
      "brow": 5850,
      "bord": 5851,
      "bber": 5852,
      "bale": 5853,
      "bender": 5854,
      "bbled": 5855,
      "cou": 5856,
      "cis": 5857,
      "cave": 5858,
      "cab": 5859,
      "camp": 5860,
      "cri": 5861,
      "cath": 5862,
      "cip": 5863,
      "cze": 5864,
      "cence": 5865,
      "calm": 5866,
      "canta": 5867,
      "cstatic": 5868,
      "di": 5869,
      "dure": 5870,
      "dro": 5871,
      "dget": 5872,
      "dut": 5873,
      "dow": 5874,
      "dart": 5875,
      "dave": 5876,
      "dition": 5877,
      "ddon": 5878,
      "dity": 5879,
      "dci": 5880,
      "dicate": 5881,
      "dag": 5882,
      "dusk": 5883,
      "dibly": 5884,
      "ef": 5885,
      "eig": 5886,
      "emor": 5887,
      "eves": 5888,
      "eous": 5889,
      "euro": 5890,
      "eba": 5891,
      "eching": 5892,
      "ecstatic": 5893,
      "fers": 5894,
      "fumb": 5895,
      "faste": 5896,
      "faren": 5897,
      "fran": 5898,
      "fada": 5899,
      "frag": 5900,
      "fram": 5901,
      "frant": 5902,
      "fencer": 5903,
      "gal": 5904,
      "ging": 5905,
      "gary": 5906,
      "gir": 5907,
      "gave": 5908,
      "gab": 5909,
      "gum": 5910,
      "glas": 5911,
      "goma": 5912,
      "ggle": 5913,
      "gender": 5914,
      "hon": 5915,
      "hib": 5916,
      "hamp": 5917,
      "hans": 5918,
      "haw": 5919,
      "honey": 5920,
      "io": 5921,
      "iant": 5922,
      "ike": 5923,
      "iph": 5924,
      "ius": 5925,
      "ithopter": 5926,
      "jan": 5927,
      "jon": 5928,
      "jul": 5929,
      "jak": 5930,
      "janos": 5931,
      "ks": 5932,
      "kat": 5933,
      "kard": 5934,
      "kon": 5935,
      "kro": 5936,
      "kil": 5937,
      "kage": 5938,
      "kite": 5939,
      "kol": 5940,
      "kord": 5941,
      "krata": 5942,
      "kruin": 5943,
      "lure": 5944,
      "lay": 5945,
      "lone": 5946,
      "lun": 5947,
      "lder": 5948,
      "lumber": 5949,
      "ltr": 5950,
      "lid": 5951,
      "lated": 5952,
      "lith": 5953,
      "lump": 5954,
      "lava": 5955,
      "latter": 5956,
      "lips": 5957,
      "longest": 5958,
      "limit": 5959,
      "matt": 5960,
      "mas": 5961,
      "milit": 5962,
      "mess": 5963,
      "mead": 5964,
      "mally": 5965,
      "mongo": 5966,
      "mcca": 5967,
      "nay": 5968,
      "ners": 5969,
      "nes": 5970,
      "nick": 5971,
      "nest": 5972,
      "nity": 5973,
      "nashi": 5974,
      "natter": 5975,
      "niest": 5976,
      "omb": 5977,
      "oler": 5978,
      "ook": 5979,
      "oid": 5980,
      "oath": 5981,
      "opa": 5982,
      "ope": 5983,
      "ohi": 5984,
      "oeba": 5985,
      "pen": 5986,
      "pure": 5987,
      "pon": 5988,
      "pto": 5989,
      "por": 5990,
      "pas": 5991,
      "pose": 5992,
      "pare": 5993,
      "pill": 5994,
      "pick": 5995,
      "pry": 5996,
      "pered": 5997,
      "pitch": 5998,
      "pump": 5999,
      "penn": 6000,
      "prison": 6001,
      "pmonger": 6002,
      "rumb": 6003,
      "rash": 6004,
      "rance": 6005,
      "rill": 6006,
      "rhy": 6007,
      "sin": 6008,
      "sever": 6009,
      "slo": 6010,
      "scho": 6011,
      "sir": 6012,
      "save": 6013,
      "sunta": 6014,
      "sno": 6015,
      "scor": 6016,
      "sbre": 6017,
      "sang": 6018,
      "slowest": 6019,
      "scorn": 6020,
      "sledge": 6021,
      "smid": 6022,
      "sfer": 6023,
      "sical": 6024,
      "sevent": 6025,
      "sitting": 6026,
      "tat": 6027,
      "ture": 6028,
      "tall": 6029,
      "ties": 6030,
      "tang": 6031,
      "tical": 6032,
      "trop": 6033,
      "tically": 6034,
      "tti": 6035,
      "ub": 6036,
      "uit": 6037,
      "uel": 6038,
      "ulo": 6039,
      "usu": 6040,
      "usive": 6041,
      "ubi": 6042,
      "vil": 6043,
      "vad": 6044,
      "vast": 6045,
      "vage": 6046,
      "vance": 6047,
      "vry": 6048,
      "vak": 6049,
      "went": 6050,
      "want": 6051,
      "wary": 6052,
      "wart": 6053,
      "wave": 6054,
      "wunder": 6055,
      "warch": 6056,
      "wrest": 6057,
      "west": 6058,
      "waif": 6059,
      "yay": 6060,
      "yaw": 6061,
      "yrin": 6062,
      "zen": 6063,
      "zil": 6064,
      "zum": 6065,
      "{}": 6066,
      "rek": 6067,
      "rebe": 6068,
      "replay": 6069,
      "rely": 6070,
      "react": 6071,
      "research": 6072,
      "reflip": 6073,
      "reign": 6074,
      "rector": 6075,
      "recur": 6076,
      "reassemble": 6077,
      "reassembles": 6078,
      "respec": 6079,
      "reason": 6080,
      "thless": 6081,
      "thumb": 6082,
      "thaw": 6083,
      "thorn": 6084,
      "thara": 6085,
      "thaum": 6086,
      "atu": 6087,
      "atin": 6088,
      "atsu": 6089,
      "atrop": 6090,
      "oubled": 6091,
      "ouyay": 6092,
      "arct": 6093,
      "arrest": 6094,
      "armage": 6095,
      "arlin": 6096,
      "ariest": 6097,
      "arguel": 6098,
      "arlid": 6099,
      "arvad": 6100,
      "erk": 6101,
      "eror": 6102,
      "anic": 6103,
      "analyst": 6104,
      "enwh": 6105,
      "ences": 6106,
      "enger": 6107,
      "enha": 6108,
      "engl": 6109,
      "envir": 6110,
      "enius": 6111,
      "creation": 6112,
      "theon": 6113,
      "thered": 6114,
      "infi": 6115,
      "indo": 6116,
      "insu": 6117,
      "invoke": 6118,
      "inhe": 6119,
      "inexp": 6120,
      "insight": 6121,
      "ured": 6122,
      "urent": 6123,
      "leer": 6124,
      "leon": 6125,
      "lement": 6126,
      "leaf": 6127,
      "levy": 6128,
      "leclaw": 6129,
      "geor": 6130,
      "geier": 6131,
      "ardent": 6132,
      "arded": 6133,
      "ardiz": 6134,
      "coat": 6135,
      "coach": 6136,
      "cosm": 6137,
      "cobbled": 6138,
      "cooler": 6139,
      "aced": 6140,
      "acly": 6141,
      "acrific": 6142,
      "accumu": 6143,
      "accursed": 6144,
      "acade": 6145,
      "aciers": 6146,
      "ona": 6147,
      "onen": 6148,
      "oned": 6149,
      "onment": 6150,
      "online": 6151,
      "onnay": 6152,
      "stur": 6153,
      "stra": 6154,
      "stup": 6155,
      "stare": 6156,
      "stem": 6157,
      "stspe": 6158,
      "stayed": 6159,
      "stitch": 6160,
      "staring": 6161,
      "stoned": 6162,
      "roar": 6163,
      "ronto": 6164,
      "root": 6165,
      "rodu": 6166,
      "itary": 6167,
      "ities": 6168,
      "itim": 6169,
      "itten": 6170,
      "itli": 6171,
      "took": 6172,
      "toys": 6173,
      "toggle": 6174,
      "toronto": 6175,
      "ory": 6176,
      "orter": 6177,
      "orously": 6178,
      "orang": 6179,
      "andri": 6180,
      "eling": 6181,
      "elance": 6182,
      "elbow": 6183,
      "ellent": 6184,
      "elbru": 6185,
      "elope": 6186,
      "elusive": 6187,
      "isma": 6188,
      "islava": 6189,
      "getting": 6190,
      "ala": 6191,
      "altar": 6192,
      "along": 6193,
      "altern": 6194,
      "alrun": 6195,
      "alpine": 6196,
      "ented": 6197,
      "entry": 6198,
      "entomb": 6199,
      "entrance": 6200,
      "attends": 6201,
      "attune": 6202,
      "whet": 6203,
      "ingot": 6204,
      "targ": 6205,
      "urd": 6206,
      "uram": 6207,
      "figh": 6208,
      "ficient": 6209,
      "whenge": 6210,
      "degre": 6211,
      "delet": 6212,
      "asa": 6213,
      "asy": 6214,
      "amat": 6215,
      "amble": 6216,
      "amoeba": 6217,
      "vete": 6218,
      "vecraft": 6219,
      "vereign": 6220,
      "erson": 6221,
      "chi": 6222,
      "chic": 6223,
      "chance": 6224,
      "chest": 6225,
      "chum": 6226,
      "chang": 6227,
      "eder": 6228,
      "eding": 6229,
      "edition": 6230,
      "edom": 6231,
      "esay": 6232,
      "espe": 6233,
      "eskel": 6234,
      "rath": 6235,
      "rabid": 6236,
      "rapha": 6237,
      "rava": 6238,
      "raised": 6239,
      "ply": 6240,
      "plate": 6241,
      "plum": 6242,
      "plaguel": 6243,
      "placed": 6244,
      "ily": 6245,
      "ilar": 6246,
      "illegal": 6247,
      "advo": 6248,
      "adian": 6249,
      "bered": 6250,
      "behe": 6251,
      "beet": 6252,
      "befriend": 6253,
      "achie": 6254,
      "widel": 6255,
      "wielder": 6256,
      "widget": 6257,
      "mane": 6258,
      "mano": 6259,
      "manage": 6260,
      "manuel": 6261,
      "utan": 6262,
      "utilit": 6263,
      "utters": 6264,
      "utama": 6265,
      "spy": 6266,
      "spay": 6267,
      "sped": 6268,
      "spring": 6269,
      "spaces": 6270,
      "spitting": 6271,
      "sperson": 6272,
      "exos": 6273,
      "express": 6274,
      "exhib": 6275,
      "ppled": 6276,
      "}{}.": 6277,
      "playtest": 6278,
      "playmat": 6279,
      "evangel": 6280,
      "mayor": 6281,
      "ica": 6282,
      "icle": 6283,
      "iced": 6284,
      "icip": 6285,
      "icted": 6286,
      "ications": 6287,
      "adding": 6288,
      "elliest": 6289,
      "damaged": 6290,
      "caster": 6291,
      "loose": 6292,
      "loom": 6293,
      "lobo": 6294,
      "lops": 6295,
      "lowhenge": 6296,
      "lovecraft": 6297,
      "seer": 6298,
      "sequ": 6299,
      "seated": 6300,
      "seiz": 6301,
      "sewer": 6302,
      "secur": 6303,
      "mber": 6304,
      "landing": 6305,
      "antoin": 6306,
      "antarct": 6307,
      "antelope": 6308,
      "aryll": 6309,
      "drakes": 6310,
      "handle": 6311,
      "lift": 6312,
      "gravestorm": 6313,
      "canada": 6314,
      "canadian": 6315,
      "artest": 6316,
      "artwork": 6317,
      "artisan": 6318,
      "artee": 6319,
      "article": 6320,
      "kenku": 6321,
      "kenrath": 6322,
      "sacre": 6323,
      "epher": 6324,
      "epiph": 6325,
      "anytime": 6326,
      "enchanting": 6327,
      "taic": 6328,
      "tabi": 6329,
      "tably": 6330,
      "oneers": 6331,
      "uphe": 6332,
      "quid": 6333,
      "quie": 6334,
      "quake": 6335,
      "quitous": 6336,
      "queror": 6337,
      "quities": 6338,
      "lescence": 6339,
      "mox": 6340,
      "mock": 6341,
      "moder": 6342,
      "molt": 6343,
      "mobil": 6344,
      "keleton": 6345,
      "kegs": 6346,
      "unpre": 6347,
      "unopen": 6348,
      "unguessed": 6349,
      "uninvited": 6350,
      "unlimit": 6351,
      "unwary": 6352,
      "unications": 6353,
      "blocker": 6354,
      "perial": 6355,
      "allax": 6356,
      "shman": 6357,
      "shim": 6358,
      "shess": 6359,
      "shire": 6360,
      "shape": 6361,
      "shau": 6362,
      "shade": 6363,
      "shrill": 6364,
      "shorter": 6365,
      "shepher": 6366,
      "displays": 6367,
      "collect": 6368,
      "compe": 6369,
      "compet": 6370,
      "door": 6371,
      "docent": 6372,
      "doku": 6373,
      "dozen": 6374,
      "blers": 6375,
      "blurry": 6376,
      "abbey": 6377,
      "abruck": 6378,
      "instig": 6379,
      "powder": 6380,
      "powerstones": 6381,
      "nonblocking": 6382,
      "rier": 6383,
      "rivete": 6384,
      "theirs": 6385,
      "iver": 6386,
      "extric": 6387,
      "ction": 6388,
      "impo": 6389,
      "impact": 6390,
      "imaryll": 6391,
      "immobil": 6392,
      "imperial": 6393,
      "aretti": 6394,
      "flick": 6395,
      "flap": 6396,
      "flaw": 6397,
      "flutters": 6398,
      "tous": 6399,
      "toulou": 6400,
      "copenha": 6401,
      "valiant": 6402,
      "ameter": 6403,
      "plans": 6404,
      "typal": 6405,
      "typical": 6406,
      "ashed": 6407,
      "ashno": 6408,
      "ashivan": 6409,
      "timed": 6410,
      "planeswalked": 6411,
      "foam": 6412,
      "igpay": 6413,
      "igner": 6414,
      "striker": 6415,
      "outcast": 6416,
      "outcasts": 6417,
      "outfit": 6418,
      "outdoors": 6419,
      "thank": 6420,
      "greven": 6421,
      "basking": 6422,
      "wayne": 6423,
      "propo": 6424,
      "prodig": 6425,
      "propose": 6426,
      "timebender": 6427,
      "ancestr": 6428,
      "define": 6429,
      "defeat": 6430,
      "vigation": 6431,
      "vigorously": 6432,
      "excellent": 6433,
      "looking": 6434,
      "tome": 6435,
      "tomy": 6436,
      "sovereign": 6437,
      "idian": 6438,
      "clan": 6439,
      "clave": 6440,
      "clap": 6441,
      "ruby": 6442,
      "ruling": 6443,
      "rubber": 6444,
      "ruthless": 6445,
      "attaches": 6446,
      "presc": 6447,
      "precip": 6448,
      "prefers": 6449,
      "inkcaster": 6450,
      "senor": 6451,
      "sengir": 6452,
      "regarded": 6453,
      "science": 6454,
      "scariest": 6455,
      "randy": 6456,
      "athook": 6457,
      "conside": 6458,
      "convic": 6459,
      "conqueror": 6460,
      "prevents": 6461,
      "noble": 6462,
      "nover": 6463,
      "nogi": 6464,
      "nosfer": 6465,
      "notably": 6466,
      "going": 6467,
      "goose": 6468,
      "gorek": 6469,
      "territ": 6470,
      "cyst": 6471,
      "destruction": 6472,
      "sire": 6473,
      "sien": 6474,
      "sipmonger": 6475,
      "sioneers": 6476,
      "communications": 6477,
      "zombify": 6478,
      "kicks": 6479,
      "legion": 6480,
      "legged": 6481,
      "legitim": 6482,
      "suq": 6483,
      "suit": 6484,
      "suant": 6485,
      "swept": 6486,
      "swap": 6487,
      "ectionately": 6488,
      "boss": 6489,
      "bochum": 6490,
      "capen": 6491,
      "angest": 6492,
      "angeles": 6493,
      "monol": 6494,
      "mondr": 6495,
      "forehead": 6496,
      "humanoid": 6497,
      "dedicated": 6498,
      "pausing": 6499,
      "paulo": 6500,
      "pagorek": 6501,
      "dragonfly": 6502,
      "esting": 6503,
      "estwald": 6504,
      "establ": 6505,
      "partners": 6506,
      "particip": 6507,
      "warning": 6508,
      "charm": 6509,
      "charisma": 6510,
      "spiritmonger": 6511,
      "sao": 6512,
      "savage": 6513,
      "vogar": 6514,
      "voya": 6515,
      "tribe": 6516,
      "mutating": 6517,
      "earning": 6518,
      "bandar": 6519,
      "bandit": 6520,
      "poss": 6521,
      "pean": 6522,
      "mainz": 6523,
      "mainstay": 6524,
      "hadn": 6525,
      "hadana": 6526,
      "nerf": 6527,
      "zeppel": 6528,
      "embered": 6529,
      "werebear": 6530,
      "verbal": 6531,
      "vertically": 6532,
      "ference": 6533,
      "umara": 6534,
      "umference": 6535,
      "nightstalker": 6536,
      "sixteen": 6537,
      "startled": 6538,
      "shared": 6539,
      "divine": 6540,
      "former": 6541,
      "conduit": 6542,
      "physical": 6543,
      "diest": 6544,
      "map": 6545,
      "mahoney": 6546,
      "kinesis": 6547,
      "working": 6548,
      "opardiz": 6549,
      "chair": 6550,
      "ulder": 6551,
      "ulrich": 6552,
      "compass": 6553,
      "overlord": 6554,
      "overrun": 6555,
      "mini": 6556,
      "minthara": 6557,
      "walla": 6558,
      "tenured": 6559,
      "haldan": 6560,
      "kindly": 6561,
      "tempered": 6562,
      "earthquake": 6563,
      "solitary": 6564,
      "remembered": 6565,
      "dustspe": 6566,
      "dueling": 6567,
      "devoted": 6568,
      "cyclops": 6569,
      "avid": 6570,
      "avabruck": 6571,
      "helping": 6572,
      "wolfbit": 6573,
      "wolfgang": 6574,
      "shadowcat": 6575,
      "case": 6576,
      "meets": 6577,
      "meathook": 6578,
      "bloodline": 6579,
      "server": 6580,
      "resume": 6581,
      "merchant": 6582,
      "skoph": 6583,
      "coined": 6584,
      "catch": 6585,
      "catalyst": 6586,
      "catacly": 6587,
      "constric": 6588,
      "primar": 6589,
      "primal": 6590,
      "sticks": 6591,
      "reads": 6592,
      "lets": 6593,
      "igneous": 6594,
      "delver": 6595,
      "fears": 6596,
      "fearless": 6597,
      "rennes": 6598,
      "introdu": 6599,
      "ratio": 6600,
      "mostly": 6601,
      "visible": 6602,
      "splinter": 6603,
      "spliced": 6604,
      "splashed": 6605,
      "system": 6606,
      "cially": 6607,
      "parallax": 6608,
      "demonic": 6609,
      "devic": 6610,
      "insects": 6611,
      "apes": 6612,
      "arcanist": 6613,
      "alicorn": 6614,
      "surveilled": 6615,
      "overloaded": 6616,
      "cors": 6617,
      "relies": 6618,
      "cedented": 6619,
      "ibution": 6620,
      "daybreak": 6621,
      "exchanges": 6622,
      "stacked": 6623,
      "infesting": 6624,
      "affectionately": 6625,
      "distract": 6626,
      "gia": 6627,
      "tories": 6628,
      "tormentor": 6629,
      "cessary": 6630,
      "procession": 6631,
      "bramble": 6632,
      "useful": 6633,
      "eighteen": 6634,
      "german": 6635,
      "mirari": 6636,
      "awake": 6637,
      "figures": 6638,
      "stormfront": 6639,
      "explosioneers": 6640,
      "130": 6641,
      "weft": 6642,
      "weake": 6643,
      "weinhe": 6644,
      "hagra": 6645,
      "schwart": 6646,
      "speed": 6647,
      "speake": 6648,
      "complement": 6649,
      "complements": 6650,
      "scheming": 6651,
      "follows": 6652,
      "trading": 6653,
      "tradition": 6654,
      "spiked": 6655,
      "guy": 6656,
      "gust": 6657,
      "guay": 6658,
      "guild": 6659,
      "maga": 6660,
      "channeler": 6661,
      "hobbling": 6662,
      "metalworker": 6663,
      "ugliest": 6664,
      "teamwork": 6665,
      "magician": 6666,
      "burning": 6667,
      "burgh": 6668,
      "buried": 6669,
      "cluck": 6670,
      "cluster": 6671,
      "liquid": 6672,
      "agers": 6673,
      "ludevic": 6674,
      "package": 6675,
      "offers": 6676,
      "offensive": 6677,
      "phantom": 6678,
      "friendliest": 6679,
      "lls": 6680,
      "navigation": 6681,
      "scavenger": 6682,
      "scavenging": 6683,
      "ortant": 6684,
      "akros": 6685,
      "armory": 6686,
      "curious": 6687,
      "denmark": 6688,
      "gateway": 6689,
      "godsire": 6690,
      "fecun": 6691,
      "feels": 6692,
      "growths": 6693,
      "design": 6694,
      "designer": 6695,
      "initiate": 6696,
      "lected": 6697,
      "laurent": 6698,
      "supplement": 6699,
      "hellkite": 6700,
      "shapeshifters": 6701,
      "ords": 6702,
      "ordway": 6703,
      "rebels": 6704,
      "knife": 6705,
      "vania": 6706,
      "golden": 6707,
      "goldmead": 6708,
      "summer": 6709,
      "sumasa": 6710,
      "rancors": 6711,
      "retribution": 6712,
      "keywords": 6713,
      "evolves": 6714,
      "markov": 6715,
      "balances": 6716,
      "doomed": 6717,
      "applied": 6718,
      "norway": 6719,
      "normally": 6720,
      "pegasi": 6721,
      "dwarfhold": 6722,
      "berserk": 6723,
      "rockslide": 6724,
      "blades": 6725,
      "worldly": 6726,
      "gris": 6727,
      "neck": 6728,
      "nekrata": 6729,
      "nezum": 6730,
      "necessary": 6731,
      "subtypes": 6732,
      "subject": 6733,
      "subsection": 6734,
      "sometimes": 6735,
      "funniest": 6736,
      "function": 6737,
      "refer": 6738,
      "crypto": 6739,
      "ornithopter": 6740,
      "health": 6741,
      "healer": 6742,
      "adapting": 6743,
      "bervill": 6744,
      "griest": 6745,
      "howler": 6746,
      "afflicted": 6747,
      "cleanest": 6748,
      "angler": 6749,
      "angry": 6750,
      "maro": 6751,
      "marriage": 6752,
      "heretical": 6753,
      "harald": 6754,
      "harrier": 6755,
      "eyebrow": 6756,
      "kalade": 6757,
      "ravengard": 6758,
      "doctors": 6759,
      "lightshield": 6760,
      "simple": 6761,
      "simply": 6762,
      "similar": 6763,
      "sorin": 6764,
      "viashivan": 6765,
      "increasing": 6766,
      "flametongue": 6767,
      "finished": 6768,
      "matches": 6769,
      "york": 6770,
      "screeching": 6771,
      "carah": 6772,
      "carlos": 6773,
      "carriage": 6774,
      "numble": 6775,
      "nettle": 6776,
      "enablers": 6777,
      "rogenius": 6778,
      "floating": 6779,
      "herald": 6780,
      "hanover": 6781,
      "hannover": 6782,
      "silencer": 6783,
      "animal": 6784,
      "swords": 6785,
      "holland": 6786,
      "holga": 6787,
      "hollowhenge": 6788,
      "midgame": 6789,
      "assistant": 6790,
      "logic": 6791,
      "logger": 6792,
      "classic": 6793,
      "internet": 6794,
      "celebrity": 6795,
      "bribe": 6796,
      "pursuant": 6797,
      "smile": 6798,
      "smith": 6799,
      "smelliest": 6800,
      "smartest": 6801,
      "cheap": 6802,
      "checked": 6803,
      "finals": 6804,
      "finalists": 6805,
      "daunting": 6806,
      "daring": 6807,
      "joining": 6808,
      "joined": 6809,
      "kytheon": 6810,
      "kara": 6811,
      "karona": 6812,
      "pincher": 6813,
      "titles": 6814,
      "stray": 6815,
      "strongest": 6816,
      "strangest": 6817,
      "freelance": 6818,
      "freedom": 6819,
      "freshman": 6820,
      "sentry": 6821,
      "sentences": 6822,
      "sparkmage": 6823,
      "azar": 6824,
      "azcanta": 6825,
      "brazil": 6826,
      "glue": 6827,
      "glaciers": 6828,
      "sigurd": 6829,
      "2002": 6830,
      "2003": 6831,
      "djinns": 6832,
      "hunter": 6833,
      "huntmaster": 6834,
      "lily": 6835,
      "villager": 6836,
      "villagers": 6837,
      "written": 6838,
      "fluke": 6839,
      "piper": 6840,
      "pious": 6841,
      "pinkie": 6842,
      "england": 6843,
      "winnings": 6844,
      "aeo": 6845,
      "brother": 6846,
      "calls": 6847,
      "caller": 6848,
      "labs": 6849,
      "labyrin": 6850,
      "sleuth": 6851,
      "sleeve": 6852,
      "sleeves": 6853,
      "tusks": 6854,
      "virus": 6855,
      "wyvern": 6856,
      "coveted": 6857,
      "covetous": 6858,
      "ingenious": 6859,
      "gossipmonger": 6860,
      "roughly": 6861,
      "duplicity": 6862,
      "naturalize": 6863,
      "fells": 6864,
      "festive": 6865,
      "pray": 6866,
      "piece": 6867,
      "inspiring": 6868,
      "blasting": 6869,
      "sideboarding": 6870,
      "guards": 6871,
      "brings": 6872,
      "bringing": 6873,
      "darkness": 6874,
      "foundry": 6875,
      "contained": 6876,
      "cannons": 6877,
      "perfection": 6878,
      "performs": 6879,
      "performed": 6880,
      "gremlins": 6881,
      "voltaic": 6882,
      "phylath": 6883,
      "unicorns": 6884,
      "survival": 6885,
      "gnarlid": 6886,
      "kuala": 6887,
      "kumano": 6888,
      "pyre": 6889,
      "pyrogenius": 6890,
      "tinker": 6891,
      "vault": 6892,
      "wildfire": 6893,
      "tombspawn": 6894,
      "mystics": 6895,
      "mystical": 6896,
      "audibly": 6897,
      "aubervill": 6898,
      "cutest": 6899,
      "cruised": 6900,
      "genesis": 6901,
      "hungriest": 6902,
      "kelsien": 6903,
      "narfi": 6904,
      "described": 6905,
      "performances": 6906,
      "dominating": 6907,
      "defenses": 6908,
      "defensive": 6909,
      "voldaren": 6910,
      "mechanic": 6911,
      "skyclave": 6912,
      "breakneck": 6913,
      "gorgons": 6914,
      "smaller": 6915,
      "missionaries": 6916,
      "cunningham": 6917,
      "adept": 6918,
      "bigby": 6919,
      "bigger": 6920,
      "furious": 6921,
      "jarsyl": 6922,
      "mouth": 6923,
      "pitts": 6924,
      "wasteland": 6925,
      "youngest": 6926,
      "strategy": 6927,
      "elderfang": 6928,
      "elderleaf": 6929,
      "events": 6930,
      "eventual": 6931,
      "dragged": 6932,
      "sylvania": 6933,
      "1994": 6934,
      "1997": 6935,
      "sigardian": 6936,
      "eakspay": 6937,
      "nikara": 6938,
      "nurture": 6939,
      "ritual": 6940,
      "threats": 6941,
      "threaten": 6942,
      "ambergris": 6943,
      "rainboom": 6944,
      "allenhorde": 6945,
      "profane": 6946,
      "mettle": 6947,
      "paradise": 6948,
      "smasher": 6949,
      "career": 6950,
      "closet": 6951,
      "crossbre": 6952,
      "efreets": 6953,
      "gathered": 6954,
      "holding": 6955,
      "jaba": 6956,
      "neva": 6957,
      "punch": 6958,
      "smolder": 6959,
      "uktabi": 6960,
      "watchkeep": 6961,
      "watchdog": 6962,
      "accepted": 6963,
      "america": 6964,
      "important": 6965,
      "proceeding": 6966,
      "climbs": 6967,
      "regulator": 6968,
      "tormented": 6969,
      "thralls": 6970,
      "nationals": 6971,
      "nicolas": 6972,
      "adventuring": 6973,
      "disintegrate": 6974,
      "disintegration": 6975,
      "fittest": 6976,
      "gloom": 6977,
      "growing": 6978,
      "little": 6979,
      "machine": 6980,
      "maryland": 6981,
      "martial": 6982,
      "mongrel": 6983,
      "neglected": 6984,
      "pulling": 6985,
      "south": 6986,
      "vicious": 6987,
      "victories": 6988,
      "wildest": 6989,
      "resord": 6990,
      "reckless": 6991,
      "inessperson": 6992,
      "incinerate": 6993,
      "elimination": 6994,
      "quarterfinals": 6995,
      "shredder": 6996,
      "trying": 6997,
      "premiums": 6998,
      "capital": 6999,
      "syndicate": 7000,
      "explosion": 7001,
      "heirloom": 7002,
      "happy": 7003,
      "necromancer": 7004,
      "circled": 7005,
      "circular": 7006,
      "circumference": 7007,
      "sculpture": 7008,
      "cloistered": 7009,
      "civilized": 7010,
      "pacifist": 7011,
      "avacynian": 7012,
      "blyte": 7013,
      "falcon": 7014,
      "falkenrath": 7015,
      "jeff": 7016,
      "jeopardiz": 7017,
      "krark": 7018,
      "krallenhorde": 7019,
      "knocked": 7020,
      "knolls": 7021,
      "loudest": 7022,
      "ophidian": 7023,
      "tiamat": 7024,
      "arsonist": 7025,
      "arsonists": 7026,
      "ancients": 7027,
      "stompie": 7028,
      "stompy": 7029,
      "december": 7030,
      "deceiver": 7031,
      "plowshares": 7032,
      "forgemaster": 7033,
      "antiquities": 7034,
      "ironworks": 7035,
      "ironsmith": 7036,
      "tricky": 7037,
      "trickster": 7038,
      "archetype": 7039,
      "archetypal": 7040,
      "imitate": 7041,
      "promos": 7042,
      "promoted": 7043,
      "ruiner": 7044,
      "hump": 7045,
      "conditions": 7046,
      "majority": 7047,
      "parisian": 7048,
      "denimwalk": 7049,
      "feature": 7050,
      "features": 7051,
      "netherlands": 7052,
      "malaysia": 7053,
      "malaysian": 7054,
      "pyromancer": 7055,
      "pyrokinesis": 7056,
      "autumnal": 7057,
      "semifinals": 7058,
      "semifinalist": 7059,
      "aaah": 7060,
      "auntie": 7061,
      "aquamoeba": 7062,
      "applejack": 7063,
      "besides": 7064,
      "businessperson": 7065,
      "bratislava": 7066,
      "bounces": 7067,
      "borders": 7068,
      "baleful": 7069,
      "courage": 7070,
      "cisco": 7071,
      "cabaretti": 7072,
      "crippled": 7073,
      "cathar": 7074,
      "czech": 7075,
      "calmly": 7076,
      "diameter": 7077,
      "duress": 7078,
      "dropped": 7079,
      "dutch": 7080,
      "dowsing": 7081,
      "darts": 7082,
      "dagger": 7083,
      "duskwatch": 7084,
      "efficient": 7085,
      "eigth": 7086,
      "emory": 7087,
      "european": 7088,
      "fumbling": 7089,
      "fastest": 7090,
      "francisco": 7091,
      "fragment": 7092,
      "frames": 7093,
      "frantic": 7094,
      "galleon": 7095,
      "gaveleer": 7096,
      "gabriel": 7097,
      "glasses": 7098,
      "honor": 7099,
      "hampshire": 7100,
      "hawk": 7101,
      "ikestray": 7102,
      "julien": 7103,
      "jakub": 7104,
      "janosch": 7105,
      "katana": 7106,
      "kardum": 7107,
      "koni": 7108,
      "kroger": 7109,
      "killer": 7110,
      "kagemaro": 7111,
      "koln": 7112,
      "lungs": 7113,
      "lumbering": 7114,
      "ltrator": 7115,
      "lumpur": 7116,
      "massacre": 7117,
      "militia": 7118,
      "messenger": 7119,
      "mongoose": 7120,
      "mccabe": 7121,
      "nicknamed": 7122,
      "natterknolls": 7123,
      "oathsworn": 7124,
      "opalescence": 7125,
      "ohio": 7126,
      "ponies": 7127,
      "portal": 7128,
      "passes": 7129,
      "parents": 7130,
      "pillage": 7131,
      "pumped": 7132,
      "pennsylvania": 7133,
      "prisoner": 7134,
      "rumble": 7135,
      "rashka": 7136,
      "rhyming": 7137,
      "several": 7138,
      "slovak": 7139,
      "scholar": 7140,
      "suntail": 7141,
      "snoop": 7142,
      "scorching": 7143,
      "scorned": 7144,
      "smidgen": 7145,
      "seventeen": 7146,
      "tatsumasa": 7147,
      "taller": 7148,
      "tangleclaw": 7149,
      "tropical": 7150,
      "usually": 7151,
      "ubiquitous": 7152,
      "vildin": 7153,
      "vastwood": 7154,
      "vryn": 7155,
      "wanted": 7156,
      "wunderkind": 7157,
      "warchief": 7158,
      "wrestle": 7159,
      "westvale": 7160,
      "yawning": 7161,
      "rebecca": 7162,
      "researcher": 7163,
      "recurring": 7164,
      "respectable": 7165,
      "reasonable": 7166,
      "thumbs": 7167,
      "thawing": 7168,
      "thornmantle": 7169,
      "thaumatic": 7170,
      "atinlay": 7171,
      "atropal": 7172,
      "oubleday": 7173,
      "armageddon": 7174,
      "arlinn": 7175,
      "enwhay": 7176,
      "english": 7177,
      "environment": 7178,
      "infiltrator": 7179,
      "indominus": 7180,
      "insult": 7181,
      "inexpensive": 7182,
      "georgia": 7183,
      "cosmic": 7184,
      "acrificesay": 7185,
      "accumulated": 7186,
      "academy": 7187,
      "sturdiest": 7188,
      "straighten": 7189,
      "stupor": 7190,
      "stitched": 7191,
      "rootwalla": 7192,
      "itlimoc": 7193,
      "orangutan": 7194,
      "andrios": 7195,
      "elbrus": 7196,
      "alternate": 7197,
      "alrund": 7198,
      "attunement": 7199,
      "whetstone": 7200,
      "urami": 7201,
      "fighter": 7202,
      "degree": 7203,
      "delete": 7204,
      "chicken": 7205,
      "changing": 7206,
      "especially": 7207,
      "eskeland": 7208,
      "raphael": 7209,
      "ravager": 7210,
      "plummet": 7211,
      "plaguelords": 7212,
      "advocate": 7213,
      "behemoth": 7214,
      "beetle": 7215,
      "achieved": 7216,
      "widely": 7217,
      "utility": 7218,
      "exoskeleton": 7219,
      "exhibition": 7220,
      "playmats": 7221,
      "lobotomy": 7222,
      "sequence": 7223,
      "seizer": 7224,
      "security": 7225,
      "antoine": 7226,
      "antarctica": 7227,
      "arteeoh": 7228,
      "epiphany": 7229,
      "upheaval": 7230,
      "quietest": 7231,
      "mockery": 7232,
      "modernity": 7233,
      "molting": 7234,
      "unprecedented": 7235,
      "unopened": 7236,
      "unlimited": 7237,
      "shimatsu": 7238,
      "shessra": 7239,
      "shauku": 7240,
      "shepherd": 7241,
      "compete": 7242,
      "competition": 7243,
      "dokuchi": 7244,
      "instigator": 7245,
      "riveteers": 7246,
      "extricator": 7247,
      "impostor": 7248,
      "immobilized": 7249,
      "flicks": 7250,
      "flawless": 7251,
      "fluttershy": 7252,
      "toulouse": 7253,
      "copenhagen": 7254,
      "ashnod": 7255,
      "proposal": 7256,
      "prodigy": 7257,
      "ancestral": 7258,
      "prescribed": 7259,
      "precipitous": 7260,
      "considered": 7261,
      "convicted": 7262,
      "nosferatu": 7263,
      "territory": 7264,
      "legitimate": 7265,
      "capenna": 7266,
      "monolith": 7267,
      "mondronen": 7268,
      "establish": 7269,
      "participant": 7270,
      "voyager": 7271,
      "possibly": 7272,
      "zeppelin": 7273,
      "dustspeaker": 7274,
      "wolfbitten": 7275,
      "skophos": 7276,
      "cataclysm": 7277,
      "constrictor": 7278,
      "primarily": 7279,
      "introduced": 7280,
      "alicorns": 7281,
      "brambleweft": 7282,
      "weakest": 7283,
      "weinheim": 7284,
      "schwartz": 7285,
      "speakeasy": 7286,
      "traditional": 7287,
      "guildsworn": 7288,
      "fecundity": 7289,
      "supplementing": 7290,
      "goldmeadow": 7291,
      "nekrataal": 7292,
      "nezumi": 7293,
      "cryptolith": 7294,
      "eyebrows": 7295,
      "kaladesh": 7296,
      "nettlecyst": 7297,
      "labyrinth": 7298,
      "aubervilliers": 7299,
      "pittsburgh": 7300,
      "nurturer": 7301,
      "ritualist": 7302,
      "crossbreed": 7303,
      "smoldering": 7304,
      "jeopardizing": 7305
    },
    "merges": [
      "r e",
      "t h",
      "a t",
      "o u",
      "n t",
      "a r",
      "e r",
      "a n",
      "y ou",
      "e n",
      "re at",
      "c reat",
      "th e",
      "i n",
      "u re",
      "creat ure",
      "l e",
      "g e",
      "ar d",
      "c o",
      "a c",
      "o n",
      "s t",
      "r o",
      "i t",
      "t o",
      "o r",
      "c ard",
      "i f",
      "an d",
      "e l",
      "i s",
      "o f",
      "ge t",
      "a y",
      "a l",
      "e nt",
      "at t",
      "w h",
      "you r",
      "in g",
      "t ar",
      "tar get",
      "ro l",
      "u r",
      "co nt",
      "cont rol",
      "f i",
      "wh en",
      "th is",
      "d e",
      "a s",
      "t ur",
      "tur n",
      "a m",
      "v e",
      "el d",
      "b att",
      "batt le",
      "fi eld",
      "battle field",
      "er s",
      "c h",
      "e d",
      "e s",
      "r a",
      "} :",
      ". )",
      "p l",
      "i l",
      "a d",
      "a st",
      "th at",
      "b e",
      "ac h",
      "w i",
      "m an",
      "u t",
      "s p",
      "en d",
      "wi th",
      "e x",
      "ent ers",
      "ou nt",
      "p ut",
      "u nt",
      "p p",
      "} {",
      "pl ay",
      "e v",
      "l y",
      "/ +",
      "m ay",
      "i c",
      "c ount",
      "ad d",
      "e ach",
      "el l",
      "a ge",
      "ev er",
      "sp ell",
      "f ro",
      "fro m",
      "when ever",
      "d am",
      "dam age",
      "c ast",
      "play er",
      "l o",
      "card s",
      "s e",
      "de al",
      "} ,",
      "ac k",
      "f or",
      "a in",
      "m b",
      "ac t",
      "unt il",
      "creature s",
      "i b",
      "l and",
      "a nt",
      "f ly",
      "fly ing",
      "ar y",
      "d ra",
      "o w",
      "i le",
      "it s",
      "h and",
      "l if",
      "nt o",
      "l ib",
      "lib r",
      "libr ary",
      "g ain",
      "g ra",
      "gra ve",
      "y ard",
      "grave yard",
      "c an",
      "ar t",
      "dra w",
      "k en",
      "ex ile",
      "deal s",
      "if ic",
      "count er",
      "r ific",
      "s ac",
      "sac rific",
      "e p",
      "man a",
      "th er",
      "an y",
      "lif e",
      "to ken",
      "ch ant",
      "en chant",
      "if act",
      "art ifact",
      "on ent",
      "o pp",
      "opp onent",
      "th en",
      "o ther",
      "t a",
      "att ack",
      "sacrific e",
      "} .",
      "ch o",
      "on e",
      "u p",
      "q u",
      "pp ed",
      "get s",
      "le s",
      "e qu",
      "m o",
      "creat e",
      "c k",
      "k e",
      "w o",
      "b lo",
      "co st",
      "o se",
      "t wo",
      "u n",
      "les s",
      "blo ck",
      "de st",
      "g in",
      "be gin",
      "n ing",
      "p er",
      "begin ning",
      "p ay",
      "i nto",
      "man ent",
      "per manent",
      "al l",
      "re turn",
      "( {",
      "i r",
      "ow n",
      "ro y",
      "dest roy",
      "i es",
      "s h",
      "a ve",
      "d is",
      "ta pped",
      "h as",
      "i on",
      "to p",
      "co mb",
      "d er",
      "cho ose",
      "u mb",
      "umb er",
      "n umber",
      "on g",
      "count ers",
      "comb at",
      "co l",
      "col or",
      "co m",
      "d o",
      "b l",
      "a b",
      "at e",
      "u e",
      "am p",
      "in st",
      "c e",
      "mo re",
      "f f",
      "p ow",
      "h ave",
      "unt a",
      "pow er",
      "n on",
      "~ .",
      "re ve",
      "r i",
      "o nto",
      "gain s",
      "l d",
      "the ir",
      "i v",
      "dis card",
      "} .)",
      "e re",
      "ke ep",
      "up keep",
      "st ep",
      "equ al",
      "g h",
      "block ed",
      "equ i",
      "on ly",
      "ex t",
      "il it",
      "ab ilit",
      "u ff",
      "sh uff",
      "enchant ed",
      "reve al",
      "m ent",
      "un der",
      "t r",
      "or c",
      "unta p",
      "ar ch",
      "th re",
      "attack s",
      "ast e",
      "h aste",
      "own er",
      "n ext",
      "c t",
      "i m",
      "er y",
      "thre e",
      "a re",
      "s orc",
      "~ :",
      "sorc ery",
      "an other",
      "al k",
      "control s",
      "shuff le",
      "w alk",
      "ou ld",
      "be com",
      "amp le",
      "se arch",
      "b y",
      "t y",
      "act iv",
      "tr ample",
      "o t",
      "f l",
      "t ou",
      "the y",
      "co p",
      "v al",
      "d ies",
      "l ong",
      "becom es",
      "the m",
      ". \"",
      "w ould",
      "val ue",
      "es s",
      "am e",
      "it ion",
      "add ition",
      "l er",
      "pl an",
      "bl ack",
      "s es",
      "ty p",
      "cop y",
      "as h",
      "r st",
      "fi rst",
      "ac e",
      "t im",
      "plan es",
      "planes walk",
      "re d",
      "spell s",
      "f o",
      "ta p",
      "i g",
      "it e",
      "st ri",
      "re st",
      "mo ve",
      "control ler",
      "wh ere",
      "stri ke",
      "ou t",
      "e ad",
      "wh ite",
      "fl ash",
      "activ ate",
      "th an",
      "g re",
      "re move",
      "enchant ment",
      "b as",
      "w ay",
      "deal t",
      "gre en",
      "inst ead",
      "p ro",
      "ou r",
      "token s",
      "tim e",
      "an ce",
      "n ess",
      "un less",
      "attack ing",
      "planeswalk er",
      "de f",
      "/ -",
      "am ong",
      "equi p",
      "inst ant",
      "v ig",
      "il ance",
      "vig ilance",
      "land s",
      "addition al",
      "def end",
      "d ur",
      "dur ing",
      "o k",
      "abilit ies",
      "non land",
      "with out",
      "lo ses",
      "ex c",
      "th ose",
      "bas ic",
      "lo ok",
      "b ot",
      "il l",
      "gh ness",
      "tou ghness",
      "to m",
      "abilit y",
      "bot tom",
      "e ct",
      "o m",
      "equi pped",
      "ep t",
      "typ e",
      "exc ept",
      "b ack",
      "d on",
      "f ace",
      "permanent s",
      "s o",
      "i d",
      "exile d",
      "c l",
      "r u",
      "cost s",
      "i e",
      "att ach",
      "p re",
      "w as",
      "or der",
      "in k",
      "f our",
      "en er",
      "s en",
      "cho sen",
      "v ent",
      "el ink",
      "lif elink",
      "ic k",
      "pay ing",
      "re g",
      "s c",
      "lo se",
      "opponent s",
      "\" {",
      "at ed",
      "r and",
      "ru ct",
      "g reat",
      "rand om",
      "a th",
      "reg ener",
      "p h",
      "re ach",
      "dis cards",
      "co n",
      "pre vent",
      "tou ch",
      "bl ue",
      "n o",
      "de ath",
      "g o",
      "r y",
      "t er",
      "c y",
      "ib le",
      "dest ruct",
      "in destruct",
      "indestruct ible",
      "death touch",
      "flash back",
      "s i",
      "com m",
      "z o",
      "zo mb",
      "do es",
      "comm and",
      "sc ry",
      "artifact s",
      "color less",
      "defend ing",
      "m u",
      "g ame",
      "target s",
      "k ick",
      "le g",
      "m ill",
      "le ave",
      "r ou",
      "leg end",
      "great er",
      "le d",
      "ic e",
      "typ es",
      "s u",
      "d own",
      "man y",
      "t al",
      "does n",
      "s w",
      "legend ary",
      "sacrific es",
      "ect ion",
      "pro t",
      "cl ing",
      "~ ,",
      "ain s",
      "m en",
      "men ace",
      "prot ection",
      "b o",
      "fo rest",
      "u s",
      "gh t",
      "~ '",
      "cy cling",
      "zomb ie",
      "defend er",
      "b le",
      "draw s",
      "i i",
      "n ame",
      "c a",
      "an ge",
      "d ou",
      "dou ble",
      "to tal",
      "ab le",
      "sw amp",
      "pay s",
      "play ers",
      "m on",
      "fi ve",
      "p has",
      "fo re",
      "unta pped",
      "non creature",
      "ou gh",
      "e w",
      "n am",
      "a f",
      "ev en",
      "h u",
      "af ter",
      "t re",
      "hu man",
      "a ur",
      "the re",
      "sp end",
      "i p",
      "de d",
      "p a",
      "leave s",
      "cho ice",
      "sp ir",
      "g on",
      "dra gon",
      "e st",
      "block ing",
      "as ure",
      "tre asure",
      "is land",
      ".\" )",
      "s our",
      "n onto",
      "nonto ken",
      "nam ed",
      "m or",
      "command er",
      "s even",
      "bl in",
      "go blin",
      "th ough",
      "attach ed",
      "cast s",
      "o d",
      "on ce",
      "p art",
      "is n",
      "regener ate",
      "m ount",
      "w ar",
      "ch ar",
      "spir it",
      "s a",
      "h ex",
      "pro of",
      "hex proof",
      "t k",
      "activ ated",
      "sp ent",
      "sour ce",
      "char ge",
      "regener ated",
      "a led",
      "l ast",
      "ff ect",
      "equip ment",
      "mu ch",
      "reve aled",
      "ere d",
      "n ot",
      "v o",
      "t ri",
      "ch ange",
      "st ill",
      "i ght",
      "m ut",
      "e ar",
      "ent er",
      "bo th",
      "e le",
      "b and",
      "mor ph",
      "phas e",
      "be fore",
      "s ame",
      "n ew",
      "e ffect",
      "ra ther",
      "tri g",
      "ri or",
      "war rior",
      "it y",
      "pa id",
      "v ot",
      "reveal s",
      "am ount",
      "p o",
      "ld i",
      "so ldi",
      "mill s",
      "i st",
      "le m",
      "kick ed",
      "kick er",
      "p e",
      "block s",
      "pl us",
      "p rol",
      "m ain",
      "l t",
      "soldi er",
      "h ad",
      "w in",
      "wh ile",
      "mount ain",
      "n er",
      "z e",
      "bas e",
      "part ner",
      "d if",
      "s l",
      "aur a",
      "e m",
      "ca u",
      "w ere",
      "al so",
      "m y",
      "sacrific ed",
      "i ve",
      "pl ains",
      "el f",
      "rol l",
      "e mb",
      "1 0",
      "ment al",
      "ele mental",
      "v er",
      "i ed",
      "w ard",
      "rou n",
      "c ould",
      "f ere",
      "shuff les",
      "put s",
      "dif fere",
      "is e",
      "u m",
      "n ight",
      "o s",
      "v el",
      "count ered",
      "fl ip",
      "si x",
      "al ty",
      "sl iv",
      "as s",
      "st art",
      "sh are",
      "d iv",
      "for m",
      "con d",
      "se cond",
      "color s",
      "mut ate",
      "trig g",
      "i re",
      "i an",
      "graveyard s",
      "f all",
      "lo y",
      "becom e",
      "emb lem",
      "is on",
      "ph y",
      "loy alty",
      "m ad",
      "div i",
      "p ile",
      "d ie",
      "mad ness",
      "le vel",
      "m a",
      "land fall",
      "cho o",
      "ve s",
      "phy re",
      "choo ses",
      "p t",
      "creat es",
      "po ison",
      "at ion",
      "de ck",
      "c re",
      "phyre x",
      "phyrex ian",
      "destroy ed",
      "f t",
      "k in",
      "tim es",
      "wh o",
      "ii i",
      "w ise",
      "planeswalk ers",
      "fo l",
      "attack ed",
      "other wise",
      "ar my",
      "w or",
      "o p",
      "ch a",
      "— {",
      "differe nt",
      "u l",
      "fo od",
      "h ic",
      "ve hic",
      "any where",
      "t wi",
      "cau ses",
      "band ing",
      "twi ce",
      "remove d",
      "sa prol",
      "saprol ing",
      "own ers",
      "le ast",
      "enchantment s",
      "com p",
      "sliv er",
      "start ing",
      "o ver",
      "v amp",
      "vamp ire",
      "al ly",
      "s n",
      "e i",
      "ir d",
      "m in",
      "at es",
      "ei ther",
      "2 0",
      "h i",
      "w all",
      "non black",
      "mon st",
      "exile s",
      "t en",
      "h al",
      "rou d",
      "sa g",
      "ange l",
      "kin d",
      "wo l",
      "sh roud",
      "r ing",
      "t em",
      "ear th",
      "trigg ers",
      "un earth",
      "h or",
      "so l",
      "fi ght",
      "hand s",
      "cop ies",
      "cre w",
      "t ed",
      "re m",
      "c u",
      "n in",
      "ev o",
      "rem ains",
      "vehic le",
      "d u",
      "de vot",
      "devot ion",
      "fol k",
      "re sol",
      "cy c",
      "z ard",
      "cast ing",
      "a v",
      "h el",
      "great est",
      "command ers",
      "an s",
      "si de",
      "si ze",
      "c es",
      "be ing",
      "d id",
      "be ast",
      "divi ded",
      "wi zard",
      "e cho",
      "step s",
      "mon arch",
      "did n",
      "hel p",
      "hal f",
      "sh ad",
      "wol f",
      "cha os",
      "k night",
      "control led",
      "shad ow",
      "exc ess",
      "roun ded",
      "out side",
      "c as",
      "f ew",
      "m e",
      "blo od",
      "non artifact",
      "s er",
      "sn ow",
      "tem pt",
      "d ied",
      "su spend",
      "f a",
      "l ing",
      "evo ke",
      "st or",
      "turn ed",
      "effect s",
      "re su",
      "discard ed",
      "resu lt",
      "fight s",
      "pro du",
      "cyc le",
      "th ing",
      "l at",
      "s ur",
      "vo ke",
      "lo re",
      "lo st",
      "g ue",
      "share s",
      "m er",
      "s ay",
      "im um",
      "mu lt",
      "s k",
      "zomb ies",
      "hi gh",
      "sag a",
      "o il",
      "co in",
      "tempt s",
      "c at",
      "roun d",
      "t ell",
      "er ate",
      "en su",
      "ensu es",
      "ever y",
      "if erate",
      "prol iferate",
      "turn s",
      "fore tell",
      "con st",
      "p ri",
      "r act",
      "s qu",
      "x imum",
      "con voke",
      "ma ximum",
      "resol ves",
      "st ick",
      "re ad",
      "le t",
      "ig n",
      "few er",
      "ca de",
      "cas cade",
      "pro w",
      "t ext",
      "ro gue",
      "d el",
      "z one",
      "al one",
      "nin j",
      "c ler",
      "cler ic",
      "ta ke",
      "rou s",
      "phas es",
      "wor d",
      "monst rous",
      "co lo",
      "colo red",
      "f ear",
      "ass ign",
      "tr ans",
      "es ca",
      "are n",
      "mult i",
      "an ion",
      "comp anion",
      "non basic",
      "re n",
      "de cl",
      "read y",
      "t u",
      "an n",
      "ext ra",
      "ve st",
      "i nt",
      "red u",
      "b ird",
      "g round",
      "back ground",
      "mer folk",
      "vot es",
      "ou s",
      "al ready",
      "decl are",
      "r at",
      "in vest",
      "vo id",
      "invest ig",
      "pre s",
      "on d",
      "ent ered",
      "be en",
      "}. \"",
      "id ent",
      "island walk",
      "stick er",
      "sh ip",
      "cl ue",
      "mo st",
      "com es",
      "ident ity",
      "change ling",
      "v is",
      "sh i",
      "op en",
      "o ld",
      "at or",
      "un blocked",
      "an k",
      "gain ed",
      "swamp walk",
      "s pl",
      "er o",
      "ge red",
      "trig gered",
      "cau se",
      "pe tu",
      "s y",
      "is lands",
      "g ive",
      "ro om",
      "am ass",
      "c i",
      "p ar",
      "x ic",
      "ar ies",
      "to xic",
      "att ract",
      "investig ate",
      "attract ion",
      "o l",
      "z a",
      "de mon",
      "per petu",
      "perpetu ally",
      "i red",
      ") .",
      "d un",
      "t e",
      "ge on",
      "de v",
      "se ct",
      "dun geon",
      "t w",
      "ou n",
      "target ed",
      "pile s",
      "pres ent",
      "in ce",
      "lo w",
      "in sect",
      "comb in",
      "g y",
      "s ince",
      "in it",
      "el y",
      "go lem",
      "aur as",
      "ist or",
      "c ra",
      "re present",
      "ve il",
      "a p",
      "h istor",
      "re main",
      "ar can",
      "al i",
      "ic ate",
      "ur za",
      "less er",
      "en ough",
      "z i",
      "sur veil",
      "prow ess",
      "b u",
      "add s",
      "over lo",
      "ren own",
      "histor ic",
      "th op",
      "co r",
      "any thing",
      "vis it",
      "overlo ad",
      "thop ter",
      "re l",
      "ut su",
      "ex pl",
      "ninj utsu",
      "arcan e",
      "eld ra",
      "return s",
      "thre sh",
      "part y",
      "eldra zi",
      "c ame",
      "t ied",
      "so on",
      "prevent ed",
      "mount ains",
      "o re",
      "s ing",
      "thresh old",
      "de void",
      "ir rel",
      "ener gy",
      "hor se",
      "squ irrel",
      "c ed",
      "k er",
      "en ce",
      "ib ut",
      "cra ft",
      "d ay",
      "ac le",
      "pa ired",
      "cu mu",
      "esca pe",
      "vent ure",
      "forest walk",
      "band s",
      "lat ive",
      "sk ip",
      "ibut e",
      "cumu lative",
      "dragon s",
      "fa er",
      "d in",
      "trans form",
      "si ded",
      "divi de",
      "h e",
      "man ship",
      "ex change",
      "sing le",
      "horse manship",
      "st ack",
      "re pl",
      "in f",
      "in cu",
      "ex act",
      "se par",
      "incu b",
      "attack ers",
      "const ruct",
      "exact ly",
      "is h",
      "ex er",
      "a ff",
      "d y",
      "e t",
      "g am",
      "in ity",
      "as se",
      "asse mb",
      "d ist",
      "be y",
      "be st",
      "do main",
      "combin ation",
      "g i",
      "swamp s",
      "bey ond",
      "to r",
      "forest s",
      "re b",
      "el ves",
      "produ ce",
      "ou l",
      "goblin s",
      "trigg er",
      "high est",
      "sy mb",
      "d 20",
      "th ird",
      "attack er",
      "c ess",
      "c ity",
      "symb ol",
      "i um",
      "t ing",
      "re pe",
      "st er",
      "fl ank",
      "pro cess",
      "repe at",
      "flank ing",
      "b less",
      "s oul",
      "orc s",
      "bless ing",
      "b r",
      "b ut",
      "g rou",
      "mut ates",
      "ul ar",
      "multi colored",
      "grou p",
      "put ting",
      "stor age",
      "u es",
      "} )",
      "if est",
      "man ifest",
      "them e",
      "shi eld",
      "declare d",
      "inf ect",
      "i th",
      "p ers",
      "u se",
      "pl ant",
      "faer ie",
      "b id",
      "creat ed",
      "sliv ers",
      "e ight",
      "g er",
      "m ir",
      "r ibute",
      "os aur",
      "din osaur",
      "a w",
      "qu est",
      "ir ium",
      "mu st",
      "del irium",
      "a gain",
      "n ce",
      "last s",
      "dist ribute",
      "g ure",
      "fi gure",
      "mo d",
      "differe nce",
      "renown ed",
      "ent win",
      "stor m",
      "best ow",
      "gi ant",
      "entwin e",
      "in def",
      "or ph",
      "ex ist",
      "me gam",
      "init ely",
      "expl o",
      "indef initely",
      "megam orph",
      "1 3",
      "t ion",
      "re con",
      "ro w",
      "nam es",
      "assign s",
      "recon figure",
      "m il",
      "d ash",
      "t reat",
      "en co",
      "le ft",
      "ro s",
      "mil led",
      "w e",
      "fa de",
      "i ence",
      "dra ft",
      "non legendary",
      "ser vo",
      "oun d",
      "aff inity",
      "d ice",
      "i z",
      "ex per",
      "pri nt",
      "exper ience",
      "a i",
      "al ted",
      "ex alted",
      "mo de",
      ", \"",
      "h a",
      "p ir",
      "s ch",
      "sp e",
      "se e",
      "were n",
      "wor ker",
      "comp le",
      "a way",
      "l ers",
      "ar k",
      "ro r",
      "it z",
      "control lers",
      "bl itz",
      "im id",
      "int imid",
      "sch em",
      "intimid ate",
      "th ir",
      "sp ore",
      "count s",
      "go ad",
      "fol low",
      "spl ice",
      "h ero",
      "v en",
      "de c",
      "ro le",
      "pri ze",
      "schem e",
      "c it",
      "w on",
      "to ward",
      "un spent",
      "return ed",
      "av en",
      "bu y",
      "iz en",
      "cit izen",
      "i ch",
      "libr aries",
      "min us",
      "wall s",
      "ann i",
      "assemb ly",
      "at ing",
      "tap s",
      "lat er",
      "ali ze",
      "t ra",
      "st one",
      "out last",
      "hor ror",
      "buy back",
      "c leave",
      "h il",
      "was n",
      "tre e",
      "sour ces",
      "vot e",
      "mountain walk",
      "anni hil",
      "ay ed",
      "ad v",
      "sp i",
      "tree folk",
      "b ar",
      "g u",
      "human s",
      "dec ayed",
      "al m",
      "ch ann",
      "se t",
      "ma g",
      "repl icate",
      "chann el",
      "s am",
      "wh ose",
      "cho se",
      "discard ing",
      "emb alm",
      "wh ich",
      "nin e",
      "dy ing",
      "produ ced",
      "h o",
      "ent y",
      "play ing",
      "ell ation",
      "const ellation",
      "dev il",
      "tw enty",
      "mir acle",
      "annihil ator",
      "f ac",
      "ur ai",
      "sag as",
      "represent s",
      "adv ance",
      "sam urai",
      "a ke",
      "ex ample",
      "land cycling",
      "my r",
      "me tal",
      "separ ates",
      "spi der",
      "d one",
      "j ure",
      "k o",
      "v ers",
      "con jure",
      "reb ound",
      "activ ating",
      "word s",
      "h ead",
      "u g",
      "w ur",
      "at ive",
      "im print",
      "search es",
      "val ues",
      "metal craft",
      "wur m",
      "de ser",
      "power stone",
      "del ve",
      "te am",
      "mag ic",
      "b ur",
      "i a",
      "m age",
      "m are",
      "cl ash",
      "ter n",
      "legend aries",
      "spe ci",
      "e tern",
      "r up",
      "ar n",
      "un attach",
      "cl u",
      "bo l",
      "f in",
      "cont ra",
      "se cre",
      "secre t",
      "c r",
      "l i",
      "r in",
      "in clu",
      "pt ion",
      "exer t",
      "a g",
      "d re",
      "l u",
      "pro v",
      "enter ing",
      "po p",
      "sn ake",
      "monst ros",
      "multi kicker",
      "redu ces",
      "spl it",
      "et s",
      "fac ed",
      "etern alize",
      "monstros ity",
      "p ack",
      "of f",
      "tr ue",
      "ph ant",
      "symbol s",
      "deser t",
      "contra ption",
      "f ul",
      "n ive",
      "st un",
      "as c",
      "be are",
      "mo dif",
      "im prov",
      "con nive",
      "phas ed",
      "hi de",
      "cor rup",
      "beare r",
      "modif ied",
      "improv ise",
      "be ar",
      "incub ator",
      "mage craft",
      "s ke",
      "w ill",
      "si st",
      "ele phant",
      "min e",
      "pir ate",
      "hero ic",
      "night mare",
      "high er",
      "incub ate",
      "w er",
      "an ces",
      "draw n",
      "mo tion",
      "ill us",
      "reg ular",
      "illus ion",
      "1 9",
      "f ri",
      "inst ances",
      "pow ers",
      "rat s",
      "pers ist",
      "fri end",
      "l l",
      "n a",
      "o o",
      "un dying",
      "vehic les",
      "redu ce",
      "hide away",
      "c il",
      "c oun",
      "e en",
      "it ch",
      "pre combat",
      "su sp",
      "dev our",
      "exer ted",
      "see k",
      "asc end",
      "coun cil",
      "1 2",
      "a im",
      "z es",
      "sc aven",
      "row th",
      "vers e",
      "c tor",
      "be tw",
      "were wolf",
      "vampire s",
      "blood thir",
      "ap on",
      "transform s",
      "we apon",
      "betw een",
      "bloodthir st",
      "k h",
      "k ith",
      "or t",
      "iv ing",
      "spir its",
      "ul ate",
      "pop ulate",
      "kith kin",
      "a k",
      "d red",
      "ar mor",
      "el se",
      "mor bid",
      "oo ze",
      "c ur",
      "d en",
      "g ate",
      "l iving",
      "treat ed",
      "d ing",
      "f ero",
      "to wer",
      "go d",
      "pa ir",
      "ci ous",
      "ali zes",
      "mod ular",
      "ha unt",
      "speci alizes",
      "bol ster",
      "scaven ge",
      "dred ge",
      "fero cious",
      "f e",
      "g rowth",
      "h our",
      "de s",
      "bo ok",
      "te en",
      "init i",
      "ger m",
      "aw n",
      "explo it",
      "comple ted",
      "follow ing",
      "dre w",
      "es h",
      "ra id",
      "block ers",
      "has n",
      "not e",
      "redu ced",
      "open ing",
      "enco re",
      "connive s",
      "initi ative",
      "k ra",
      "le ct",
      "co ven",
      "sp awn",
      "sh rin",
      "do g",
      "non combat",
      "ri ght",
      "ation s",
      "let on",
      "b ond",
      "d war",
      "h y",
      "h in",
      "k a",
      "l a",
      "th r",
      "ac y",
      "to tem",
      "ant e",
      "cl aim",
      "su pp",
      "sw itch",
      "ske leton",
      "e y",
      "m ast",
      "en ded",
      "if ter",
      "ch amp",
      "ad ing",
      "sacrific ing",
      "pro to",
      "change d",
      "esca p",
      "shi do",
      "bu shido",
      "champ ion",
      "h ell",
      "h im",
      "i x",
      "re vo",
      "with er",
      "play s",
      "un changed",
      "sh ap",
      "ri ad",
      "back up",
      "ru les",
      "con ver",
      "bo o",
      "my riad",
      "soul bond",
      "gu ess",
      "shap esh",
      "f ading",
      "p ent",
      "p age",
      "or d",
      "play ed",
      "ific ations",
      "bo ld",
      "win s",
      "sur ge",
      "let ter",
      "trans mut",
      "reb el",
      "mod ifications",
      "explo its",
      "enco ded",
      "secret ly",
      "kra ken",
      "supp ort",
      "shapesh ifter",
      "i ance",
      "k n",
      "v an",
      "le arn",
      "cont ains",
      "sh am",
      "sc ion",
      "con sist",
      "go ld",
      "su m",
      "em er",
      "du pl",
      "prow l",
      "ko bold",
      "revo lt",
      "consist s",
      "a ded",
      "s un",
      "ar ro",
      "wh ead",
      "un paired",
      "plan ar",
      "mon o",
      "od d",
      "not ed",
      "ninj a",
      "ous ly",
      "tor t",
      "transmut e",
      "arro whead",
      "f ate",
      "r an",
      "w ra",
      "re tr",
      "ro bot",
      "ve d",
      "ke y",
      "go aded",
      "evo l",
      "br ack",
      "pers on",
      "cr ank",
      "susp ended",
      "emer ge",
      "e g",
      "g ar",
      "m ark",
      "if t",
      "own s",
      "keep s",
      "wol ves",
      "squ are",
      "kh ans",
      "proto type",
      "sham an",
      "retr ace",
      "evol ve",
      "a ffect",
      "a ug",
      "b al",
      "k es",
      "r amp",
      "ac ing",
      "as k",
      "sp ect",
      "fro g",
      "non white",
      "skip s",
      "repl acing",
      "tra in",
      "sum mon",
      "brack ets",
      "aug ment",
      "d a",
      "y ear",
      "ex tort",
      "do om",
      "ig no",
      "om e",
      "even ly",
      "warrior s",
      "po st",
      "resol ved",
      "av ing",
      "ap pl",
      "ish ing",
      "corrup ted",
      "thr one",
      "igno re",
      "b ent",
      "k or",
      "l ie",
      "m ate",
      "s ick",
      "w ear",
      "de p",
      "its elf",
      "art ist",
      "~. \"",
      "ment or",
      "go at",
      "em p",
      "sk ul",
      "expl ore",
      "hell bent",
      "conver ge",
      "wra ith",
      "ramp age",
      "spect acle",
      "sick ness",
      "explore s",
      "1 5",
      "b re",
      "g as",
      "n or",
      "er ker",
      "cont in",
      "un attached",
      "con spir",
      "us ing",
      "pe gas",
      "comple ated",
      "bur st",
      "dwar f",
      "van ishing",
      "mono colored",
      "conspir acy",
      "b ers",
      "m ele",
      "s s",
      "u alty",
      "en ant",
      "ro ck",
      "de throne",
      "ra ge",
      "ad venture",
      "ut enant",
      "less on",
      "bl a",
      "untap s",
      "fl ing",
      "ph o",
      "wor ld",
      "cas ualty",
      "let ion",
      "follow ed",
      "li ke",
      "friend s",
      "hy dra",
      "summon ing",
      "appl y",
      "lie utenant",
      "dep letion",
      "pegas us",
      "mele e",
      "c le",
      "g r",
      "h is",
      "l in",
      "m ire",
      "bo ast",
      "bers erker",
      "b at",
      "f ab",
      "f ract",
      "n e",
      "ru sh",
      "ink ling",
      "soldi ers",
      "um p",
      "comp let",
      "train ing",
      "fab r",
      "fract al",
      "k i",
      "o ve",
      "at ar",
      "ab ove",
      "fl av",
      "mon k",
      "kind s",
      "av atar",
      "ful l",
      "shrin e",
      "mast ery",
      "dupl icate",
      "sun burst",
      "flav or",
      "j ump",
      "n either",
      "r hin",
      "th ru",
      "en l",
      "im e",
      "wizard s",
      "few est",
      "skul k",
      "fabr icate",
      "rhin o",
      "thru ll",
      "a ken",
      "a ther",
      "at ch",
      "en rage",
      "ic t",
      "lo ss",
      "su b",
      "food s",
      "ser pent",
      "aw aken",
      "boo ster",
      "a x",
      "c ent",
      "m eld",
      "o ta",
      "s ome",
      "} \"",
      "st u",
      "al ity",
      "ad a",
      "ic s",
      "sh ift",
      "sl ime",
      "pt ers",
      "min ota",
      "hal fling",
      "divide s",
      "clash ing",
      "inclu des",
      "escap es",
      "minota ur",
      "' \"",
      "f un",
      "i de",
      "v ow",
      "re f",
      "spell book",
      "gra ft",
      "all iance",
      "second s",
      "crew ed",
      "blood rush",
      "every thing",
      "soul shift",
      "bar gain",
      "bar gained",
      "lu ck",
      "c ry",
      "n ong",
      "o c",
      "p se",
      "p ter",
      "y cling",
      "re en",
      "or n",
      "pl ain",
      "land walk",
      "sc ycling",
      "comm on",
      "cha pter",
      "knight s",
      "coin s",
      "cor pse",
      "he al",
      "emp ty",
      "ada pt",
      "nong reen",
      "plain scycling",
      "1 4",
      "b er",
      "c al",
      "p est",
      "al ion",
      "fore ver",
      "ip le",
      "div inity",
      "mult iple",
      "stick ers",
      "separ ate",
      "inclu ding",
      "lu k",
      "fe ather",
      "affect ed",
      "' {",
      "g ri",
      "h ow",
      "er ing",
      "en s",
      "co ver",
      "fi re",
      "dra ke",
      "com e",
      "result s",
      "aff l",
      "eg g",
      "cle an",
      "g us",
      "j u",
      "m ite",
      "t ide",
      "an g",
      "end a",
      "tr ibute",
      "min ing",
      "low est",
      "br ick",
      "thir teen",
      "ho st",
      "post combat",
      "affl ict",
      "clean up",
      "h om",
      "t ers",
      "le ash",
      "un leash",
      "under growth",
      "activ ates",
      "stri ve",
      "treasure s",
      "plains walk",
      "lect ion",
      "oc top",
      "b ount",
      "g ot",
      "h aven",
      "j a",
      "m ar",
      "o x",
      "at ely",
      "st and",
      "st ay",
      "batt alion",
      "cor n",
      "enl ist",
      "fun gus",
      "bount y",
      "got cha",
      ". '\"",
      "h at",
      "h ere",
      "h aving",
      "p le",
      "r ate",
      "v ing",
      "w ish",
      "sp rock",
      "ta kes",
      "search ed",
      "look s",
      "ph er",
      "touch ing",
      "total s",
      "cre as",
      "crew s",
      "int ens",
      "team mate",
      "bla de",
      "intens ity",
      "1 1",
      "g or",
      "g ates",
      "h ar",
      "s elf",
      "v it",
      "end um",
      "add endum",
      "fro do",
      "tou r",
      "ph en",
      "us ed",
      "cyc led",
      "cat s",
      "squirrel s",
      "faer ies",
      "ey e",
      "cent aur",
      "stay s",
      "e ther",
      "h am",
      "k al",
      "l ord",
      "u ously",
      "w at",
      "y le",
      "an e",
      "co ward",
      "ro din",
      "es cal",
      "ra ven",
      "un i",
      "do ctor",
      "po int",
      "mountain cycling",
      "flip s",
      "produ ces",
      "ci pher",
      "separ ately",
      "mir rodin",
      "dog s",
      "kn ow",
      "wear s",
      "contin uously",
      "sprock ets",
      "wat er",
      "escal ate",
      "! \"",
      "a pe",
      "c na",
      "l ight",
      "s im",
      "u ses",
      "u lt",
      "v ia",
      "an i",
      "ro x",
      "rol led",
      "ve cna",
      "se ctor",
      "ta il",
      "ass in",
      "ass assin",
      "demon s",
      "bur den",
      "vow el",
      "raven ous",
      "b in",
      "c low",
      "i pped",
      "s or",
      "t act",
      "v i",
      "z ero",
      "in sp",
      "in ence",
      "in creas",
      "ing er",
      "begin s",
      "ion s",
      "ri ot",
      "fl ame",
      "em inence",
      "sur v",
      "fin ish",
      "kobold s",
      "complet ely",
      "clow n",
      "insp ired",
      "b el",
      "c en",
      "c ro",
      "c us",
      "d ire",
      "i ka",
      "k ing",
      "m atch",
      "o in",
      "r ally",
      "v ok",
      "y r",
      "y or",
      "en counter",
      "to ld",
      "and on",
      "lo ck",
      "act ive",
      "ab andon",
      "om en",
      "ru le",
      "sc re",
      "touch es",
      "si ve",
      "win d",
      "vel in",
      "min ion",
      "monst er",
      "angel s",
      "mer cen",
      "combin e",
      "he ight",
      "gam es",
      "corrup tion",
      "la ir",
      "ja velin",
      "vit ality",
      "dire ct",
      "a head",
      "c ar",
      "c arn",
      "n umb",
      "n et",
      "o b",
      "o th",
      "u ro",
      "en a",
      "le ad",
      "ro g",
      "sp ire",
      "ex p",
      "ce le",
      "long er",
      "fo ot",
      "ite m",
      "con spire",
      "no thing",
      "bo x",
      "forest cycling",
      "phas ing",
      "sl umber",
      "cha pters",
      "sk ipped",
      "let ters",
      "pir ates",
      "head s",
      "bre ath",
      "stu dy",
      "tact ics",
      "scre am",
      ") ,",
      "b or",
      "f lo",
      "h er",
      "h an",
      "k rox",
      "s il",
      "t ent",
      "z z",
      "an im",
      "le via",
      "de monst",
      "am ant",
      "ra d",
      "ad amant",
      "lo cus",
      "for ce",
      "sh ark",
      "scry ing",
      "led ge",
      "sw ord",
      "swamp cycling",
      "tri ple",
      "were wolves",
      "roll s",
      "resol ving",
      "cleric s",
      "assemb le",
      "ho pe",
      "ane ously",
      "water mark",
      "sim ult",
      "numb ers",
      "krox a",
      "tent acle",
      "levia than",
      "simult aneously",
      "[ +",
      "d ic",
      "d ile",
      "d ru",
      "h id",
      "h ol",
      "m id",
      "re min",
      "le y",
      "if y",
      "and er",
      "as sist",
      "ra g",
      "ic ke",
      "lo g",
      "act er",
      "mo th",
      "non attacking",
      "tim ing",
      "id able",
      "cl ass",
      "ph a",
      "con vok",
      "char acter",
      "vo ice",
      "form idable",
      "saproling s",
      "cyc les",
      "int er",
      "attraction s",
      "golem s",
      "assemb les",
      "which ever",
      "speci alize",
      "na ut",
      "ref lection",
      "gri m",
      "ju st",
      "octop us",
      "phen omen",
      "know ledge",
      "mercen ary",
      "cele br",
      "dru id",
      "remin der",
      "convok ed",
      "phenomen on",
      "5 0",
      "] :",
      "_ _",
      "a gue",
      "b ri",
      "f if",
      "f use",
      "g rin",
      "p ur",
      "r as",
      "r un",
      "s m",
      "t ain",
      "v ar",
      "re in",
      "at a",
      "en ix",
      "in n",
      "it er",
      "or s",
      "is s",
      "wh ether",
      "de tain",
      "ch e",
      "pl ace",
      "lo on",
      "qu e",
      "bl ink",
      "upkeep s",
      "ty ran",
      "activ ation",
      "look ed",
      "cl ues",
      "bo on",
      "fore cast",
      "fore told",
      "after life",
      "mut ated",
      "po luk",
      "ma ke",
      "hor de",
      "ans ion",
      "sy r",
      "fin al",
      "nightmare s",
      "cur s",
      "haunt ing",
      "ran os",
      "bal loon",
      "da unt",
      "pho enix",
      "ham ster",
      "kal dra",
      "tail s",
      "vowel s",
      "lead s",
      "exp ansion",
      "grim grin",
      "celebr ation",
      "rein force",
      "blink moth",
      "tyran id",
      "poluk ranos",
      "a corn",
      "b en",
      "c red",
      "c row",
      "d ar",
      "e al",
      "h it",
      "j ug",
      "j oin",
      "k y",
      "k ar",
      "l as",
      "m ig",
      "m ma",
      "p in",
      "s is",
      "t it",
      "ar m",
      "in ge",
      "le aving",
      "if fin",
      "and ra",
      "ch andra",
      "se lect",
      "ta ble",
      "ck ed",
      "un daunt",
      "ab out",
      "inst ance",
      "ri th",
      "plan e",
      "pro voke",
      "om n",
      "phyrexian s",
      "ul us",
      "av ite",
      "dev ou",
      "bid ding",
      "ger naut",
      "escap ed",
      "champion ship",
      "guess es",
      "pho ros",
      "gr iffin",
      "meld s",
      "flo od",
      "sil ver",
      "dile mma",
      "hid den",
      "pur phoros",
      "jug gernaut",
      "undaunt ed",
      "a j",
      "e us",
      "f ast",
      "f bl",
      "m ika",
      "r am",
      "re r",
      "th p",
      "ar ing",
      "le go",
      "co hor",
      "st r",
      "ro pe",
      "or tion",
      "el ve",
      "al pha",
      "pl ague",
      "ad vis",
      "ast art",
      "search ing",
      "ru bin",
      "sc roll",
      "bo ar",
      "vot ed",
      "different ly",
      "av an",
      "say s",
      "tw elve",
      "print ed",
      "bol as",
      "ag enda",
      "dre am",
      "susp ect",
      "shrin es",
      "skeleton s",
      "ey es",
      "robot s",
      "gar go",
      "complet e",
      "uni que",
      "light ning",
      "bel ow",
      "rog ues",
      "demonst rate",
      "rag avan",
      "curs ed",
      "aj ani",
      "fbl thp",
      "mika eus",
      "lego las",
      "cohor t",
      "astart es",
      ". ]",
      "f re",
      "g im",
      "j ect",
      "k ma",
      "n at",
      "p il",
      "s at",
      "s ent",
      "re ward",
      "ar id",
      "ar ag",
      "in dic",
      "il ing",
      "wi cked",
      "sp ark",
      "ex iling",
      "ic es",
      "lo z",
      "se at",
      "for ces",
      "gra kma",
      "draw ing",
      "cho ices",
      "sc out",
      "vot ing",
      "draft ed",
      "off er",
      "off ering",
      "haunt s",
      "bal an",
      "sub game",
      "stand ard",
      "increas e",
      "rad iance",
      "fif teen",
      "mig loz",
      "omn ath",
      "juggernaut s",
      "gim li",
      "pil ot",
      "sat yr",
      "arag orn",
      "grakma w",
      "a z",
      "a le",
      "b ra",
      "b all",
      "c ulus",
      "d j",
      "d r",
      "f ish",
      "g l",
      "g la",
      "i en",
      "n ation",
      "o pters",
      "s an",
      "s ig",
      "re cor",
      "re select",
      "th opters",
      "ar ix",
      "the s",
      "st age",
      "st op",
      "ro ma",
      "or i",
      "el enda",
      "your self",
      "de on",
      "de red",
      "de ter",
      "am a",
      "am pl",
      "be g",
      "sp hin",
      "put in",
      "for t",
      "un culus",
      "ong o",
      "tr act",
      "are a",
      "fo e",
      "was p",
      "mon key",
      "island cycling",
      "od ai",
      "10 0",
      "could n",
      "deck s",
      "min imum",
      "20 0",
      "me thes",
      "squ ad",
      "gi deon",
      "dinosaur s",
      "ko gla",
      "kh er",
      "cur se",
      "pent avite",
      "fate ful",
      "sub tract",
      "some thing",
      "hom unculus",
      "surv ive",
      "ras putin",
      "ky odai",
      "tit an",
      "devou red",
      "rubin ia",
      "gargo yle",
      "dj inn",
      "recor d",
      "arix methes",
      "ampl ify",
      "sphin x",
      "] .",
      "c ir",
      "g ener",
      "g rand",
      "h n",
      "h unt",
      "h ack",
      "j ace",
      "l il",
      "o gre",
      "s al",
      "v ill",
      "w r",
      "x os",
      "y a",
      "re roll",
      "re vel",
      "en n",
      "el a",
      "is ela",
      "il d",
      "ad ri",
      "one y",
      "qu ality",
      "all ies",
      "sh e",
      "non enchantment",
      "fl u",
      "ru k",
      "war lock",
      "ma kes",
      "kin ship",
      "ted dy",
      "mer ry",
      "par ley",
      "gy ru",
      "cra b",
      "quest ion",
      "giant s",
      "we ir",
      "contraption s",
      "fe et",
      "gar ruk",
      "han weir",
      "cred it",
      "inge st",
      "indic ated",
      "ongo ing",
      "\" [",
      "( ~",
      "] ,",
      "b les",
      "b orn",
      "d ue",
      "i y",
      "i od",
      "k av",
      "l age",
      "m ish",
      "m oney",
      "p i",
      "p s",
      "p ink",
      "p ortion",
      "r ison",
      "s and",
      "w en",
      "x ant",
      "re verse",
      "ar wen",
      "en g",
      "in carn",
      "in flu",
[...]
