{
  "version": "1.0",
  "truncation": null,
  "padding": null,
  "added_tokens": [
    {
      "id": 0,
      "content": "[UNK]",
      "single_word": false,
      "lstrip": false,
      "rstrip": false,
      "normalized": false,
      "special": true
    },
    {
      "id": 1,
      "content": "[CLS]",
      "single_word": false,
      "lstrip": false,
      "rstrip": false,
      "normalized": false,
      "special": true
    },
    {
      "id": 2,
      "content": "[SEP]",
      "single_word": false,
      "lstrip": false,
      "rstrip": false,
      "normalized": false,
      "special": true
    },
    {
      "id": 3,
      "content": "[PAD]",
      "single_word": false,
      "lstrip": false,
      "rstrip": false,
      "normalized": false,
      "special": true
    },
    {
      "id": 4,
      "content": "{U}",
      "single_word": false,
      "lstrip": false,
      "rstrip": false,
      "normalized": false,
      "special": true
    },
    {
      "id": 5,
      "content": "{W}",
      "single_word": false,
      "lstrip": false,
      "rstrip": false,
      "normalized": false,
      "special": true
    },
    {
      "id": 6,
      "content": "{R}",
      "single_word": false,
      "lstrip": false,
      "rstrip": false,
      "normalized": false,
      "special": true
    },
    {
      "id": 7,
      "content": "{B}",
      "single_word": false,
      "lstrip": false,
      "rstrip": false,
      "normalized": false,
      "special": true
    },
    {
      "id": 8,
      "content": "{G}",
      "single_word": false,
      "lstrip": false,
      "rstrip": false,
      "normalized": false,
      "special": true
    },
    {
      "id": 9,
      "content": "{T}",
      "single_word": false,
      "lstrip": false,
      "rstrip": false,
      "normalized": false,
      "special": true
    },
    {
      "id": 10,
      "content": "{X}",
      "single_word": false,
      "lstrip": false,
      "rstrip": false,
      "normalized": false,
      "special": true
    }
  ],
  "normalizer": null,
  "pre_tokenizer": {
    "type": "Whitespace"
  },
  "post_processor": null,
  "decoder": null,
  "model": {
    "type": "BPE",
    "dropout": null,
    "unk_token": "[UNK]",
    "continuing_subword_prefix": null,
    "end_of_word_suffix": null,
    "fuse_unk": false,
    "byte_fallback": false,
    "vocab": {
      "[UNK]": 0,
      "[CLS]": 1,
      "[SEP]": 2,
      "[PAD]": 3,
      "{U}": 4,
      "{W}": 5,
      "{R}": 6,
      "{B}": 7,
      "{G}": 8,
      "{T}": 9,
      "{X}": 10,
      "!": 11,
      "\"": 12,
      "#": 13,
      "$": 14,
      "%": 15,
      "&": 16,
      "'": 17,
      "(": 18,
      ")": 19,
      "+": 20,
      ",": 21,
      "-": 22,
      ".": 23,
      "/": 24,
      "0": 25,
      "1": 26,
      "2": 27,
      "3": 28,
      "4": 29,
      "5": 30,
      "6": 31,
      "7": 32,
      "8": 33,
      "9": 34,
      ":": 35,
      ";": 36,
      "?": 37,
      "A": 38,
      "B": 39,
      "C": 40,
      "D": 41,
      "E": 42,
      "F": 43,
      "G": 44,
      "H": 45,
      "I": 46,
      "J": 47,
      "K": 48,
      "L": 49,
      "M": 50,
      "N": 51,
      "O": 52,
      "P": 53,
      "Q": 54,
      "R": 55,
      "S": 56,
      "T": 57,
      "U": 58,
      "V": 59,
      "W": 60,
      "X": 61,
      "Y": 62,
      "Z": 63,
      "[": 64,
      "]": 65,
      "_": 66,
      "a": 67,
      "b": 68,
      "c": 69,
      "d": 70,
      "e": 71,
      "f": 72,
      "g": 73,
      "h": 74,
      "i": 75,
      "j": 76,
      "k": 77,
      "l": 78,
      "m": 79,
      "n": 80,
      "o": 81,
      "p": 82,
      "q": 83,
      "r": 84,
      "s": 85,
      "t": 86,
      "u": 87,
      "v": 88,
      "w": 89,
      "x": 90,
      "y": 91,
      "z": 92,
      "{": 93,
      "|": 94,
      "}": 95,
      "~": 96,
      "—": 97,
      "re": 98,
      "th": 99,
      "at": 100,
      "ou": 101,
      "nt": 102,
      "er": 103,
      "ar": 104,
      "an": 105,
      "you": 106,
      "en": 107,
      "reat": 108,
      "creat": 109,
      "in": 110,
      "the": 111,
      "ure": 112,
      "creature": 113,
      "le": 114,
      "ge": 115,
      "ard": 116,
      "on": 117,
      "co": 118,
      "ac": 119,
      "st": 120,
      "ro": 121,
      "to": 122,
      "or": 123,
      "card": 124,
      "it": 125,
      "and": 126,
      "el": 127,
      "is": 128,
      "of": 129,
      "get": 130,
      "ay": 131,
      "al": 132,
      "ent": 133,
      "fi": 134,
      "att": 135,
      "your": 136,
      "hen": 137,
      "ing": 138,
      "arget": 139,
      "rol": 140,
      "ur": 141,
      "cont": 142,
      "control": 143,
      "When": 144,
      "if": 145,
      "urn": 146,
      "am": 147,
      "turn": 148,
      "target": 149,
      "eld": 150,
      "attle": 151,
      "battle": 152,
      "ve": 153,
      "field": 154,
      "battlefield": 155,
      "ers": 156,
      "ed": 157,
      "as": 158,
      "es": 159,
      "ra": 160,
      "this": 161,
      "ch": 162,
      "}:": 163,
      ".)": 164,
      "de": 165,
      "il": 166,
      "pl": 167,
      "ast": 168,
      "ach": 169,
      "that": 170,
      "be": 171,
      "ith": 172,
      "ut": 173,
      "man": 174,
      "end": 175,
      "with": 176,
      "enters": 177,
      "ount": 178,
      "pp": 179,
      "ev": 180,
      "}{": 181,
      "sp": 182,
      "ly": 183,
      "play": 184,
      "/+": 185,
      "may": 186,
      "ce": 187,
      "dd": 188,
      "ell": 189,
      "age": 190,
      "ever": 191,
      "rom": 192,
      "from": 193,
      "spell": 194,
      "Whenever": 195,
      "amage": 196,
      "unt": 197,
      "ri": 198,
      "count": 199,
      "cast": 200,
      "damage": 201,
      "player": 202,
      "cards": 203,
      "ex": 204,
      "deal": 205,
      "each": 206,
      "},": 207,
      "ack": 208,
      "os": 209,
      "ain": 210,
      "put": 211,
      "mb": 212,
      "for": 213,
      "Add": 214,
      "bl": 215,
      "ib": 216,
      "ant": 217,
      "lying": 218,
      "ary": 219,
      "land": 220,
      "ow": 221,
      "until": 222,
      "ile": 223,
      "hand": 224,
      "You": 225,
      "nto": 226,
      "act": 227,
      "lib": 228,
      "libr": 229,
      "library": 230,
      "creatures": 231,
      "its": 232,
      "lif": 233,
      "rave": 234,
      "yard": 235,
      "raveyard": 236,
      "graveyard": 237,
      "can": 238,
      "gain": 239,
      "raw": 240,
      "ken": 241,
      "deals": 242,
      "rifi": 243,
      "acrifi": 244,
      "art": 245,
      "If": 246,
      "mana": 247,
      "life": 248,
      "token": 249,
      "Th": 250,
      "ther": 251,
      "ck": 252,
      "chant": 253,
      "any": 254,
      "ifact": 255,
      "ose": 256,
      "counter": 257,
      "onent": 258,
      "pponent": 259,
      "opponent": 260,
      "artifact": 261,
      "acrifice": 262,
      "}.": 263,
      "attack": 264,
      "one": 265,
      "ep": 266,
      "qu": 267,
      "pped": 268,
      "up": 269,
      "gets": 270,
      "les": 271,
      "tw": 272,
      "mo": 273,
      "ke": 274,
      "cost": 275,
      "Flying": 276,
      "two": 277,
      "ta": 278,
      "less": 279,
      "ock": 280,
      "other": 281,
      "block": 282,
      "un": 283,
      "gin": 284,
      "exile": 285,
      "begin": 286,
      "ning": 287,
      "then": 288,
      "beginning": 289,
      "ir": 290,
      "per": 291,
      "into": 292,
      "ti": 293,
      "manent": 294,
      "permanent": 295,
      "draw": 296,
      "At": 297,
      "({": 298,
      "wh": 299,
      "ha": 300,
      "pay": 301,
      "stro": 302,
      "own": 303,
      "stroy": 304,
      "ies": 305,
      "all": 306,
      "Sacrifice": 307,
      "tapped": 308,
      "has": 309,
      "Re": 310,
      "ap": 311,
      "top": 312,
      "This": 313,
      "col": 314,
      "der": 315,
      "comb": 316,
      "oose": 317,
      "umb": 318,
      "umber": 319,
      "number": 320,
      "Target": 321,
      "ong": 322,
      "counters": 323,
      "combat": 324,
      "color": 325,
      "De": 326,
      "En": 327,
      "Creat": 328,
      "Enchant": 329,
      "ab": 330,
      "com": 331,
      "do": 332,
      "ate": 333,
      "ue": 334,
      "amp": 335,
      "equ": 336,
      "create": 337,
      "more": 338,
      "ff": 339,
      "have": 340,
      "ower": 341,
      "sh": 342,
      "~.": 343,
      "inst": 344,
      "ld": 345,
      "power": 346,
      "onto": 347,
      "non": 348,
      "Put": 349,
      "flying": 350,
      "gains": 351,
      "It": 352,
      "their": 353,
      "iscard": 354,
      "}.)": 355,
      "enchant": 356,
      "ere": 357,
      "keep": 358,
      "upkeep": 359,
      "ear": 360,
      "step": 361,
      "equal": 362,
      "ion": 363,
      "gh": 364,
      "blocked": 365,
      "reve": 366,
      "ext": 367,
      "Draw": 368,
      "only": 369,
      "ilit": 370,
      "abilit": 371,
      "uff": 372,
      "add": 373,
      "ad": 374,
      "shuff": 375,
      "ment": 376,
      "under": 377,
      "Destroy": 378,
      "Ex": 379,
      "attacks": 380,
      "ree": 381,
      "aste": 382,
      "owner": 383,
      "next": 384,
      "ery": 385,
      "As": 386,
      "three": 387,
      "sor": 388,
      "~:": 389,
      "sorc": 390,
      "sorcery": 391,
      "alk": 392,
      "controls": 393,
      "ould": 394,
      "becom": 395,
      "ample": 396,
      "walk": 397,
      "return": 398,
      "Exile": 399,
      "earch": 400,
      "by": 401,
      "ic": 402,
      "rample": 403,
      "reveal": 404,
      "another": 405,
      "ty": 406,
      "qui": 407,
      "shuffle": 408,
      "Equi": 409,
      "tou": 410,
      "Create": 411,
      "choose": 412,
      "Return": 413,
      "val": 414,
      "ot": 415,
      "dies": 416,
      "long": 417,
      "are": 418,
      "becomes": 419,
      ".\"": 420,
      "ess": 421,
      "would": 422,
      "value": 423,
      "cti": 424,
      "ame": 425,
      "ition": 426,
      "cop": 427,
      "addition": 428,
      "them": 429,
      "ler": 430,
      "sacrifice": 431,
      "typ": 432,
      "plan": 433,
      "ash": 434,
      "Ch": 435,
      "me": 436,
      "ace": 437,
      "untap": 438,
      "eswalk": 439,
      "black": 440,
      "haste": 441,
      "Each": 442,
      "stri": 443,
      "planeswalk": 444,
      "oo": 445,
      "red": 446,
      "ite": 447,
      "ig": 448,
      "controller": 449,
      "where": 450,
      "lash": 451,
      "rest": 452,
      "strike": 453,
      "ead": 454,
      "move": 455,
      "copy": 456,
      "vate": 457,
      "out": 458,
      "than": 459,
      "reen": 460,
      "enchantment": 461,
      "white": 462,
      "way": 463,
      "dealt": 464,
      "spells": 465,
      "ct": 466,
      "green": 467,
      "our": 468,
      "bas": 469,
      "oses": 470,
      "tokens": 471,
      "The": 472,
      "Choose": 473,
      "ance": 474,
      "instead": 475,
      "time": 476,
      "ness": 477,
      "unless": 478,
      "planeswalker": 479,
      "discard": 480,
      "/-": 481,
      "among": 482,
      "Enchanted": 483,
      "destroy": 484,
      "igil": 485,
      "igilance": 486,
      "Unt": 487,
      "pt": 488,
      "Equip": 489,
      "fend": 490,
      "additional": 491,
      "instant": 492,
      "they": 493,
      "Discard": 494,
      "id": 495,
      "attacking": 496,
      "lands": 497,
      "om": 498,
      "Search": 499,
      "uring": 500,
      "rst": 501,
      "first": 502,
      "abilities": 503,
      "nonland": 504,
      "without": 505,
      "loses": 506,
      "ook": 507,
      "bot": 508,
      "Creature": 509,
      "trample": 510,
      "ghness": 511,
      "toughness": 512,
      "ability": 513,
      "tom": 514,
      "bottom": 515,
      "basic": 516,
      "during": 517,
      "Acti": 518,
      "Then": 519,
      "ill": 520,
      "pro": 521,
      "those": 522,
      "Activate": 523,
      "cept": 524,
      "type": 525,
      "except": 526,
      "don": 527,
      "Creatures": 528,
      "face": 529,
      "exiled": 530,
      "Flash": 531,
      "Sp": 532,
      "iv": 533,
      "us": 534,
      "enchanted": 535,
      "str": 536,
      "costs": 537,
      "permanents": 538,
      "ie": 539,
      "acrific": 540,
      "sacrific": 541,
      "was": 542,
      "order": 543,
      "ol": 544,
      "four": 545,
      "ener": 546,
      "ink": 547,
      "osen": 548,
      "chosen": 549,
      "remove": 550,
      "back": 551,
      "cho": 552,
      "elink": 553,
      "tap": 554,
      "vent": 555,
      "paying": 556,
      "ick": 557,
      "defend": 558,
      "Trample": 559,
      "lose": 560,
      "\"{": 561,
      "opponents": 562,
      "ice": 563,
      "te": 564,
      "ated": 565,
      "uct": 566,
      "struct": 567,
      "rand": 568,
      "Other": 569,
      "great": 570,
      "random": 571,
      "gener": 572,
      "ath": 573,
      "cl": 574,
      "vigilance": 575,
      "dis": 576,
      "discards": 577,
      "ore": 578,
      "revent": 579,
      "touch": 580,
      "mu": 581,
      "se": 582,
      "cr": 583,
      "search": 584,
      "blue": 585,
      "ves": 586,
      "ible": 587,
      "destruct": 588,
      "destructible": 589,
      "athtouch": 590,
      "omb": 591,
      "ft": 592,
      "cry": 593,
      "Count": 594,
      "no": 595,
      "Zomb": 596,
      "does": 597,
      "Tap": 598,
      "Counter": 599,
      "mand": 600,
      "Until": 601,
      "An": 602,
      "defending": 603,
      "game": 604,
      "colorless": 605,
      "targets": 606,
      "lea": 607,
      "attach": 608,
      "lifelink": 609,
      "gend": 610,
      "Equipped": 611,
      "si": 612,
      "greater": 613,
      "They": 614,
      "led": 615,
      "command": 616,
      "types": 617,
      "Pl": 618,
      "Go": 619,
      "legend": 620,
      "ction": 621,
      "down": 622,
      "artifacts": 623,
      "ains": 624,
      "Look": 625,
      "many": 626,
      "tal": 627,
      "doesn": 628,
      "res": 629,
      "sacrifices": 630,
      "ycl": 631,
      "indestructible": 632,
      "ycling": 633,
      "~,": 634,
      "Remove": 635,
      "enace": 636,
      "tection": 637,
      "orest": 638,
      "ght": 639,
      "~'": 640,
      "Zombie": 641,
      "mill": 642,
      "legendary": 643,
      "ble": 644,
      "draws": 645,
      "II": 646,
      "name": 647,
      "In": 648,
      "That": 649,
      "Untap": 650,
      "ouble": 651,
      "total": 652,
      "able": 653,
      "Sw": 654,
      "pays": 655,
      "Forest": 656,
      "five": 657,
      "look": 658,
      "ip": 659,
      "rou": 660,
      "apped": 661,
      "ll": 662,
      "phas": 663,
      "flash": 664,
      "ough": 665,
      "untapped": 666,
      "Swamp": 667,
      "ew": 668,
      "nam": 669,
      "Ar": 670,
      "Dra": 671,
      "old": 672,
      "even": 673,
      "fter": 674,
      "Is": 675,
      "ph": 676,
      "Hu": 677,
      "For": 678,
      "ect": 679,
      "noncreature": 680,
      "Human": 681,
      "there": 682,
      "Att": 683,
      "Haste": 684,
      "lo": 685,
      "est": 686,
      "so": 687,
      "Vigilance": 688,
      "con": 689,
      "vo": 690,
      "acti": 691,
      "leaves": 692,
      "pa": 693,
      "had": 694,
      "choice": 695,
      "irst": 696,
      "ca": 697,
      "reach": 698,
      "activate": 699,
      "gon": 700,
      "mon": 701,
      "fore": 702,
      "reas": 703,
      "Dragon": 704,
      "Cycling": 705,
      "blocking": 706,
      "reasure": 707,
      ".\")": 708,
      "icker": 709,
      "Treasure": 710,
      "sour": 711,
      "ontoken": 712,
      "named": 713,
      "Spir": 714,
      "First": 715,
      "scry": 716,
      "nontoken": 717,
      "All": 718,
      "seven": 719,
      "orph": 720,
      "blin": 721,
      "Goblin": 722,
      "Prevent": 723,
      "after": 724,
      "deathtouch": 725,
      "attached": 726,
      "though": 727,
      "casts": 728,
      "generate": 729,
      "double": 730,
      "Defend": 731,
      "Defender": 732,
      "isn": 733,
      "Aur": 734,
      "tri": 735,
      "Spirit": 736,
      "Regenerate": 737,
      "Pay": 738,
      "expro": 739,
      "activ": 740,
      "exproof": 741,
      "char": 742,
      "TK": 743,
      "bo": 744,
      "Island": 745,
      "spent": 746,
      "regener": 747,
      "flashback": 748,
      "source": 749,
      "ipped": 750,
      "charge": 751,
      "regenerated": 752,
      "last": 753,
      "aled": 754,
      "ffect": 755,
      "ered": 756,
      "protection": 757,
      "ange": 758,
      "Equipment": 759,
      "much": 760,
      "Mount": 761,
      "commander": 762,
      "revealed": 763,
      "ight": 764,
      "nd": 765,
      "equipped": 766,
      "still": 767,
      "War": 768,
      "ul": 769,
      "su": 770,
      "ood": 771,
      "both": 772,
      "once": 773,
      "not": 774,
      "phase": 775,
      "El": 776,
      "same": 777,
      "xi": 778,
      "Pro": 779,
      "prevent": 780,
      "trig": 781,
      "before": 782,
      "rior": 783,
      "Warrior": 784,
      "ity": 785,
      "players": 786,
      "paid": 787,
      "new": 788,
      "reveals": 789,
      "amount": 790,
      "icked": 791,
      "Sold": 792,
      "mills": 793,
      "Soldi": 794,
      "effect": 795,
      "kicked": 796,
      "lem": 797,
      "Flashback": 798,
      "fl": 799,
      "blocks": 800,
      "plus": 801,
      "Ele": 802,
      "activated": 803,
      "enter": 804,
      "Soldier": 805,
      "Reach": 806,
      "ner": 807,
      "base": 808,
      "Deathtouch": 809,
      "ze": 810,
      "artner": 811,
      "Your": 812,
      "win": 813,
      "Aura": 814,
      "hexproof": 815,
      "caus": 816,
      "po": 817,
      "also": 818,
      "Plains": 819,
      "sacrificed": 820,
      "Land": 821,
      "spend": 822,
      "tion": 823,
      "10": 824,
      "menace": 825,
      "Menace": 826,
      "Con": 827,
      "veal": 828,
      "Reveal": 829,
      "mental": 830,
      "Elemental": 831,
      "Mountain": 832,
      "Its": 833,
      "ag": 834,
      "ver": 835,
      "mut": 836,
      "iff": 837,
      "could": 838,
      "rem": 839,
      "Sl": 840,
      "shuffles": 841,
      "diff": 842,
      "hi": 843,
      "puts": 844,
      "differe": 845,
      "di": 846,
      "Scry": 847,
      "ise": 848,
      "round": 849,
      "countered": 850,
      "band": 851,
      "Attach": 852,
      "six": 853,
      "alty": 854,
      "rather": 855,
      "sha": 856,
      "Sliv": 857,
      "were": 858,
      "Kicker": 859,
      "div": 860,
      "cond": 861,
      "ive": 862,
      "second": 863,
      "Elf": 864,
      "iz": 865,
      "colors": 866,
      "op": 867,
      "Ph": 868,
      "trigg": 869,
      "ass": 870,
      "emb": 871,
      "graveyards": 872,
      "Bl": 873,
      "Turn": 874,
      "Any": 875,
      "Sh": 876,
      "fall": 877,
      "form": 878,
      "become": 879,
      "ided": 880,
      "emblem": 881,
      "yalty": 882,
      "ison": 883,
      "adness": 884,
      "my": 885,
      "while": 886,
      "Landfall": 887,
      "Un": 888,
      "die": 889,
      "chooses": 890,
      "change": 891,
      "creates": 892,
      "loyalty": 893,
      "ation": 894,
      "poison": 895,
      "deck": 896,
      "yre": 897,
      "Phyre": 898,
      "Phyrexi": 899,
      "pile": 900,
      "Phyrexian": 901,
      "destroyed": 902,
      "tim": 903,
      "ous": 904,
      "times": 905,
      "night": 906,
      "III": 907,
      "cess": 908,
      "when": 909,
      "who": 910,
      "Ve": 911,
      "Play": 912,
      "fol": 913,
      "wise": 914,
      "Ro": 915,
      "flip": 916,
      "Spend": 917,
      "attacked": 918,
      "kin": 919,
      "Damage": 920,
      "roll": 921,
      "Otherwise": 922,
      "Army": 923,
      "start": 924,
      "voke": 925,
      "—{": 926,
      "planeswalkers": 927,
      "different": 928,
      "rew": 929,
      "ire": 930,
      "ither": 931,
      "hic": 932,
      "Lif": 933,
      "Vehic": 934,
      "Protection": 935,
      "causes": 936,
      "anywhere": 937,
      "To": 938,
      "twice": 939,
      "removed": 940,
      "Food": 941,
      "Sap": 942,
      "roling": 943,
      "Saproling": 944,
      "owners": 945,
      "et": 946,
      "least": 947,
      "enchantments": 948,
      "Lifelink": 949,
      "Vamp": 950,
      "Sliver": 951,
      "morph": 952,
      "ird": 953,
      "Players": 954,
      "Partner": 955,
      "either": 956,
      "ten": 957,
      "ates": 958,
      "20": 959,
      "Be": 960,
      "Gain": 961,
      "exiles": 962,
      "vot": 963,
      "leave": 964,
      "roud": 965,
      "Sag": 966,
      "Wall": 967,
      "mul": 968,
      "kind": 969,
      "nonblack": 970,
      "ward": 971,
      "triggers": 972,
      "ma": 973,
      "Ange": 974,
      "banding": 975,
      "Angel": 976,
      "Morph": 977,
      "Spell": 978,
      "earth": 979,
      "mutate": 980,
      "hands": 981,
      "Ring": 982,
      "stor": 983,
      "Or": 984,
      "devo": 985,
      "fight": 986,
      "remains": 987,
      "cy": 988,
      "copies": 989,
      "Dev": 990,
      "Vehicle": 991,
      "ans": 992,
      "devotion": 993,
      "du": 994,
      "folk": 995,
      "ist": 996,
      "cha": 997,
      "now": 998,
      "resol": 999,
      "Orc": 1000,
      "casting": 1001,
      "izard": 1002,
      "cyc": 1003,
      "greatest": 1004,
      "Unearth": 1005,
      "side": 1006,
      "size": 1007,
      "im": 1008,
      "defender": 1009,
      "ces": 1010,
      "arch": 1011,
      "being": 1012,
      "ted": 1013,
      "Beast": 1014,
      "Vampire": 1015,
      "did": 1016,
      "divided": 1017,
      "Wizard": 1018,
      "commanders": 1019,
      "alf": 1020,
      "main": 1021,
      "elp": 1022,
      "steps": 1023,
      "monarch": 1024,
      "didn": 1025,
      "but": 1026,
      "help": 1027,
      "half": 1028,
      "olf": 1029,
      "hadow": 1030,
      "raft": 1031,
      "Spells": 1032,
      "Knight": 1033,
      "controlled": 1034,
      "Art": 1035,
      "Cast": 1036,
      "rounded": 1037,
      "Cl": 1038,
      "Artifact": 1039,
      "ter": 1040,
      "outside": 1041,
      "starting": 1042,
      "excess": 1043,
      "Indestructible": 1044,
      "over": 1045,
      "ord": 1046,
      "few": 1047,
      "Double": 1048,
      "mpt": 1049,
      "ult": 1050,
      "rep": 1051,
      "died": 1052,
      "Ra": 1053,
      "ling": 1054,
      "Com": 1055,
      "snow": 1056,
      "chaos": 1057,
      "ign": 1058,
      "turned": 1059,
      "Change": 1060,
      "discarded": 1061,
      "result": 1062,
      "cycling": 1063,
      "Wh": 1064,
      "tempt": 1065,
      "fights": 1066,
      "ple": 1067,
      "produ": 1068,
      "cycle": 1069,
      "oil": 1070,
      "um": 1071,
      "tor": 1072,
      "Back": 1073,
      "ine": 1074,
      "shares": 1075,
      "thing": 1076,
      "mum": 1077,
      "ract": 1078,
      "nonartifact": 1079,
      "Zombies": 1080,
      "Saga": 1081,
      "lore": 1082,
      "lost": 1083,
      "coin": 1084,
      "high": 1085,
      "tempts": 1086,
      "Blood": 1087,
      "ensu": 1088,
      "Rog": 1089,
      "ensues": 1090,
      "Cat": 1091,
      "Mer": 1092,
      "erate": 1093,
      "monstr": 1094,
      "tell": 1095,
      "rolif": 1096,
      "roliferate": 1097,
      "ative": 1098,
      "madness": 1099,
      "partner": 1100,
      "turns": 1101,
      "every": 1102,
      "say": 1103,
      "ximum": 1104,
      "maximum": 1105,
      "resolves": 1106,
      "Attack": 1107,
      "effects": 1108,
      "share": 1109,
      "tr": 1110,
      "fewer": 1111,
      "Attacking": 1112,
      "cade": 1113,
      "word": 1114,
      "ascade": 1115,
      "Inst": 1116,
      "ally": 1117,
      "shroud": 1118,
      "ored": 1119,
      "text": 1120,
      "Rogue": 1121,
      "Cop": 1122,
      "Lev": 1123,
      "Su": 1124,
      "Crew": 1125,
      "inj": 1126,
      "alone": 1127,
      "Cler": 1128,
      "Cleric": 1129,
      "zone": 1130,
      "phases": 1131,
      "monstrous": 1132,
      "Wolf": 1133,
      "colored": 1134,
      "Copy": 1135,
      "cap": 1136,
      "nce": 1137,
      "ru": 1138,
      "aren": 1139,
      "ide": 1140,
      "pan": 1141,
      "panion": 1142,
      "decl": 1143,
      "Convoke": 1144,
      "ake": 1145,
      "Madness": 1146,
      "extra": 1147,
      "assign": 1148,
      "vest": 1149,
      "Those": 1150,
      "ven": 1151,
      "redu": 1152,
      "Bird": 1153,
      "ground": 1154,
      "Background": 1155,
      "Merfolk": 1156,
      "During": 1157,
      "read": 1158,
      "votes": 1159,
      "Level": 1160,
      "Del": 1161,
      "min": 1162,
      "ond": 1163,
      "alread": 1164,
      "Suspend": 1165,
      "declare": 1166,
      "already": 1167,
      "vestig": 1168,
      "sticker": 1169,
      "entered": 1170,
      "been": 1171,
      "}.\"": 1172,
      "ident": 1173,
      "most": 1174,
      "comes": 1175,
      "identity": 1176,
      "ship": 1177,
      "St": 1178,
      "ator": 1179,
      "pet": 1180,
      "Clue": 1181,
      "Ninj": 1182,
      "ank": 1183,
      "gained": 1184,
      "Non": 1185,
      "shadow": 1186,
      "ero": 1187,
      "gered": 1188,
      "triggered": 1189,
      "cause": 1190,
      "petu": 1191,
      "unblocked": 1192,
      "Islands": 1193,
      "Hor": 1194,
      "Rat": 1195,
      "Up": 1196,
      "Co": 1197,
      "xic": 1198,
      "aries": 1199,
      "raction": 1200,
      "vestigate": 1201,
      "Do": 1202,
      "opt": 1203,
      "za": 1204,
      "Demon": 1205,
      "petually": 1206,
      "ub": 1207,
      "Thopt": 1208,
      ").": 1209,
      "Band": 1210,
      "geon": 1211,
      "ungeon": 1212,
      "perpetually": 1213,
      "give": 1214,
      "ired": 1215,
      "room": 1216,
      "targeted": 1217,
      "resent": 1218,
      "dungeon": 1219,
      "fin": 1220,
      "ince": 1221,
      "Me": 1222,
      "Man": 1223,
      "shi": 1224,
      "sect": 1225,
      "Insect": 1226,
      "Attraction": 1227,
      "ely": 1228,
      "nonbasic": 1229,
      "since": 1230,
      "oll": 1231,
      "Golem": 1232,
      "Auras": 1233,
      "zi": 1234,
      "represent": 1235,
      "Fl": 1236,
      "Squ": 1237,
      "Ur": 1238,
      "Arcan": 1239,
      "remain": 1240,
      "Im": 1241,
      "part": 1242,
      "lesser": 1243,
      "Urza": 1244,
      "enough": 1245,
      "Prow": 1246,
      "urve": 1247,
      "open": 1248,
      "urveil": 1249,
      "Ser": 1250,
      "adds": 1251,
      "load": 1252,
      "storic": 1253,
      "Hexproof": 1254,
      "Mill": 1255,
      "ni": 1256,
      "isit": 1257,
      "Rather": 1258,
      "utsu": 1259,
      "historic": 1260,
      "Thopter": 1261,
      "Arcane": 1262,
      "resh": 1263,
      "anything": 1264,
      "Eld": 1265,
      "razi": 1266,
      "returns": 1267,
      "Eldrazi": 1268,
      "Ward": 1269,
      "came": 1270,
      "tied": 1271,
      "uffle": 1272,
      "soon": 1273,
      "Mountains": 1274,
      "prevented": 1275,
      "Shuffle": 1276,
      "pri": 1277,
      "vel": 1278,
      "reshold": 1279,
      "gy": 1280,
      "oid": 1281,
      "Changeling": 1282,
      "go": 1283,
      "irre": 1284,
      "aur": 1285,
      "ced": 1286,
      "sing": 1287,
      "Threshold": 1288,
      "party": 1289,
      "Mut": 1290,
      "energy": 1291,
      "piles": 1292,
      "Squirre": 1293,
      "Mon": 1294,
      "craft": 1295,
      "ence": 1296,
      "ster": 1297,
      "Artifacts": 1298,
      "ren": 1299,
      "Devoid": 1300,
      "umul": 1301,
      "acle": 1302,
      "paired": 1303,
      "cape": 1304,
      "Squirrel": 1305,
      "kip": 1306,
      "ert": 1307,
      "bute": 1308,
      "umulative": 1309,
      "Fa": 1310,
      "day": 1311,
      "ker": 1312,
      "Dragons": 1313,
      "multi": 1314,
      "Faer": 1315,
      "sy": 1316,
      "ansform": 1317,
      "Wor": 1318,
      "sided": 1319,
      "yr": 1320,
      "combin": 1321,
      "Mutate": 1322,
      "Al": 1323,
      "Dom": 1324,
      "Roll": 1325,
      "manship": 1326,
      "semanship": 1327,
      "While": 1328,
      "single": 1329,
      "ade": 1330,
      "ci": 1331,
      "echo": 1332,
      "proliferate": 1333,
      "Tr": 1334,
      "stack": 1335,
      "ish": 1336,
      "plic": 1337,
      "Prowess": 1338,
      "cub": 1339,
      "exact": 1340,
      "epar": 1341,
      "Bu": 1342,
      "attackers": 1343,
      "exactly": 1344,
      "eight": 1345,
      "kicker": 1346,
      "Visit": 1347,
      "gam": 1348,
      "inity": 1349,
      "semb": 1350,
      "Construct": 1351,
      "Power": 1352,
      "eat": 1353,
      "Cumulative": 1354,
      "combination": 1355,
      "Domain": 1356,
      "Cascade": 1357,
      "Evoke": 1358,
      "yond": 1359,
      "Swamps": 1360,
      "Ent": 1361,
      "Forests": 1362,
      "Echo": 1363,
      "hor": 1364,
      "oke": 1365,
      "oul": 1366,
      "let": 1367,
      "beyond": 1368,
      "produce": 1369,
      "int": 1370,
      "Goblins": 1371,
      "trigger": 1372,
      "highest": 1373,
      "After": 1374,
      "d20": 1375,
      "low": 1376,
      "ting": 1377,
      "third": 1378,
      "ound": 1379,
      "investigate": 1380,
      "attacker": 1381,
      "Elves": 1382,
      "mbol": 1383,
      "Ninjutsu": 1384,
      "Mana": 1385,
      "city": 1386,
      "fect": 1387,
      "anking": 1388,
      "symbol": 1389,
      "lessing": 1390,
      "process": 1391,
      "Orcs": 1392,
      "plicate": 1393,
      "Aff": 1394,
      "grou": 1395,
      "separ": 1396,
      "ular": 1397,
      "mutates": 1398,
      "group": 1399,
      "putting": 1400,
      "storage": 1401,
      "blessing": 1402,
      "ues": 1403,
      "})": 1404,
      "ifest": 1405,
      "owned": 1406,
      "Theme": 1407,
      "Ally": 1408,
      "venture": 1409,
      "Swampwalk": 1410,
      "Instead": 1411,
      "declared": 1412,
      "Bands": 1413,
      "Fore": 1414,
      "landwalk": 1415,
      "Reb": 1416,
      "Another": 1417,
      "foretell": 1418,
      "difi": 1419,
      "Mo": 1420,
      "Spl": 1421,
      "em": 1422,
      "vated": 1423,
      "Activated": 1424,
      "Plant": 1425,
      "Faerie": 1426,
      "ater": 1427,
      "created": 1428,
      "Slivers": 1429,
      "iri": 1430,
      "level": 1431,
      "amass": 1432,
      "Ad": 1433,
      "Din": 1434,
      "osaur": 1435,
      "stribute": 1436,
      "multicolored": 1437,
      "Dinosaur": 1438,
      "LE": 1439,
      "VE": 1440,
      "che": 1441,
      "evoke": 1442,
      "must": 1443,
      "Deliri": 1444,
      "Delirium": 1445,
      "shield": 1446,
      "Gi": 1447,
      "Take": 1448,
      "defin": 1449,
      "quest": 1450,
      "lasts": 1451,
      "Start": 1452,
      "Fear": 1453,
      "Stor": 1454,
      "again": 1455,
      "gure": 1456,
      "figure": 1457,
      "use": 1458,
      "difference": 1459,
      "renowned": 1460,
      "plo": 1461,
      "wine": 1462,
      "Giant": 1463,
      "indefin": 1464,
      "itely": 1465,
      "exist": 1466,
      "gamorph": 1467,
      "Storm": 1468,
      "indefinitely": 1469,
      "13": 1470,
      "mil": 1471,
      "cor": 1472,
      "dec": 1473,
      "Recon": 1474,
      "names": 1475,
      "suspend": 1476,
      "assigns": 1477,
      "LEVE": 1478,
      "Reconfigure": 1479,
      "LEVEL": 1480,
      "divide": 1481,
      "Command": 1482,
      "ai": 1483,
      "ud": 1484,
      "modifi": 1485,
      "Per": 1486,
      "skip": 1487,
      "left": 1488,
      "milled": 1489,
      "fade": 1490,
      "companion": 1491,
      "av": 1492,
      "eg": 1493,
      "toxic": 1494,
      "peri": 1495,
      "dice": 1496,
      "experi": 1497,
      "print": 1498,
      "Foretell": 1499,
      "experience": 1500,
      "row": 1501,
      "alted": 1502,
      "whenever": 1503,
      ",\"": 1504,
      "Pir": 1505,
      "ann": 1506,
      "Assemb": 1507,
      "weren": 1508,
      "Servo": 1509,
      "away": 1510,
      "lers": 1511,
      "sity": 1512,
      "ark": 1513,
      "ror": 1514,
      "itz": 1515,
      "ali": 1516,
      "controllers": 1517,
      "idate": 1518,
      "imidate": 1519,
      "Worker": 1520,
      "counts": 1521,
      "Islandwalk": 1522,
      "Shroud": 1523,
      "follow": 1524,
      "Affinity": 1525,
      "comple": 1526,
      "horsemanship": 1527,
      "Hero": 1528,
      "nonlegendary": 1529,
      "Role": 1530,
      "cheme": 1531,
      "Sc": 1532,
      "Soul": 1533,
      "li": 1534,
      "mode": 1535,
      "Cit": 1536,
      "Es": 1537,
      "toward": 1538,
      "spore": 1539,
      "take": 1540,
      "unspent": 1541,
      "izen": 1542,
      "Cont": 1543,
      "goad": 1544,
      "Citizen": 1545,
      "Out": 1546,
      "cre": 1547,
      "surveil": 1548,
      "scheme": 1549,
      "libraries": 1550,
      "Companion": 1551,
      "minus": 1552,
      "Commander": 1553,
      "Assembly": 1554,
      "bid": 1555,
      "later": 1556,
      "won": 1557,
      "taps": 1558,
      "Instant": 1559,
      "alize": 1560,
      "yback": 1561,
      "Walls": 1562,
      "Horror": 1563,
      "Mul": 1564,
      "fear": 1565,
      "hil": 1566,
      "ich": 1567,
      "ating": 1568,
      "wasn": 1569,
      "sources": 1570,
      "vote": 1571,
      "nihil": 1572,
      "Tree": 1573,
      "crew": 1574,
      "ayed": 1575,
      "returned": 1576,
      "Spi": 1577,
      "Lands": 1578,
      "Treefolk": 1579,
      "Bas": 1580,
      "Shadow": 1581,
      "manifest": 1582,
      "Incub": 1583,
      "Humans": 1584,
      "islandwalk": 1585,
      "alm": 1586,
      "Chann": 1587,
      "Buyback": 1588,
      "decayed": 1589,
      "Permanent": 1590,
      "Channel": 1591,
      "Once": 1592,
      "Sam": 1593,
      "ying": 1594,
      "chose": 1595,
      "whose": 1596,
      "discarding": 1597,
      "Multi": 1598,
      "he": 1599,
      "rap": 1600,
      "which": 1601,
      "adv": 1602,
      "set": 1603,
      "repeat": 1604,
      "Basic": 1605,
      "Proliferate": 1606,
      "aw": 1607,
      "nine": 1608,
      "produced": 1609,
      "Outlast": 1610,
      "cascade": 1611,
      "stell": 1612,
      "stone": 1613,
      "enty": 1614,
      "iracle": 1615,
      "Constell": 1616,
      "Devil": 1617,
      "White": 1618,
      "nihilator": 1619,
      "Permanents": 1620,
      "Constellation": 1621,
      "Over": 1622,
      "Were": 1623,
      "draft": 1624,
      "urai": 1625,
      "playing": 1626,
      "landcycling": 1627,
      "Sagas": 1628,
      "represents": 1629,
      "Starting": 1630,
      "Samurai": 1631,
      "advance": 1632,
      "Myr": 1633,
      "fac": 1634,
      "sw": 1635,
      "example": 1636,
      "twenty": 1637,
      "agic": 1638,
      "Metal": 1639,
      "separates": 1640,
      "Spider": 1641,
      "Werew": 1642,
      "Fro": 1643,
      "Sn": 1644,
      "jure": 1645,
      "overload": 1646,
      "Flip": 1647,
      "eci": 1648,
      "elf": 1649,
      "activating": 1650,
      "words": 1651,
      "Overload": 1652,
      "Des": 1653,
      "Sk": 1654,
      "Wur": 1655,
      "forest": 1656,
      "pre": 1657,
      "we": 1658,
      "escape": 1659,
      "equip": 1660,
      "values": 1661,
      "searches": 1662,
      "flanking": 1663,
      "Imprint": 1664,
      "Metalcraft": 1665,
      "Wurm": 1666,
      "rup": 1667,
      "Exalted": 1668,
      "Infect": 1669,
      "Powerstone": 1670,
      "Am": 1671,
      "Emb": 1672,
      "done": 1673,
      "ek": 1674,
      "mare": 1675,
      "ug": 1676,
      "legendaries": 1677,
      "Embalm": 1678,
      "Magic": 1679,
      "Bo": 1680,
      "Mage": 1681,
      "Night": 1682,
      "vers": 1683,
      "Enter": 1684,
      "cret": 1685,
      "forestwalk": 1686,
      "br": 1687,
      "ires": 1688,
      "ob": 1689,
      "arm": 1690,
      "incl": 1691,
      "transform": 1692,
      "Delve": 1693,
      "ia": 1694,
      "nalize": 1695,
      "ino": 1696,
      "best": 1697,
      "strosity": 1698,
      "prov": 1699,
      "entering": 1700,
      "reduces": 1701,
      "Monstrosity": 1702,
      "Multikicker": 1703,
      "Snake": 1704,
      "Eter": 1705,
      "ak": 1706,
      "ving": 1707,
      "Exchange": 1708,
      "Forestwalk": 1709,
      "ets": 1710,
      "true": 1711,
      "symbols": 1712,
      "Contrap": 1713,
      "faced": 1714,
      "Contraption": 1715,
      "reg": 1716,
      "beare": 1717,
      "exchange": 1718,
      "team": 1719,
      "phased": 1720,
      "phant": 1721,
      "Toxic": 1722,
      "Transform": 1723,
      "Rebound": 1724,
      "provise": 1725,
      "bearer": 1726,
      "stun": 1727,
      "Split": 1728,
      "Incubator": 1729,
      "Magecraft": 1730,
      "Bear": 1731,
      "Ill": 1732,
      "Rev": 1733,
      "sist": 1734,
      "Elephant": 1735,
      "Pirate": 1736,
      "Heroic": 1737,
      "Escape": 1738,
      "Desert": 1739,
      "Eternalize": 1740,
      "Surveil": 1741,
      "een": 1742,
      "pe": 1743,
      "enco": 1744,
      "Asc": 1745,
      "higher": 1746,
      "Nightmare": 1747,
      "includ": 1748,
      "Hide": 1749,
      "Int": 1750,
      "Le": 1751,
      "gu": 1752,
      "ances": 1753,
      "motion": 1754,
      "drawn": 1755,
      "usion": 1756,
      "regular": 1757,
      "Illusion": 1758,
      "19": 1759,
      "Mor": 1760,
      "Sha": 1761,
      "pow": 1762,
      "off": 1763,
      "ersist": 1764,
      "riend": 1765,
      "instances": 1766,
      "Rats": 1767,
      "Ascend": 1768,
      "powers": 1769,
      "Oo": 1770,
      "Pri": 1771,
      "oun": 1772,
      "Vehicles": 1773,
      "reduce": 1774,
      "Hideaway": 1775,
      "bur": 1776,
      "cil": 1777,
      "erted": 1778,
      "itch": 1779,
      "exerted": 1780,
      "precombat": 1781,
      "ouncil": 1782,
      "12": 1783,
      "Ger": 1784,
      "On": 1785,
      "ctor": 1786,
      "treat": 1787,
      "unattach": 1788,
      "caven": 1789,
      "rowth": 1790,
      "Best": 1791,
      "Red": 1792,
      "head": 1793,
      "war": 1794,
      "thirst": 1795,
      "betw": 1796,
      "apon": 1797,
      "Vampires": 1798,
      "Improvise": 1799,
      "Werewolf": 1800,
      "transforms": 1801,
      "between": 1802,
      "Kh": 1803,
      "Kith": 1804,
      "Ske": 1805,
      "Scaven": 1806,
      "aim": 1807,
      "dra": 1808,
      "ort": 1809,
      "exert": 1810,
      "iving": 1811,
      "Spirits": 1812,
      "ulate": 1813,
      "Kithkin": 1814,
      "Will": 1815,
      "istribute": 1816,
      "else": 1817,
      "aliz": 1818,
      "speci": 1819,
      "pair": 1820,
      "swamp": 1821,
      "weapon": 1822,
      "Morbid": 1823,
      "Ooze": 1824,
      "Living": 1825,
      "replicate": 1826,
      "arn": 1827,
      "iti": 1828,
      "apt": 1829,
      "Amass": 1830,
      "treated": 1831,
      "Dred": 1832,
      "Fero": 1833,
      "Persist": 1834,
      "Ren": 1835,
      "dular": 1836,
      "spl": 1837,
      "olster": 1838,
      "teen": 1839,
      "secret": 1840,
      "God": 1841,
      "cious": 1842,
      "armor": 1843,
      "alizes": 1844,
      "specializes": 1845,
      "swampwalk": 1846,
      "Dredge": 1847,
      "Ferocious": 1848,
      "Distribute": 1849,
      "Gate": 1850,
      "book": 1851,
      "drew": 1852,
      "growth": 1853,
      "hour": 1854,
      "esh": 1855,
      "distribute": 1856,
      "Trans": 1857,
      "ploit": 1858,
      "modified": 1859,
      "following": 1860,
      "completed": 1861,
      "awn": 1862,
      "verse": 1863,
      "Germ": 1864,
      "Mine": 1865,
      "cation": 1866,
      "initi": 1867,
      "entwine": 1868,
      "blockers": 1869,
      "hasn": 1870,
      "megamorph": 1871,
      "olt": 1872,
      "conni": 1873,
      "conjure": 1874,
      "Black": 1875,
      "Shr": 1876,
      "Devour": 1877,
      "Raid": 1878,
      "Bloodthirst": 1879,
      "reduced": 1880,
      "opening": 1881,
      "Entwine": 1882,
      "bestow": 1883,
      "Bestow": 1884,
      "Scavenge": 1885,
      "initiative": 1886,
      "connives": 1887,
      "Dash": 1888,
      "Kra": 1889,
      "right": 1890,
      "expl": 1891,
      "blitz": 1892,
      "noncombat": 1893,
      "pop": 1894,
      "Coven": 1895,
      "Megamorph": 1896,
      "leton": 1897,
      "Dwar": 1898,
      "Und": 1899,
      "bond": 1900,
      "clash": 1901,
      "pers": 1902,
      "acy": 1903,
      "rain": 1904,
      "Spawn": 1905,
      "Annihilator": 1906,
      "Skeleton": 1907,
      "Cor": 1908,
      "Rep": 1909,
      "dash": 1910,
      "ho": 1911,
      "vol": 1912,
      "ifter": 1913,
      "escap": 1914,
      "spir": 1915,
      "ampion": 1916,
      "Proto": 1917,
      "him": 1918,
      "changed": 1919,
      "shido": 1920,
      "Hy": 1921,
      "Hell": 1922,
      "Tower": 1923,
      "bri": 1924,
      "ded": 1925,
      "pesh": 1926,
      "plays": 1927,
      "riad": 1928,
      "ante": 1929,
      "unchanged": 1930,
      "Exploit": 1931,
      "prow": 1932,
      "claim": 1933,
      "Goad": 1934,
      "Dog": 1935,
      "Shapesh": 1936,
      "na": 1937,
      "page": 1938,
      "ry": 1939,
      "incub": 1940,
      "urge": 1941,
      "pport": 1942,
      "played": 1943,
      "explo": 1944,
      "ading": 1945,
      "wins": 1946,
      "rules": 1947,
      "Noncreature": 1948,
      "prize": 1949,
      "letter": 1950,
      "Rebel": 1951,
      "Modular": 1952,
      "modification": 1953,
      "encoded": 1954,
      "Intimidate": 1955,
      "secretly": 1956,
      "Transmut": 1957,
      "Kraken": 1958,
      "Corrup": 1959,
      "Shapeshifter": 1960,
      "exploits": 1961,
      "modifications": 1962,
      "Kob": 1963,
      "Lo": 1964,
      "iance": 1965,
      "mount": 1966,
      "rone": 1967,
      "contains": 1968,
      "consist": 1969,
      "Sham": 1970,
      "intimidate": 1971,
      "Splice": 1972,
      "Scion": 1973,
      "Revolt": 1974,
      "guess": 1975,
      "splice": 1976,
      "Kobold": 1977,
      "mountain": 1978,
      "consists": 1979,
      "No": 1980,
      "Tot": 1981,
      "odd": 1982,
      "pack": 1983,
      "squ": 1984,
      "arro": 1985,
      "plac": 1986,
      "unpaired": 1987,
      "whead": 1988,
      "planar": 1989,
      "sacrificing": 1990,
      "Ink": 1991,
      "noted": 1992,
      "ously": 1993,
      "tort": 1994,
      "Ninja": 1995,
      "Flanking": 1996,
      "incubate": 1997,
      "Transmute": 1998,
      "Totem": 1999,
      "arrowhead": 2000,
      "dying": 2001,
      "ea": 2002,
      "ull": 2003,
      "erge": 2004,
      "ved": 2005,
      "Champion": 2006,
      "olves": 2007,
      "gendary": 2008,
      "mono": 2009,
      "suspended": 2010,
      "brack": 2011,
      "Legendary": 2012,
      "person": 2013,
      "mountainwalk": 2014,
      "Bar": 2015,
      "Se": 2016,
      "council": 2017,
      "ift": 2018,
      "owns": 2019,
      "keeps": 2020,
      "crank": 2021,
      "trace": 2022,
      "Prize": 2023,
      "Khans": 2024,
      "Prototype": 2025,
      "Shaman": 2026,
      "square": 2027,
      "Cleave": 2028,
      "Fading": 2029,
      "Hal": 2030,
      "affect": 2031,
      "cleave": 2032,
      "ka": 2033,
      "kes": 2034,
      "uk": 2035,
      "replac": 2036,
      "ides": 2037,
      "ores": 2038,
      "Investigate": 2039,
      "sum": 2040,
      "Blitz": 2041,
      "Robot": 2042,
      "skips": 2043,
      "Soulbond": 2044,
      "goaded": 2045,
      "Frog": 2046,
      "ugment": 2047,
      "brackets": 2048,
      "replacing": 2049,
      "Cur": 2050,
      "Evol": 2051,
      "cate": 2052,
      "gr": 2053,
      "miracle": 2054,
      "anish": 2055,
      "core": 2056,
      "ply": 2057,
      "evenly": 2058,
      "Warriors": 2059,
      "post": 2060,
      "resolved": 2061,
      "Backup": 2062,
      "Horsemanship": 2063,
      "Banding": 2064,
      "Renown": 2065,
      "Corrupted": 2066,
      "Evolve": 2067,
      "Av": 2068,
      "Kor": 2069,
      "Ment": 2070,
      "Treat": 2071,
      "Wra": 2072,
      "bent": 2073,
      "idd": 2074,
      "nor": 2075,
      "sick": 2076,
      "infect": 2077,
      "lee": 2078,
      "stick": 2079,
      "itself": 2080,
      "ampage": 2081,
      "~.\"": 2082,
      "ears": 2083,
      "Goat": 2084,
      "ectacle": 2085,
      "Conver": 2086,
      "Mountainwalk": 2087,
      "Bushido": 2088,
      "explores": 2089,
      "Hellbent": 2090,
      "summon": 2091,
      "Wraith": 2092,
      "sickness": 2093,
      "Converge": 2094,
      "15": 2095,
      "Peg": 2096,
      "bar": 2097,
      "bolster": 2098,
      "cle": 2099,
      "ger": 2100,
      "erker": 2101,
      "contin": 2102,
      "unattached": 2103,
      "haunt": 2104,
      "conspir": 2105,
      "Comple": 2106,
      "populate": 2107,
      "Dwarf": 2108,
      "anishing": 2109,
      "Mentor": 2110,
      "Pegas": 2111,
      "conspiracy": 2112,
      "Compleated": 2113,
      "Bers": 2114,
      "Less": 2115,
      "Lie": 2116,
      "My": 2117,
      "ix": 2118,
      "ualty": 2119,
      "throne": 2120,
      "enant": 2121,
      "asualty": 2122,
      "deple": 2123,
      "utenant": 2124,
      "artist": 2125,
      "apply": 2126,
      "doom": 2127,
      "untaps": 2128,
      "seek": 2129,
      "fling": 2130,
      "followed": 2131,
      "riends": 2132,
      "Repeat": 2133,
      "Hydra": 2134,
      "monocolored": 2135,
      "summoning": 2136,
      "Pegasus": 2137,
      "Lesson": 2138,
      "Lieutenant": 2139,
      "depletion": 2140,
      "Em": 2141,
      "Skip": 2142,
      "Vanishing": 2143,
      "ax": 2144,
      "los": 2145,
      "mast": 2146,
      "mire": 2147,
      "uck": 2148,
      "ines": 2149,
      "abri": 2150,
      "nonwhite": 2151,
      "using": 2152,
      "Berserker": 2153,
      "Bat": 2154,
      "Fract": 2155,
      "Fabri": 2156,
      "Miracle": 2157,
      "Rh": 2158,
      "boo": 2159,
      "ele": 2160,
      "her": 2161,
      "mate": 2162,
      "ove": 2163,
      "atch": 2164,
      "ind": 2165,
      "rage": 2166,
      "Switch": 2167,
      "Soldiers": 2168,
      "ump": 2169,
      "rush": 2170,
      "Boast": 2171,
      "raining": 2172,
      "Inkling": 2173,
      "Fractal": 2174,
      "Battle": 2175,
      "Green": 2176,
      "He": 2177,
      "Sun": 2178,
      "full": 2179,
      "atar": 2180,
      "Encore": 2181,
      "above": 2182,
      "Blue": 2183,
      "Under": 2184,
      "kinds": 2185,
      "duplicate": 2186,
      "Monk": 2187,
      "avor": 2188,
      "burst": 2189,
      "Only": 2190,
      "Shrine": 2191,
      "Undying": 2192,
      "Avatar": 2193,
      "mastery": 2194,
      "Casualty": 2195,
      "thir": 2196,
      "ask": 2197,
      "Thru": 2198,
      "Retrace": 2199,
      "ulk": 2200,
      "Wizards": 2201,
      "fewest": 2202,
      "Fabricate": 2203,
      "Rhino": 2204,
      "Thrull": 2205,
      "aken": 2206,
      "his": 2207,
      "ian": 2208,
      "mark": 2209,
      "pent": 2210,
      "year": 2211,
      "Enrage": 2212,
      "ict": 2213,
      "support": 2214,
      "Foods": 2215,
      "Serpent": 2216,
      "Adventure": 2217,
      "loss": 2218,
      "Sunburst": 2219,
      "Gar": 2220,
      "Mino": 2221,
      "Wither": 2222,
      "neither": 2223,
      "sli": 2224,
      "}\"": 2225,
      "ality": 2226,
      "taur": 2227,
      "shift": 2228,
      "ics": 2229,
      "see": 2230,
      "Plan": 2231,
      "divides": 2232,
      "like": 2233,
      "includes": 2234,
      "clashing": 2235,
      "escapes": 2236,
      "Halfling": 2237,
      "booster": 2238,
      "Minotaur": 2239,
      "slime": 2240,
      "'\"": 2241,
      "Augment": 2242,
      "Graft": 2243,
      "vow": 2244,
      "ards": 2245,
      "assemb": 2246,
      "spellbook": 2247,
      "key": 2248,
      "Extort": 2249,
      "Alliance": 2250,
      "note": 2251,
      "seconds": 2252,
      "Bloodrush": 2253,
      "Manifest": 2254,
      "World": 2255,
      "emp": 2256,
      "crewed": 2257,
      "Bargain": 2258,
      "bargained": 2259,
      "Stri": 2260,
      "aunt": 2261,
      "cal": 2262,
      "fate": 2263,
      "pse": 2264,
      "orn": 2265,
      "iss": 2266,
      "ongreen": 2267,
      "common": 2268,
      "Ass": 2269,
      "sub": 2270,
      "Knights": 2271,
      "coins": 2272,
      "everything": 2273,
      "Move": 2274,
      "corpse": 2275,
      "Planeswalk": 2276,
      "empty": 2277,
      "14": 2278,
      "Aw": 2279,
      "Bre": 2280,
      "Comb": 2281,
      "Pest": 2282,
      "Training": 2283,
      "ful": 2284,
      "ki": 2285,
      "luck": 2286,
      "nongreen": 2287,
      "inc": 2288,
      "learn": 2289,
      "alion": 2290,
      "ung": 2291,
      "olas": 2292,
      "void": 2293,
      "forever": 2294,
      "divinity": 2295,
      "Soulshift": 2296,
      "including": 2297,
      "eather": 2298,
      "affected": 2299,
      "stickers": 2300,
      "'{": 2301,
      "fo": 2302,
      "ering": 2303,
      "cover": 2304,
      "chap": 2305,
      "come": 2306,
      "Drake": 2307,
      "some": 2308,
      "Plainscycling": 2309,
      "ignore": 2310,
      "results": 2311,
      "clean": 2312,
      "Awaken": 2313,
      "chapter": 2314,
      "Gri": 2315,
      "Mir": 2316,
      "Mite": 2317,
      "den": 2318,
      "ime": 2319,
      "lict": 2320,
      "ninj": 2321,
      "od": 2322,
      "soul": 2323,
      "ye": 2324,
      "annihilator": 2325,
      "tide": 2326,
      "flavor": 2327,
      "mining": 2328,
      "Nonbasic": 2329,
      "lowest": 2330,
      "brick": 2331,
      "prowl": 2332,
      "postcombat": 2333,
      "thirteen": 2334,
      "cleanup": 2335,
      "ninjutsu": 2336,
      "Ke": 2337,
      "Oc": 2338,
      "Par": 2339,
      "Te": 2340,
      "mid": 2341,
      "ters": 2342,
      "yes": 2343,
      "anos": 2344,
      "leash": 2345,
      "lection": 2346,
      "stud": 2347,
      "rock": 2348,
      "Replicate": 2349,
      "topus": 2350,
      "Treasures": 2351,
      "activates": 2352,
      "Unleash": 2353,
      "changeling": 2354,
      "multiple": 2355,
      "Undergrowth": 2356,
      "Strive": 2357,
      "Octopus": 2358,
      "Batt": 2359,
      "Col": 2360,
      "Got": 2361,
      "La": 2362,
      "Leg": 2363,
      "Ri": 2364,
      "des": 2365,
      "ja": 2366,
      "list": 2367,
      "sl": 2368,
      "surge": 2369,
      "ately": 2370,
      "ang": 2371,
      "stay": 2372,
      "rod": 2373,
      "ros": 2374,
      "ounty": 2375,
      "haven": 2376,
      "Dethrone": 2377,
      "Gold": 2378,
      "Adapt": 2379,
      "corn": 2380,
      "heal": 2381,
      "Skulk": 2382,
      "host": 2383,
      "ungus": 2384,
      "Battalion": 2385,
      "Gotcha": 2386,
      ".'\"": 2387,
      "bounty": 2388,
      "hat": 2389,
      "mn": 2390,
      "ne": 2391,
      "ses": 2392,
      "ane": 2393,
      "ensity": 2394,
      "leg": 2395,
      "dev": 2396,
      "sprock": 2397,
      "takes": 2398,
      "having": 2399,
      "touching": 2400,
      "searched": 2401,
      "totals": 2402,
      "looks": 2403,
      "intensity": 2404,
      "crews": 2405,
      "teammate": 2406,
      "11": 2407,
      "Ab": 2408,
      "Ball": 2409,
      "Cent": 2410,
      "Effect": 2411,
      "Gates": 2412,
      "Wolves": 2413,
      "self": 2414,
      "wish": 2415,
      "endum": 2416,
      "Addendum": 2417,
      "undying": 2418,
      "cycled": 2419,
      "Cats": 2420,
      "Squirrels": 2421,
      "Faeries": 2422,
      "Frodo": 2423,
      "Myriad": 2424,
      "stays": 2425,
      "Centaur": 2426,
      "Effects": 2427,
      "Cow": 2428,
      "Cip": 2429,
      "Kal": 2430,
      "Mar": 2431,
      "Round": 2432,
      "Tw": 2433,
      "Tim": 2434,
      "how": 2435,
      "sc": 2436,
      "uously": 2437,
      "water": 2438,
      "wears": 2439,
      "lect": 2440,
      "inger": 2441,
      "blood": 2442,
      "point": 2443,
      "Conjure": 2444,
      "myriad": 2445,
      "flips": 2446,
      "Raven": 2447,
      "produces": 2448,
      "Doctor": 2449,
      "finish": 2450,
      "Afflict": 2451,
      "separately": 2452,
      "Escal": 2453,
      "Dogs": 2454,
      "continuously": 2455,
      "Mirrod": 2456,
      "sprockets": 2457,
      "Cipher": 2458,
      "Escalate": 2459,
      "Mirrodin": 2460,
      "!\"": 2461,
      "Ham": 2462,
      "IV": 2463,
      "Lord": 2464,
      "Rag": 2465,
      "Time": 2466,
      "Vent": 2467,
      "az": 2468,
      "bal": 2469,
      "cna": 2470,
      "ether": 2471,
      "here": 2472,
      "know": 2473,
      "vit": 2474,
      "ene": 2475,
      "orless": 2476,
      "rolled": 2477,
      "exalted": 2478,
      "unearth": 2479,
      "omen": 2480,
      "used": 2481,
      "sector": 2482,
      "Arch": 2483,
      "convoke": 2484,
      "bands": 2485,
      "assin": 2486,
      "Vecna": 2487,
      "Demons": 2488,
      "emerge": 2489,
      "burden": 2490,
      "vowel": 2491,
      "Assassin": 2492,
      "Planeswalkers": 2493,
      "Colorless": 2494,
      "Ravenous": 2495,
      "Venture": 2496,
      "Ape": 2497,
      "Cha": 2498,
      "Clash": 2499,
      "Emin": 2500,
      "Hom": 2501,
      "Light": 2502,
      "Op": 2503,
      "Pack": 2504,
      "Rampage": 2505,
      "cer": 2506,
      "dy": 2507,
      "fe": 2508,
      "ked": 2509,
      "phen": 2510,
      "tely": 2511,
      "visit": 2512,
      "urv": 2513,
      "plains": 2514,
      "spired": 2515,
      "spectacle": 2516,
      "begins": 2517,
      "End": 2518,
      "ions": 2519,
      "melee": 2520,
      "Inspired": 2521,
      "Mountaincycling": 2522,
      "Clown": 2523,
      "completely": 2524,
      "Kobolds": 2525,
      "Emerge": 2526,
      "Eminence": 2527,
      "Gra": 2528,
      "Jump": 2529,
      "Min": 2530,
      "Rally": 2531,
      "Surge": 2532,
      "Yor": 2533,
      "cen": 2534,
      "cus": 2535,
      "friends": 2536,
      "gl": 2537,
      "height": 2538,
      "ika": 2539,
      "match": 2540,
      "encounter": 2541,
      "told": 2542,
      "andon": 2543,
      "rag": 2544,
      "ils": 2545,
      "Read": 2546,
      "abandon": 2547,
      "earn": 2548,
      "touches": 2549,
      "active": 2550,
      "dire": 2551,
      "Pho": 2552,
      "Angels": 2553,
      "Mercen": 2554,
      "rule": 2555,
      "Nonartifact": 2556,
      "velin": 2557,
      "Monster": 2558,
      "games": 2559,
      "ruption": 2560,
      "Seek": 2561,
      "increas": 2562,
      "Lair": 2563,
      "javelin": 2564,
      "vitality": 2565,
      "Cele": 2566,
      "Cards": 2567,
      "Fungus": 2568,
      "Gu": 2569,
      "Kro": 2570,
      "Not": 2571,
      "Ox": 2572,
      "ahead": 2573,
      "ber": 2574,
      "bidd": 2575,
      "gold": 2576,
      "ju": 2577,
      "oin": 2578,
      "tact": 2579,
      "ata": 2580,
      "ani": 2581,
      "chapt": 2582,
      "spire": 2583,
      "Ref": 2584,
      "Enlist": 2585,
      "longer": 2586,
      "item": 2587,
      "eads": 2588,
      "Draft": 2589,
      "box": 2590,
      "ope": 2591,
      "letters": 2592,
      "Pirates": 2593,
      "Skipped": 2594,
      "prowess": 2595,
      "slumber": 2596,
      "Two": 2597,
      "plainswalk": 2598,
      "Note": 2599,
      "tactics": 2600,
      "chapters": 2601,
      "),": 2602,
      "Br": 2603,
      "Gor": 2604,
      "Ko": 2605,
      "Pile": 2606,
      "Rad": 2607,
      "Ty": 2608,
      "Tent": 2609,
      "Tri": 2610,
      "Vo": 2611,
      "del": 2612,
      "fuse": 2613,
      "kn": 2614,
      "numb": 2615,
      "net": 2616,
      "rith": 2617,
      "rampage": 2618,
      "tane": 2619,
      "wer": 2620,
      "xa": 2621,
      "zz": 2622,
      "amant": 2623,
      "exp": 2624,
      "Spectacle": 2625,
      "ledge": 2626,
      "scrying": 2627,
      "rolls": 2628,
      "multane": 2629,
      "resolving": 2630,
      "Levia": 2631,
      "Clerics": 2632,
      "Adv": 2633,
      "Adamant": 2634,
      "corruption": 2635,
      "Werewolves": 2636,
      "Locus": 2637,
      "Breath": 2638,
      "study": 2639,
      "watermark": 2640,
      "Open": 2641,
      "Kroxa": 2642,
      "Piles": 2643,
      "Tentacle": 2644,
      "numbers": 2645,
      "multaneously": 2646,
      "Leviathan": 2647,
      "Dru": 2648,
      "Eye": 2649,
      "Friends": 2650,
      "Gr": 2651,
      "Tour": 2652,
      "[+": 2653,
      "dile": 2654,
      "scre": 2655,
      "wor": 2656,
      "thy": 2657,
      "inn": 2658,
      "ander": 2659,
      "ify": 2660,
      "elds": 2661,
      "rab": 2662,
      "rix": 2663,
      "acter": 2664,
      "moth": 2665,
      "nonattacking": 2666,
      "Assist": 2667,
      "Speci": 2668,
      "sive": 2669,
      "pho": 2670,
      "Formid": 2671,
      "convo": 2672,
      "character": 2673,
      "dist": 2674,
      "Blade": 2675,
      "Saprolings": 2676,
      "cycles": 2677,
      "Attractions": 2678,
      "Golems": 2679,
      "Prowl": 2680,
      "Incubate": 2681,
      "whichever": 2682,
      "Grim": 2683,
      "Timing": 2684,
      "omenon": 2685,
      "phenomenon": 2686,
      "Mercenary": 2687,
      "Celebr": 2688,
      "Reflection": 2689,
      "Druid": 2690,
      "scream": 2691,
      "Specialize": 2692,
      "Formidable": 2693,
      "convoked": 2694,
      "50": 2695,
      "Han": 2696,
      "Hand": 2697,
      "Leads": 2698,
      "Pur": 2699,
      "Pol": 2700,
      "Pop": 2701,
      "Syr": 2702,
      "Tra": 2703,
      "Tyr": 2704,
      "Zero": 2705,
      "]:": 2706,
      "__": 2707,
      "bu": 2708,
      "hope": 2709,
      "iqu": 2710,
      "meld": 2711,
      "oon": 2712,
      "pres": 2713,
      "ranos": 2714,
      "tain": 2715,
      "var": 2716,
      "reb": 2717,
      "ream": 2718,
      "anid": 2719,
      "enix": 2720,
      "infor": 2721,
      "ors": 2722,
      "iter": 2723,
      "fif": 2724,
      "spe": 2725,
      "une": 2726,
      "whether": 2727,
      "Reinfor": 2728,
      "upkeeps": 2729,
      "inkmoth": 2730,
      "looked": 2731,
      "Swampcycling": 2732,
      "phy": 2733,
      "foretold": 2734,
      "triple": 2735,
      "activation": 2736,
      "Conspire": 2737,
      "ague": 2738,
      "mutated": 2739,
      "Blinkmoth": 2740,
      "ansion": 2741,
      "Class": 2742,
      "Clues": 2743,
      "Stand": 2744,
      "Melee": 2745,
      "goy": 2746,
      "Afterlife": 2747,
      "separate": 2748,
      "Forecast": 2749,
      "Nightmares": 2750,
      "heads": 2751,
      "ukranos": 2752,
      "grin": 2753,
      "haunting": 2754,
      "assembles": 2755,
      "Combine": 2756,
      "Balloon": 2757,
      "Kaldra": 2758,
      "Hamster": 2759,
      "knowledge": 2760,
      "vowels": 2761,
      "Phoenix": 2762,
      "Grimgrin": 2763,
      "Celebration": 2764,
      "Polukranos": 2765,
      "Populate": 2766,
      "Tyranid": 2767,
      "Reinforce": 2768,
      "Chand": 2769,
      "Council": 2770,
      "Dar": 2771,
      "Jug": 2772,
      "Ky": 2773,
      "Learn": 2774,
      "Melds": 2775,
      "Nontoken": 2776,
      "Omn": 2777,
      "Ras": 2778,
      "Sor": 2779,
      "We": 2780,
      "Walk": 2781,
      "acorn": 2782,
      "cred": 2783,
      "da": 2784,
      "friend": 2785,
      "gg": 2786,
      "hit": 2787,
      "ipp": 2788,
      "mma": 2789,
      "sil": 2790,
      "tra": 2791,
      "yn": 2792,
      "arth": 2793,
      "rope": 2794,
      "death": 2795,
      "table": 2796,
      "tails": 2797,
      "Enchantment": 2798,
      "about": 2799,
      "instance": 2800,
      "Untapped": 2801,
      "leaving": 2802,
      "Forestcycling": 2803,
      "flood": 2804,
      "wind": 2805,
      "iffin": 2806,
      "Phyrexians": 2807,
      "Horde": 2808,
      "final": 2809,
      "inter": 2810,
      "avite": 2811,
      "egg": 2812,
      "encore": 2813,
      "escaped": 2814,
      "naut": 2815,
      "guesses": 2816,
      "Secret": 2817,
      "gernaut": 2818,
      "aunted": 2819,
      "foot": 2820,
      "Riot": 2821,
      "expansion": 2822,
      "Griffin": 2823,
      "dilemma": 2824,
      "phoros": 2825,
      "Purphoros": 2826,
      "Chandra": 2827,
      "Juggernaut": 2828,
      "silver": 2829,
      "Aj": 2830,
      "Astart": 2831,
      "Boo": 2832,
      "Bolas": 2833,
      "Ca": 2834,
      "Fbl": 2835,
      "Feather": 2836,
      "Ig": 2837,
      "Kar": 2838,
      "Mika": 2839,
      "Ne": 2840,
      "Phas": 2841,
      "Rub": 2842,
      "ail": 2843,
      "agend": 2844,
      "dream": 2845,
      "eus": 2846,
      "feather": 2847,
      "ien": 2848,
      "pha": 2849,
      "ser": 2850,
      "sed": 2851,
      "rer": 2852,
      "thp": 2853,
      "aring": 2854,
      "gest": 2855,
      "ortion": 2856,
      "elve": 2857,
      "elow": 2858,
      "fire": 2859,
      "wither": 2860,
      "spect": 2861,
      "twelve": 2862,
      "uniqu": 2863,
      "tifi": 2864,
      "ctly": 2865,
      "select": 2866,
      "searching": 2867,
      "Counters": 2868,
      "suspect": 2869,
      "Shark": 2870,
      "differently": 2871,
      "voted": 2872,
      "Rogues": 2873,
      "monstrate": 2874,
      "says": 2875,
      "Cohor": 2876,
      "avan": 2877,
      "printed": 2878,
      "complete": 2879,
      "Boar": 2880,
      "Shrines": 2881,
      "Skeletons": 2882,
      "Robots": 2883,
      "Gargoy": 2884,
      "Keep": 2885,
      "Legolas": 2886,
      "Ragavan": 2887,
      "Advis": 2888,
      "Ajani": 2889,
      "Astartes": 2890,
      "Fblthp": 2891,
      "Mikaeus": 2892,
      "Phasing": 2893,
      "Rubin": 2894,
      "agenda": 2895,
      "unique": 2896,
      "Cohort": 2897,
      ".]": 2898,
      "Arag": 2899,
      "Bolster": 2900,
      "Dis": 2901,
      "Gim": 2902,
      "Hel": 2903,
      "Hidd": 2904,
      "Haunt": 2905,
      "Join": 2906,
      "Kin": 2907,
      "Mig": 2908,
      "Sat": 2909,
      "Shi": 2910,
      "Vol": 2911,
      "Wicked": 2912,
      "cent": 2913,
      "jump": 2914,
      "kma": 2915,
      "nive": 2916,
      "ara": 2917,
      "arid": 2918,
      "inder": 2919,
      "ley": 2920,
      "detain": 2921,
      "iling": 2922,
      "ilot": 2923,
      "exiling": 2924,
      "forces": 2925,
      "drawing": 2926,
      "Reward": 2927,
      "Death": 2928,
      "Demonstrate": 2929,
      "ices": 2930,
      "plane": 2931,
      "ool": 2932,
      "choices": 2933,
      "seat": 2934,
      "Anim": 2935,
      "simultaneously": 2936,
      "loz": 2937,
      "connive": 2938,
      "tribute": 2939,
      "reminder": 2940,
      "voting": 2941,
      "make": 2942,
      "Scout": 2943,
      "drafted": 2944,
      "offering": 2945,
      "Undaunted": 2946,
      "Championship": 2947,
      "Cursed": 2948,
      "haunts": 2949,
      "indic": 2950,
      "subgame": 2951,
      "scroll": 2952,
      "Lightning": 2953,
      "Grakma": 2954,
      "Radiance": 2955,
      "Tribute": 2956,
      "fifteen": 2957,
      "Standard": 2958,
      "Omnath": 2959,
      "Juggernauts": 2960,
      "Aragorn": 2961,
      "Gimli": 2962,
      "Hidden": 2963,
      "Migloz": 2964,
      "Satyr": 2965,
      "Grakmaw": 2966,
      "Arix": 2967,
      "Dj": 2968,
      "Egg": 2969,
      "Fate": 2970,
      "Gide": 2971,
      "Head": 2972,
      "IN": 2973,
      "Pent": 2974,
      "San": 2975,
      "Separ": 2976,
      "Uro": 2977,
      "Was": 2978,
      "Xen": 2979,
      "aze": 2980,
      "cur": 2981,
      "cul": 2982,
      "eal": 2983,
      "har": 2984,
      "hin": 2985,
      "imum": 2986,
      "lock": 2987,
      "surv": 2988,
      "tract": 2989,
      "wear": 2990,
      "recor": 2991,
      "reselect": 2992,
      "oured": 2993,
      "investig": 2994,
      "thes": 2995,
      "stop": 2996,
      "ori": 2997,
      "orde": 2998,
      "itan": 2999,
      "alpha": 3000,
      "yourself": 3001,
      "ama": 3002,
      "deter": 3003,
      "ild": 3004,
      "plify": 3005,
      "beg": 3006,
      "enda": 3007,
      "putin": 3008,
      "uncul": 3009,
      "area": 3010,
      "methes": 3011,
      "Sphin": 3012,
      "uses": 3013,
      "nothing": 3014,
      "log": 3015,
      "Elenda": 3016,
      "Provoke": 3017,
      "flame": 3018,
      "100": 3019,
      "couldn": 3020,
      "decks": 3021,
      "200": 3022,
      "Support": 3023,
      "minimum": 3024,
      "Thopters": 3025,
      "Squad": 3026,
      "Monkey": 3027,
      "dified": 3028,
      "Modified": 3029,
      "Dinosaurs": 3030,
      "switch": 3031,
      "Amplify": 3032,
      "offer": 3033,
      "Kher": 3034,
      "subtract": 3035,
      "foe": 3036,
      "odai": 3037,
      "devoured": 3038,
      "Homuncul": 3039,
      "Minion": 3040,
      "gla": 3041,
      "increase": 3042,
      "bidding": 3043,
      "just": 3044,
      "Kogla": 3045,
      "Kyodai": 3046,
      "Rasputin": 3047,
      "Gargoyle": 3048,
      "Rubinia": 3049,
      "Arixmethes": 3050,
      "Djinn": 3051,
      "Fateful": 3052,
      "Gideon": 3053,
      "Pentavite": 3054,
      "Separate": 3055,
      "Wasp": 3056,
      "survive": 3057,
      "record": 3058,
      "ordered": 3059,
      "Sphinx": 3060,
      "Homunculus": 3061,
      "Crab": 3062,
      "Grand": 3063,
      "Hunt": 3064,
      "Jace": 3065,
      "King": 3066,
      "Lil": 3067,
      "Og": 3068,
      "Pilot": 3069,
      "Say": 3070,
      "Ted": 3071,
      "].": 3072,
      "fast": 3073,
      "hn": 3074,
      "ied": 3075,
      "mine": 3076,
      "nore": 3077,
      "oing": 3078,
      "wr": 3079,
      "ela": 3080,
      "isela": 3081,
      "dethrone": 3082,
      "pple": 3083,
      "oney": 3084,
      "quality": 3085,
      "ongoing": 3086,
      "nonenchantment": 3087,
      "Exert": 3088,
      "Ingest": 3089,
      "Allies": 3090,
      "boon": 3091,
      "Islandcycling": 3092,
      "Warlock": 3093,
      "flu": 3094,
      "Unattach": 3095,
      "makes": 3096,
      "ruk": 3097,
      "question": 3098,
      "Giants": 3099,
      "weir": 3100,
      "Contraptions": 3101,
      "Revel": 3102,
      "One": 3103,
      "Garruk": 3104,
      "assemble": 3105,
      "Parley": 3106,
      "Coward": 3107,
      "Chaos": 3108,
      "feet": 3109,
      "Hanweir": 3110,
      "credit": 3111,
      "Ignore": 3112,
      "Kinship": 3113,
      "indicated": 3114,
      "Ogre": 3115,
      "Teddy": 3116,
      "\"[": 3117,
      "(~": 3118,
      "Fish": 3119,
      "Grave": 3120,
      "Hak": 3121,
      "Kav": 3122,
      "Lage": 3123,
      "Luk": 3124,
      "Mast": 3125,
      "Mish": 3126,
      "Rock": 3127,
      "Sand": 3128,
      "Sal": 3129,
      "Sent": 3130,
      "Sig": 3131,
      "Xant": 3132,
      "],": 3133,
      "aid": 3134,
      "bles": 3135,
      "bery": 3136,
      "born": 3137,
      "bordered": 3138,
      "cumulative": 3139,
      "due": 3140,
      "ial": 3141,
      "ium": 3142,
      "iod": 3143,
      "lines": 3144,
      "money": 3145,
      "ox": 3146,
      "pin": 3147,
      "portion": 3148,
      "ron": 3149,
      "sm": 3150,
      "vy": 3151,
      "wen": 3152,
      "regenerate": 3153,
      "influ": 3154,
      "ora": 3155,
      "urb": 3156,
      "demate": 3157,
      "place": 3158,
      "plague": 3159,
      "ends": 3160,
      "roma": 3161,
      "unk": 3162,
      "ilities": 3163,
      "valor": 3164,
      "Chroma": 3165,
      "cron": 3166,
      "Artifi": 3167,
      "Arwen": 3168,
      "pause": 3169,
      "mony": 3170,
      "board": 3171,
      "starts": 3172,
      "Before": 3173,
      "story": 3174,
      "imi": 3175,
      "mpting": 3176,
      "Merry": 3177,
      "Nonland": 3178,
      "horn": 3179,
      "okey": 3180,
      "Moon": 3181,
      "Pridemate": 3182,
      "bribery": 3183,
      "Loyalty": 3184,
      "Curse": 3185,
      "iana": 3186,
      "Worlds": 3187,
      "Combat": 3188,
      "Keimi": 3189,
      "Tempting": 3190,
      "Abilities": 3191,
      "Cowards": 3192,
      "Marit": 3193,
      "Yorvo": 3194,
      "direction": 3195,
      "speak": 3196,
      "Necron": 3197,
      "series": 3198,
      "Heliod": 3199,
      "Volo": 3200,
      "harmony": 3201,
      "wearing": 3202,
      "investigates": 3203,
      "Liliana": 3204,
      "Kavu": 3205,
      "Lukka": 3206,
      "Mishra": 3207,
      "Salam": 3208,
      "Xantcha": 3209,
      "influence": 3210,
      "AY": 3211,
      "Bal": 3212,
      "Cro": 3213,
      "Cart": 3214,
      "Fire": 3215,
      "Ge": 3216,
      "Gy": 3217,
      "Holl": 3218,
      "Ken": 3219,
      "LAY": 3220,
      "Na": 3221,
      "PLAY": 3222,
      "Rune": 3223,
      "Ta": 3224,
      "aff": 3225,
      "augment": 3226,
      "bene": 3227,
      "below": 3228,
      "cro": 3229,
      "cing": 3230,
      "crow": 3231,
      "eep": 3232,
      "ection": 3233,
      "gard": 3234,
      "iy": 3235,
      "pink": 3236,
      "tle": 3237,
      "va": 3238,
      "ref": 3239,
      "atur": 3240,
      "ouche": 3241,
      "arri": 3242,
      "ena": 3243,
      "ened": 3244,
      "inel": 3245,
      "elia": 3246,
      "cerer": 3247,
      "Restart": 3248,
      "areth": 3249,
      "arecrow": 3250,
      "copied": 3251,
      "planeswalks": 3252,
      "rough": 3253,
      "voice": 3254,
      "seventh": 3255,
      "ulf": 3256,
      "Prote": 3257,
      "winning": 3258,
      "Elementals": 3259,
      "Block": 3260,
      "istics": 3261,
      "ruda": 3262,
      "assigned": 3263,
      "goes": 3264,
      "amassed": 3265,
      "Scarecrow": 3266,
      "manifests": 3267,
      "manifested": 3268,
      "Devils": 3269,
      "Dwarves": 3270,
      "guessed": 3271,
      "Curses": 3272,
      "Wraiths": 3273,
      "keyword": 3274,
      "abandoned": 3275,
      "work": 3276,
      "characteristics": 3277,
      "Sorcerer": 3278,
      "Advisors": 3279,
      "Championships": 3280,
      "began": 3281,
      "Sentinel": 3282,
      "Cartouche": 3283,
      "Gyruda": 3284,
      "Hollow": 3285,
      "beneath": 3286,
      "..": 3287,
      "25": 3288,
      "Can": 3289,
      "Dri": 3290,
      "ER": 3291,
      "Fe": 3292,
      "Fight": 3293,
      "Gl": 3294,
      "Imo": 3295,
      "Jour": 3296,
      "Klo": 3297,
      "Lin": 3298,
      "Lizard": 3299,
      "Mark": 3300,
      "New": 3301,
      "Niss": 3302,
      "Sy": 3303,
      "Sol": 3304,
      "Slog": 3305,
      "Tet": 3306,
      "Ulash": 3307,
      "Vir": 3308,
      "Vad": 3309,
      "Xander": 3310,
      "Yan": 3311,
      "app": 3312,
      "ier": 3313,
      "ious": 3314,
      "icorn": 3315,
      "jection": 3316,
      "ko": 3317,
      "light": 3318,
      "native": 3319,
      "oth": 3320,
      "sun": 3321,
      "uity": 3322,
      "well": 3323,
      "yal": 3324,
      "reroll": 3325,
      "era": 3326,
      "ana": 3327,
      "ense": 3328,
      "enuity": 3329,
      "ged": 3330,
      "ones": 3331,
      "cove": 3332,
      "stand": 3333,
      "tos": 3334,
      "ingenuity": 3335,
      "urk": 3336,
      "ife": 3337,
      "demn": 3338,
      "rib": 3339,
      "rik": 3340,
      "extort": 3341,
      "blaze": 3342,
      "unspecializes": 3343,
      "collection": 3344,
      "oom": 3345,
      "moves": 3346,
      "Their": 3347,
      "generic": 3348,
      "sealed": 3349,
      "Anax": 3350,
      "Sword": 3351,
      "soot": 3352,
      "condemn": 3353,
      "Elk": 3354,
      "agg": 3355,
      "agos": 3356,
      "agbearer": 3357,
      "Slug": 3358,
      "embalm": 3359,
      "Shard": 3360,
      "Life": 3361,
      "duplic": 3362,
      "sideboard": 3363,
      "tempted": 3364,
      "wordy": 3365,
      "Horse": 3366,
      "Flagbearer": 3367,
      "Serf": 3368,
      "renz": 3369,
      "sych": 3370,
      "Control": 3371,
      "arnation": 3372,
      "Krakens": 3373,
      "gram": 3374,
      "grace": 3375,
      "stickered": 3376,
      "continues": 3377,
      "Emp": 3378,
      "Serpents": 3379,
      "incarnation": 3380,
      "something": 3381,
      "Octopuses": 3382,
      "Goldber": 3383,
      "legs": 3384,
      "balan": 3385,
      "boxes": 3386,
      "zzt": 3387,
      "Leviathans": 3388,
      "thys": 3389,
      "disturb": 3390,
      "press": 3391,
      "rebound": 3392,
      "Darien": 3393,
      "Xenagos": 3394,
      "origin": 3395,
      "determine": 3396,
      "wrong": 3397,
      "Haktos": 3398,
      "Master": 3399,
      "Kenrith": 3400,
      "atural": 3401,
      "Blocking": 3402,
      "Drizzt": 3403,
      "Klothys": 3404,
      "Nissa": 3405,
      "Slogurk": 3406,
      "Ulasht": 3407,
      "Vadrik": 3408,
      "appears": 3409,
      "condemnation": 3410,
      "Goldberry": 3411,
      "\"~": 3412,
      "30": 3413,
      "Ant": 3414,
      "Bro": 3415,
      "Bur": 3416,
      "Bri": 3417,
      "Blast": 3418,
      "Call": 3419,
      "Don": 3420,
      "Etr": 3421,
      "Eyes": 3422,
      "Fest": 3423,
      "Ga": 3424,
      "Grem": 3425,
      "Goll": 3426,
      "Har": 3427,
      "Mu": 3428,
      "Mines": 3429,
      "Opponent": 3430,
      "Pr": 3431,
      "Ru": 3432,
      "Rap": 3433,
      "Surv": 3434,
      "Too": 3435,
      "Twin": 3436,
      "Troll": 3437,
      "Use": 3438,
      "Wea": 3439,
      "fly": 3440,
      "fang": 3441,
      "finger": 3442,
      "ject": 3443,
      "kulk": 3444,
      "lin": 3445,
      "nal": 3446,
      "pie": 3447,
      "ram": 3448,
      "run": 3449,
      "skulk": 3450,
      "very": 3451,
      "vill": 3452,
      "vax": 3453,
      "will": 3454,
      "retrace": 3455,
      "oud": 3456,
      "aro": 3457,
      "arge": 3458,
      "contain": 3459,
      "rare": 3460,
      "ellow": 3461,
      "osing": 3462,
      "actions": 3463,
      "cket": 3464,
      "twelf": 3465,
      "ticket": 3466,
      "Recover": 3467,
      "coming": 3468,
      "domin": 3469,
      "sho": 3470,
      "quid": 3471,
      "destroys": 3472,
      "instants": 3473,
      "Spark": 3474,
      "strife": 3475,
      "resis": 3476,
      "ressive": 3477,
      "regenerates": 3478,
      "aga": 3479,
      "vern": 3480,
      "ople": 3481,
      "assa": 3482,
      "Unicorn": 3483,
      "improvise": 3484,
      "Whis": 3485,
      "Birds": 3486,
      "Nonblack": 3487,
      "Flame": 3488,
      "remaining": 3489,
      "Imp": 3490,
      "Worm": 3491,
      "combined": 3492,
      "avail": 3493,
      "Multicolored": 3494,
      "maret": 3495,
      "akes": 3496,
      "people": 3497,
      "spiration": 3498,
      "haunted": 3499,
      "Minotaurs": 3500,
      "student": 3501,
      "legal": 3502,
      "fection": 3503,
      "Yorion": 3504,
      "directly": 3505,
      "Gorm": 3506,
      "Tyvar": 3507,
      "Tymaret": 3508,
      "delay": 3509,
      "distance": 3510,
      "Trapped": 3511,
      "bushido": 3512,
      "phyresis": 3513,
      "Revelers": 3514,
      "Artificer": 3515,
      "Moonfolk": 3516,
      "Salamander": 3517,
      "Crovax": 3518,
      "Virt": 3519,
      "lightened": 3520,
      "covered": 3521,
      "pressure": 3522,
      "Etrata": 3523,
      "Festering": 3524,
      "Gremlin": 3525,
      "Gollum": 3526,
      "Opponents": 3527,
      "Toothy": 3528,
      "Weaver": 3529,
      "twelfth": 3530,
      "available": 3531,
      "Brain": 3532,
      "CT": 3533,
      "Cir": 3534,
      "Da": 3535,
      "Dark": 3536,
      "Dry": 3537,
      "Dax": 3538,
      "Ereb": 3539,
      "Ginger": 3540,
      "Ha": 3541,
      "Hi": 3542,
      "Hipp": 3543,
      "Kren": 3544,
      "Lob": 3545,
      "Mac": 3546,
      "Ny": 3547,
      "Nev": 3548,
      "Naga": 3549,
      "Psych": 3550,
      "Qu": 3551,
      "Rand": 3552,
      "Sar": 3553,
      "Str": 3554,
      "Squid": 3555,
      "Ter": 3556,
      "Tie": 3557,
      "Tink": 3558,
      "Tomb": 3559,
      "Top": 3560,
      "Titan": 3561,
      "VI": 3562,
      "Zac": 3563,
      "bon": 3564,
      "carn": 3565,
      "ec": 3566,
      "eur": 3567,
      "eve": 3568,
      "fits": 3569,
      "free": 3570,
      "fates": 3571,
      "fellow": 3572,
      "garth": 3573,
      "hack": 3574,
      "hot": 3575,
      "kram": 3576,
      "la": 3577,
      "lact": 3578,
      "line": 3579,
      "mer": 3580,
      "mal": 3581,
      "ocity": 3582,
      "persist": 3583,
      "ske": 3584,
      "sword": 3585,
      "wing": 3586,
      "wage": 3587,
      "ym": 3588,
      "recent": 3589,
      "rejection": 3590,
      "ouse": 3591,
      "enora": 3592,
      "infection": 3593,
      "gether": 3594,
      "stored": 3595,
      "rop": 3596,
      "together": 3597,
      "ory": 3598,
      "ism": 3599,
      "ofprint": 3600,
      "aly": 3601,
      "contest": 3602,
      "erse": 3603,
      "def": 3604,
      "ainous": 3605,
      "blade": 3606,
      "Thassa": 3607,
      "ckly": 3608,
      "unning": 3609,
      "tic": 3610,
      "ongue": 3611,
      "dom": 3612,
      "doing": 3613,
      "nonsnow": 3614,
      "eret": 3615,
      "Ask": 3616,
      "quickly": 3617,
      "vala": 3618,
      "Them": 3619,
      "iders": 3620,
      "idance": 3621,
      "oma": 3622,
      "program": 3623,
      "Sphere": 3624,
      "uss": 3625,
      "fourth": 3626,
      "fourteen": 3627,
      "muster": 3628,
      "Drain": 3629,
      "conver": 3630,
      "tribal": 3631,
      "Elenora": 3632,
      "Plainswalk": 3633,
      "spending": 3634,
      "Phage": 3635,
      "Blaring": 3636,
      "Shel": 3637,
      "Shann": 3638,
      "Bee": 3639,
      "igned": 3640,
      "Stage": 3641,
      "Stone": 3642,
      "Horses": 3643,
      "Flavor": 3644,
      "Serv": 3645,
      "velocity": 3646,
      "Truss": 3647,
      "corre": 3648,
      "Commanders": 3649,
      "egis": 3650,
      "Soulblade": 3651,
      "faces": 3652,
      "petal": 3653,
      "guidance": 3654,
      "Renata": 3655,
      "hoofprint": 3656,
      "packs": 3657,
      "posted": 3658,
      "Myst": 3659,
      "covering": 3660,
      "midway": 3661,
      "Legacy": 3662,
      "devour": 3663,
      "Marath": 3664,
      "finishes": 3665,
      "Rager": 3666,
      "Chakram": 3667,
      "visited": 3668,
      "Voice": 3669,
      "____": 3670,
      "phylact": 3671,
      "Walking": 3672,
      "Cavern": 3673,
      "arids": 3674,
      "Animate": 3675,
      "Grandeur": 3676,
      "hngarth": 3677,
      "Graveborn": 3678,
      "Tahngarth": 3679,
      "croak": 3680,
      "Journal": 3681,
      "Linvala": 3682,
      "others": 3683,
      "ribbon": 3684,
      "Empires": 3685,
      "originally": 3686,
      "Surviv": 3687,
      "villainous": 3688,
      "dominion": 3689,
      "CTI": 3690,
      "Dryad": 3691,
      "Daxos": 3692,
      "Erebos": 3693,
      "Hippo": 3694,
      "Krenko": 3695,
      "Macie": 3696,
      "Nylea": 3697,
      "Zacama": 3698,
      "fateseal": 3699,
      "skewer": 3700,
      "converted": 3701,
      "Shanna": 3702,
      "phylactery": 3703,
      ",]": 3704,
      "00": 3705,
      "Ac": 3706,
      "Bind": 3707,
      "Car": 3708,
      "Cone": 3709,
      "Cunning": 3710,
      "Ep": 3711,
      "Face": 3712,
      "Friend": 3713,
      "Fox": 3714,
      "Gno": 3715,
      "Gisela": 3716,
      "Icing": 3717,
      "Iym": 3718,
      "Jur": 3719,
      "Jack": 3720,
      "Kai": 3721,
      "Ma": 3722,
      "Nar": 3723,
      "Pass": 3724,
      "Ray": 3725,
      "Ram": 3726,
      "Row": 3727,
      "Rison": 3728,
      "Sten": 3729,
      "Svy": 3730,
      "Tor": 3731,
      "Tongue": 3732,
      "Ya": 3733,
      "Yus": 3734,
      "bit": 3735,
      "cu": 3736,
      "d6": 3737,
      "eth": 3738,
      "eye": 3739,
      "eyes": 3740,
      "fro": 3741,
      "food": 3742,
      "fungus": 3743,
      "ik": 3744,
      "ike": 3745,
      "lab": 3746,
      "law": 3747,
      "mag": 3748,
      "ost": 3749,
      "pool": 3750,
      "rnam": 3751,
      "sion": 3752,
      "training": 3753,
      "vi": 3754,
      "vice": 3755,
      "yx": 3756,
      "rent": 3757,
      "reak": 3758,
      "thic": 3759,
      "thful": 3760,
      "eri": 3761,
      "eral": 3762,
      "erator": 3763,
      "around": 3764,
      "enlist": 3765,
      "enlightened": 3766,
      "inside": 3767,
      "ony": 3768,
      "rog": 3769,
      "toy": 3770,
      "elun": 3771,
      "henni": 3772,
      "raz": 3773,
      "ithir": 3774,
      "utter": 3775,
      "within": 3776,
      "forman": 3777,
      "antes": 3778,
      "modular": 3779,
      "una": 3780,
      "whom": 3781,
      "allen": 3782,
      "Reg": 3783,
      "Reju": 3784,
      "colle": 3785,
      "she": 3786,
      "tournam": 3787,
      "Chim": 3788,
      "meters": 3789,
      "outlast": 3790,
      "omly": 3791,
      "prote": 3792,
      "ief": 3793,
      "olve": 3794,
      "removes": 3795,
      "backup": 3796,
      "choosing": 3797,
      "vention": 3798,
      "cru": 3799,
      "Annihil": 3800,
      "Godo": 3801,
      "Inspiration": 3802,
      "Form": 3803,
      "such": 3804,
      "hiri": 3805,
      "poisonous": 3806,
      "impres": 3807,
      "Beasts": 3808,
      "Cloud": 3809,
      "declaring": 3810,
      "venation": 3811,
      "}.\")": 3812,
      "Stat": 3813,
      "Nonlegendary": 3814,
      "ounds": 3815,
      "Assemble": 3816,
      "Frost": 3817,
      "Deser": 3818,
      "Skithir": 3819,
      "Body": 3820,
      "versa": 3821,
      "Hellion": 3822,
      "Nothing": 3823,
      "normal": 3824,
      "continue": 3825,
      "atchling": 3826,
      "thirty": 3827,
      "likewise": 3828,
      "ission": 3829,
      "Assign": 3830,
      "Team": 3831,
      "Ripple": 3832,
      "increased": 3833,
      "bidder": 3834,
      "Bruna": 3835,
      "Gorgon": 3836,
      "world": 3837,
      "travel": 3838,
      "Shield": 3839,
      "Animar": 3840,
      "small": 3841,
      "Geist": 3842,
      "Nahiri": 3843,
      "refers": 3844,
      "Cannon": 3845,
      "Feed": 3846,
      "Newt": 3847,
      "Yanling": 3848,
      "aggressive": 3849,
      "Broken": 3850,
      "pieces": 3851,
      "shoe": 3852,
      "Randomly": 3853,
      "Tinkering": 3854,
      "correctly": 3855,
      "Mystic": 3856,
      "Binding": 3857,
      "Gnome": 3858,
      "Icingdeath": 3859,
      "Iymrith": 3860,
      "Juri": 3861,
      "Jackal": 3862,
      "Ramos": 3863,
      "Rowan": 3864,
      "Risona": 3865,
      "Svyelun": 3866,
      "Yahenni": 3867,
      "Yusri": 3868,
      "eyeb": 3869,
      "front": 3870,
      "label": 3871,
      "enlists": 3872,
      "Rejuvenation": 3873,
      "tournament": 3874,
      "protect": 3875,
      "Annihilation": 3876,
      "impressive": 3877,
      "Skithiryx": 3878,
      "\",": 3879,
      "\"[+": 3880,
      "40": 3881,
      "?\"": 3882,
      "AD": 3883,
      "AR": 3884,
      "Au": 3885,
      "Aeve": 3886,
      "BJ": 3887,
      "Bow": 3888,
      "Bad": 3889,
      "Bess": 3890,
      "Cr": 3891,
      "Cook": 3892,
      "Crow": 3893,
      "Dan": 3894,
      "Die": 3895,
      "Dene": 3896,
      "Dyn": 3897,
      "Drop": 3898,
      "ET": 3899,
      "ECTI": 3900,
      "EAD": 3901,
      "Growth": 3902,
      "Gift": 3903,
      "GET": 3904,
      "HA": 3905,
      "How": 3906,
      "Hokey": 3907,
      "Ima": 3908,
      "Jar": 3909,
      "Jay": 3910,
      "Jele": 3911,
      "Jareth": 3912,
      "Kiy": 3913,
      "Lena": 3914,
      "Like": 3915,
      "Mask": 3916,
      "Oka": 3917,
      "Oros": 3918,
      "OBJ": 3919,
      "Pa": 3920,
      "Pra": 3921,
      "Pact": 3922,
      "Pipp": 3923,
      "Pokey": 3924,
      "Rig": 3925,
      "Rho": 3926,
      "READ": 3927,
      "Sis": 3928,
      "Snow": 3929,
      "TO": 3930,
      "Tab": 3931,
      "Tom": 3932,
      "Tele": 3933,
      "Ul": 3934,
      "Wis": 3935,
      "Wast": 3936,
      "Wha": 3937,
      "WIN": 3938,
      "aaz": 3939,
      "aegis": 3940,
      "carri": 3941,
      "d4": 3942,
      "dou": 3943,
      "d10": 3944,
      "ey": 3945,
      "eon": 3946,
      "eom": 3947,
      "far": 3948,
      "fame": 3949,
      "fold": 3950,
      "found": 3951,
      "gers": 3952,
      "gory": 3953,
      "hom": 3954,
      "hol": 3955,
      "hip": 3956,
      "hatchling": 3957,
      "icore": 3958,
      "junk": 3959,
      "large": 3960,
      "med": 3961,
      "mission": 3962,
      "par": 3963,
      "ponent": 3964,
      "pup": 3965,
      "ptor": 3966,
      "pict": 3967,
      "rise": 3968,
      "sle": 3969,
      "said": 3970,
      "train": 3971,
      "tune": 3972,
      "titan": 3973,
      "ust": 3974,
      "ude": 3975,
      "uld": 3976,
      "ugh": 3977,
      "umon": 3978,
      "vold": 3979,
      "wall": 3980,
      "years": 3981,
      "zation": 3982,
      "rece": 3983,
      "reverse": 3984,
      "thor": 3985,
      "thal": 3986,
      "through": 3987,
      "ari": 3988,
      "arix": 3989,
      "arika": 3990,
      "engard": 3991,
      "inate": 3992,
      "ination": 3993,
      "infin": 3994,
      "these": 3995,
      "lent": 3996,
      "gem": 3997,
      "geki": 3998,
      "stage": 3999,
      "tose": 4000,
      "tower": 4001,
      "orax": 4002,
      "isan": 4003,
      "atter": 4004,
      "attraction": 4005,
      "ammy": 4006,
      "chip": 4007,
      "chtitan": 4008,
      "plot": 4009,
      "astic": 4010,
      "beat": 4011,
      "became": 4012,
      "utes": 4013,
      "event": 4014,
      "evid": 4015,
      "spear": 4016,
      "spark": 4017,
      "rie": 4018,
      "riot": 4019,
      "forged": 4020,
      "fortune": 4021,
      "ibou": 4022,
      "cano": 4023,
      "cannot": 4024,
      "Throw": 4025,
      "epic": 4026,
      "uper": 4027,
      "modes": 4028,
      "ockwise": 4029,
      "unity": 4030,
      "permission": 4031,
      "tivate": 4032,
      "whammy": 4033,
      "alliter": 4034,
      "Retri": 4035,
      "Regrowth": 4036,
      "Recru": 4037,
      "cols": 4038,
      "Eng": 4039,
      "Enki": 4040,
      "component": 4041,
      "uest": 4042,
      "show": 4043,
      "nonblue": 4044,
      "noncommander": 4045,
      "added": 4046,
      "arest": 4047,
      "ametra": 4048,
      "itional": 4049,
      "Chains": 4050,
      "Charix": 4051,
      "meter": 4052,
      "igaaz": 4053,
      "omaro": 4054,
      "Spiders": 4055,
      "ivan": 4056,
      "ivers": 4057,
      "ickkn": 4058,
      "clockwise": 4059,
      "criter": 4060,
      "Place": 4061,
      "Isengard": 4062,
      "estalk": 4063,
      "Warp": 4064,
      "ulptor": 4065,
      "ived": 4066,
      "ized": 4067,
      "embark": 4068,
      "Sheep": 4069,
      "falls": 4070,
      "poisoned": 4071,
      "ownership": 4072,
      "Behol": 4073,
      "voter": 4074,
      "ansom": 4075,
      "answer": 4076,
      "Rak": 4077,
      "Copies": 4078,
      "minutes": 4079,
      "Stang": 4080,
      "Mechtitan": 4081,
      "opens": 4082,
      "Warden": 4083,
      "goal": 4084,
      "Mutant": 4085,
      "Dominate": 4086,
      "LET": 4087,
      "decide": 4088,
      "Perrie": 4089,
      "Foretelling": 4090,
      "Heroes": 4091,
      "Souls": 4092,
      "Contract": 4093,
      "Sky": 4094,
      "Skull": 4095,
      "Skanos": 4096,
      "prey": 4097,
      "object": 4098,
      "include": 4099,
      "transformed": 4100,
      "akon": 4101,
      "Reverse": 4102,
      "peace": 4103,
      "Inter": 4104,
      "Intet": 4105,
      "199": 4106,
      "Moria": 4107,
      "Redhorn": 4108,
      "secrets": 4109,
      "volcano": 4110,
      "Protocols": 4111,
      "Hyper": 4112,
      "briar": 4113,
      "Barbar": 4114,
      "category": 4115,
      "Korvold": 4116,
      "flings": 4117,
      "Underworld": 4118,
      "Thrulls": 4119,
      "Halflings": 4120,
      "Planeswalker": 4121,
      "someone": 4122,
      "Grist": 4123,
      "soulbond": 4124,
      "Para": 4125,
      "descent": 4126,
      "healing": 4127,
      "nearest": 4128,
      "Ballard": 4129,
      "Timin": 4130,
      "bloodthirst": 4131,
      "Hammer": 4132,
      "Homarids": 4133,
      "Guard": 4134,
      "Brisela": 4135,
      "Kotose": 4136,
      "Voja": 4137,
      "known": 4138,
      "knickkn": 4139,
      "watermarks": 4140,
      "Tourach": 4141,
      "Darigaaz": 4142,
      "Weird": 4143,
      "Walker": 4144,
      "intervention": 4145,
      "Secrets": 4146,
      "Cauld": 4147,
      "Karumon": 4148,
      "Karametra": 4149,
      "Shigeki": 4150,
      "alphabe": 4151,
      "Sigard": 4152,
      "works": 4153,
      "Imoen": 4154,
      "duplicates": 4155,
      "balanced": 4156,
      "Rapid": 4157,
      "Whispers": 4158,
      "Imps": 4159,
      "Virtus": 4160,
      "Haakon": 4161,
      "Lobelia": 4162,
      "Psychic": 4163,
      "Sarulf": 4164,
      "Terror": 4165,
      "Tieflings": 4166,
      "Titania": 4167,
      "carnage": 4168,
      "fellowship": 4169,
      "laugh": 4170,
      "alyzation": 4171,
      "contested": 4172,
      "tically": 4173,
      "Shelob": 4174,
      "Beebles": 4175,
      "Stoneforged": 4176,
      "Caribou": 4177,
      "Epic": 4178,
      "formance": 4179,
      "collector": 4180,
      "Statue": 4181,
      "eyeball": 4182,
      "protects": 4183,
      "Cookbook": 4184,
      "Denethor": 4185,
      "Dynastic": 4186,
      "ECTIVE": 4187,
      "Imagin": 4188,
      "Jaya": 4189,
      "Jeleva": 4190,
      "Kiyomaro": 4191,
      "Okaun": 4192,
      "OBJECTIVE": 4193,
      "Pippin": 4194,
      "Rhoda": 4195,
      "READY": 4196,
      "Sisay": 4197,
      "Taborax": 4198,
      "Telep": 4199,
      "Wisdom": 4200,
      "Whale": 4201,
      "carrion": 4202,
      "doubles": 4203,
      "eyestalk": 4204,
      "eomer": 4205,
      "homage": 4206,
      "junkyard": 4207,
      "paralyzation": 4208,
      "pupa": 4209,
      "picture": 4210,
      "trains": 4211,
      "received": 4212,
      "infinite": 4213,
      "evidence": 4214,
      "alliterative": 4215,
      "Recruiter": 4216,
      "Enkira": 4217,
      "criteria": 4218,
      "Beholder": 4219,
      "Stangg": 4220,
      "Skullbriar": 4221,
      "Barbarian": 4222,
      "knickknack": 4223,
      "Cauldron": 4224,
      "Karumonix": 4225,
      "26": 4226,
      "Az": 4227,
      "Are": 4228,
      "Ath": 4229,
      "Ba": 4230,
      "Below": 4231,
      "Butter": 4232,
      "Cure": 4233,
      "Cal": 4234,
      "Cam": 4235,
      "Cell": 4236,
      "Coil": 4237,
      "Cali": 4238,
      "Capt": 4239,
      "CHA": 4240,
      "Den": 4241,
      "Drone": 4242,
      "Diss": 4243,
      "Earth": 4244,
      "Fr": 4245,
      "Feld": 4246,
      "Gen": 4247,
      "Gand": 4248,
      "Gent": 4249,
      "Give": 4250,
      "Grenz": 4251,
      "Her": 4252,
      "Hack": 4253,
      "Here": 4254,
      "Ivy": 4255,
      "Jor": 4256,
      "Jir": 4257,
      "Jol": 4258,
      "Jho": 4259,
      "Just": 4260,
      "Ku": 4261,
      "Kan": 4262,
      "Kade": 4263,
      "Keen": 4264,
      "Koma": 4265,
      "Last": 4266,
      "Lib": 4267,
      "Lore": 4268,
      "Mant": 4269,
      "Mid": 4270,
      "Mind": 4271,
      "Mouse": 4272,
      "Nur": 4273,
      "Natural": 4274,
      "OS": 4275,
      "Off": 4276,
      "Po": 4277,
      "Part": 4278,
      "Pool": 4279,
      "Rur": 4280,
      "Ros": 4281,
      "Rain": 4282,
      "Room": 4283,
      "Si": 4284,
      "Sm": 4285,
      "Sen": 4286,
      "Saur": 4287,
      "TE": 4288,
      "Tu": 4289,
      "Tam": 4290,
      "Tol": 4291,
      "Tuk": 4292,
      "Ver": 4293,
      "Vish": 4294,
      "Witch": 4295,
      "Wind": 4296,
      "Wounds": 4297,
      "Yash": 4298,
      "Yisan": 4299,
      "Zub": 4300,
      "Zareth": 4301,
      "ave": 4302,
      "big": 4303,
      "cir": 4304,
      "d8": 4305,
      "dle": 4306,
      "fur": 4307,
      "fading": 4308,
      "gone": 4309,
      "hw": 4310,
      "io": 4311,
      "ira": 4312,
      "kick": 4313,
      "lv": 4314,
      "lower": 4315,
      "mar": 4316,
      "mit": 4317,
      "ming": 4318,
      "mic": 4319,
      "ng": 4320,
      "none": 4321,
      "nus": 4322,
      "natural": 4323,
      "oh": 4324,
      "ome": 4325,
      "pel": 4326,
      "pass": 4327,
      "ray": 4328,
      "rate": 4329,
      "son": 4330,
      "sense": 4331,
      "super": 4332,
      "tuk": 4333,
      "uz": 4334,
      "wyn": 4335,
      "xos": 4336,
      "ya": 4337,
      "yvar": 4338,
      "zes": 4339,
      "zero": 4340,
      "}'": 4341,
      "reos": 4342,
      "remo": 4343,
      "revi": 4344,
      "arkey": 4345,
      "anim": 4346,
      "anger": 4347,
      "enhw": 4348,
      "ina": 4349,
      "too": 4350,
      "tote": 4351,
      "ital": 4352,
      "eland": 4353,
      "amil": 4354,
      "ase": 4355,
      "champion": 4356,
      "itha": 4357,
      "rid": 4358,
      "exploit": 4359,
      "osition": 4360,
      "Additional": 4361,
      "bling": 4362,
      "Young": 4363,
      "Thar": 4364,
      "Thrun": 4365,
      "und": 4366,
      "unn": 4367,
      "perform": 4368,
      "permanently": 4369,
      "Deep": 4370,
      "Derevi": 4371,
      "ateg": 4372,
      "ghost": 4373,
      "adventure": 4374,
      "ments": 4375,
      "ical": 4376,
      "Returned": 4377,
      "ashi": 4378,
      "ootw": 4379,
      "igans": 4380,
      "iver": 4381,
      "iest": 4382,
      "click": 4383,
      "claw": 4384,
      "mull": 4385,
      "Sweep": 4386,
      "phasing": 4387,
      "ewer": 4388,
      "Arm": 4389,
      "Drag": 4390,
      "rease": 4391,
      "Warform": 4392,
      "Elder": 4393,
      "winner": 4394,
      "Shivan": 4395,
      "Sharkey": 4396,
      "former": 4397,
      "formation": 4398,
      "mythic": 4399,
      "Royal": 4400,
      "teran": 4401,
      "Nonwhite": 4402,
      "Arcanum": 4403,
      "yrr": 4404,
      "against": 4405,
      "Piru": 4406,
      "Outlaw": 4407,
      "Horrors": 4408,
      "heart": 4409,
      "repeats": 4410,
      "awaken": 4411,
      "Snakes": 4412,
      "Magical": 4413,
      "Boon": 4414,
      "version": 4415,
      "Deserts": 4416,
      "Illusions": 4417,
      "Shagr": 4418,
      "Oozes": 4419,
      "Germany": 4420,
      "ortex": 4421,
      "explos": 4422,
      "Repose": 4423,
      "Log": 4424,
      "Lost": 4425,
      "Loyal": 4426,
      "ifters": 4427,
      "ixir": 4428,
      "Heal": 4429,
      "Heart": 4430,
      "marked": 4431,
      "Breya": 4432,
      "denial": 4433,
      "Laelia": 4434,
      "designed": 4435,
      "need": 4436,
      "Marwyn": 4437,
      "azol": 4438,
      "Archer": 4439,
      "Archon": 4440,
      "earned": 4441,
      "Guenhw": 4442,
      "Notebook": 4443,
      "Radha": 4444,
      "Traxos": 4445,
      "Advisor": 4446,
      "Dispel": 4447,
      "Satyrs": 4448,
      "stops": 4449,
      "Sigrid": 4450,
      "horns": 4451,
      "Balan": 4452,
      "PLAYER": 4453,
      "affinity": 4454,
      "afflict": 4455,
      "iyo": 4456,
      "Protector": 4457,
      "...": 4458,
      "stands": 4459,
      "renzy": 4460,
      "\"~\"": 4461,
      "Strateg": 4462,
      "wings": 4463,
      "recently": 4464,
      "AskUrza": 4465,
      "Servant": 4466,
      "Kaito": 4467,
      "Narset": 4468,
      "Stenn": 4469,
      "Torment": 4470,
      "cuit": 4471,
      "magnet": 4472,
      "Chimera": 4473,
      "Danitha": 4474,
      "Jarad": 4475,
      "Wastes": 4476,
      "Retriever": 4477,
      "Engulf": 4478,
      "alphabetically": 4479,
      "Sigarda": 4480,
      "Athreos": 4481,
      "Butterfly": 4482,
      "Calix": 4483,
      "Captain": 4484,
      "CHAOS": 4485,
      "Dissolve": 4486,
      "Feldon": 4487,
      "Gandalf": 4488,
      "Gentle": 4489,
      "Grenzo": 4490,
      "Hacker": 4491,
      "Jirina": 4492,
      "Jhoira": 4493,
      "Kanar": 4494,
      "Kadeen": 4495,
      "Liberator": 4496,
      "Midnight": 4497,
      "Party": 4498,
      "Ruric": 4499,
      "Simultaneously": 4500,
      "Smash": 4501,
      "Sauron": 4502,
      "Tutor": 4503,
      "Tamiyo": 4504,
      "Toluz": 4505,
      "Tuktuk": 4506,
      "Verazol": 4507,
      "Yasharn": 4508,
      "Zubera": 4509,
      "removing": 4510,
      "totem": 4511,
      "exploited": 4512,
      "ghostform": 4513,
      "Shagrat": 4514,
      "Guenhwyvar": 4515,
      "16": 4516,
      "Aven": 4517,
      "Avoid": 4518,
      "Ayes": 4519,
      "Aether": 4520,
      "Arab": 4521,
      "Ban": 4522,
      "Bil": 4523,
      "Bland": 4524,
      "Bub": 4525,
      "Bolt": 4526,
      "Bright": 4527,
      "Bio": 4528,
      "Cy": 4529,
      "Cep": 4530,
      "Cold": 4531,
      "Cros": 4532,
      "Carth": 4533,
      "DI": 4534,
      "Done": 4535,
      "Down": 4536,
      "Dum": 4537,
      "Ever": 4538,
      "Every": 4539,
      "Efree": 4540,
      "Fles": 4541,
      "Fren": 4542,
      "Fires": 4543,
      "Find": 4544,
      "Farid": 4545,
      "Famil": 4546,
      "Gat": 4547,
      "Gro": 4548,
      "Gunk": 4549,
      "Guest": 4550,
      "His": 4551,
      "Hive": 4552,
      "Hob": 4553,
      "Hix": 4554,
      "Haz": 4555,
      "Jab": 4556,
      "Jare": 4557,
      "Ker": 4558,
      "Kam": 4559,
      "Kose": 4560,
      "Kange": 4561,
      "Khor": 4562,
      "KNev": 4563,
      "Ll": 4564,
      "Lab": 4565,
      "Lot": 4566,
      "Laur": 4567,
      "Mow": 4568,
      "Mate": 4569,
      "Miss": 4570,
      "Ni": 4571,
      "Nat": 4572,
      "Nation": 4573,
      "Omar": 4574,
      "Proud": 4575,
      "Present": 4576,
      "Pier": 4577,
      "Rit": 4578,
      "Rel": 4579,
      "Rab": 4580,
      "Ransom": 4581,
      "Son": 4582,
      "Sto": 4583,
      "Sch": 4584,
      "Smo": 4585,
      "Song": 4586,
      "Sacrific": 4587,
      "Ste": 4588,
      "Seven": 4589,
      "Sum": 4590,
      "Sza": 4591,
      "Syn": 4592,
      "Some": 4593,
      "Tur": 4594,
      "Tell": 4595,
      "Town": 4596,
      "Tem": 4597,
      "Trap": 4598,
      "Tail": 4599,
      "TAR": 4600,
      "UE": 4601,
      "Uk": 4602,
      "Ugin": 4603,
      "Vr": 4604,
      "Vill": 4605,
      "Void": 4606,
      "Vial": 4607,
      "With": 4608,
      "Would": 4609,
      "Wime": 4610,
      "Wild": 4611,
      "Yu": 4612,
      "Yang": 4613,
      "Znd": 4614,
      "Zeth": 4615,
      "aan": 4616,
      "afl": 4617,
      "bble": 4618,
      "brew": 4619,
      "break": 4620,
      "braz": 4621,
      "close": 4622,
      "casualty": 4623,
      "dr": 4624,
      "dane": 4625,
      "etor": 4626,
      "fing": 4627,
      "fess": 4628,
      "feri": 4629,
      "footw": 4630,
      "ga": 4631,
      "gth": 4632,
      "gle": 4633,
      "gis": 4634,
      "gra": 4635,
      "gbrew": 4636,
      "hal": 4637,
      "hold": 4638,
      "iac": 4639,
      "imb": 4640,
      "joke": 4641,
      "jud": 4642,
      "king": 4643,
      "late": 4644,
      "mard": 4645,
      "mus": 4646,
      "mph": 4647,
      "midd": 4648,
      "nequ": 4649,
      "nity": 4650,
      "num": 4651,
      "og": 4652,
      "py": 4653,
      "pain": 4654,
      "ption": 4655,
      "paren": 4656,
      "rk": 4657,
      "ran": 4658,
      "rall": 4659,
      "rite": 4660,
      "range": 4661,
      "rison": 4662,
      "rspl": 4663,
      "rata": 4664,
      "sch": 4665,
      "song": 4666,
      "tch": 4667,
      "treasure": 4668,
      "tify": 4669,
      "ual": 4670,
      "ubl": 4671,
      "uster": 4672,
      "uthful": 4673,
      "vath": 4674,
      "wn": 4675,
      "wers": 4676,
      "wrap": 4677,
      "wild": 4678,
      "xus": 4679,
      "yet": 4680,
      "yser": 4681,
      "zones": 4682,
      "{}.": 4683,
      "reset": 4684,
      "revers": 4685,
      "threat": 4686,
      "throw": 4687,
      "atic": 4688,
      "ought": 4689,
      "nts": 4690,
      "ernalize": 4691,
      "ars": 4692,
      "anow": 4693,
      "enie": 4694,
      "ension": 4695,
      "inator": 4696,
      "theses": 4697,
      "ures": 4698,
      "lek": 4699,
      "geyser": 4700,
      "ons": 4701,
      "stal": 4702,
      "stash": 4703,
      "store": 4704,
      "stren": 4705,
      "steal": 4706,
      "stakes": 4707,
      "roch": 4708,
      "rosh": 4709,
      "today": 4710,
      "orous": 4711,
      "orfin": 4712,
      "itt": 4713,
      "elos": 4714,
      "ellect": 4715,
      "isol": 4716,
      "isions": 4717,
      "ald": 4718,
      "alive": 4719,
      "attered": 4720,
      "urrk": 4721,
      "amb": 4722,
      "amorous": 4723,
      "veteran": 4724,
      "asma": 4725,
      "aska": 4726,
      "asmic": 4727,
      "rant": 4728,
      "choses": 4729,
      "challen": 4730,
      "dek": 4731,
      "demonstr": 4732,
      "beta": 4733,
      "ution": 4734,
      "mannequ": 4735,
      "ending": 4736,
      "endant": 4737,
      "pping": 4738,
      "spite": 4739,
      "ceed": 4740,
      "ries": 4741,
      "riek": 4742,
      "ripple": 4743,
      "acks": 4744,
      "oss": 4745,
      "osis": 4746,
      "mber": 4747,
      "ants": 4748,
      "ows": 4749,
      "cani": 4750,
      "kens": 4751,
      "Though": 4752,
      "Through": 4753,
      "Thief": 4754,
      "}.'\"": 4755,
      "quill": 4756,
      "moc": 4757,
      "tab": 4758,
      "tax": 4759,
      "tapping": 4760,
      "unger": 4761,
      "perfect": 4762,
      "Regener": 4763,
      "Remin": 4764,
      "aph": 4765,
      "aphe": 4766,
      "derm": 4767,
      "combo": 4768,
      "combine": 4769,
      "Dece": 4770,
      "dox": 4771,
      "shark": 4772,
      "ldr": 4773,
      "nonred": 4774,
      "early": 4775,
      "ional": 4776,
      "adapt": 4777,
      "underne": 4778,
      "Except": 4779,
      "Excess": 4780,
      "Exec": 4781,
      "sorry": 4782,
      "icator": 4783,
      "icized": 4784,
      "shuffled": 4785,
      "Chosen": 4786,
      "mean": 4787,
      "based": 4788,
      "ids": 4789,
      "bottle": 4790,
      "illa": 4791,
      "proceed": 4792,
      "Space": 4793,
      "Spinn": 4794,
      "Spara": 4795,
      "Spec": 4796,
      "Sprite": 4797,
      "usk": 4798,
      "stral": 4799,
      "athy": 4800,
      "athoin": 4801,
      "clue": 4802,
      "oret": 4803,
      "crystal": 4804,
      "Plague": 4805,
      "Inc": 4806,
      "Arashi": 4807,
      "Fortify": 4808,
      "Attendant": 4809,
      "foreshadow": 4810,
      "Dragonfire": 4811,
      "Allons": 4812,
      "suo": 4813,
      "Slinger": 4814,
      "Slaan": 4815,
      "Slurrk": 4816,
      "Shattered": 4817,
      "Shriek": 4818,
      "format": 4819,
      "Unless": 4820,
      "Unblocked": 4821,
      "Unquestion": 4822,
      "Univers": 4823,
      "ations": 4824,
      "Roxi": 4825,
      "Tokens": 4826,
      "eternalize": 4827,
      "Slivercycling": 4828,
      "Beam": 4829,
      "Orb": 4830,
      "devoid": 4831,
      "answers": 4832,
      "ists": 4833,
      "imagic": 4834,
      "everyone": 4835,
      "truthful": 4836,
      "mined": 4837,
      "State": 4838,
      "petuous": 4839,
      "dungeons": 4840,
      "find": 4841,
      "zied": 4842,
      "Immard": 4843,
      "Impetuous": 4844,
      "Seraph": 4845,
      "gobble": 4846,
      "renown": 4847,
      "rency": 4848,
      "Alena": 4849,
      "gamma": 4850,
      "integ": 4851,
      "intori": 4852,
      "Motivate": 4853,
      "Mogis": 4854,
      "Adjud": 4855,
      "check": 4856,
      "ploye": 4857,
      "decides": 4858,
      "decrease": 4859,
      "decisions": 4860,
      "Performer": 4861,
      "avy": 4862,
      "Scrap": 4863,
      "Contortion": 4864,
      "Mulldr": 4865,
      "Spikes": 4866,
      "DevilKNev": 4867,
      "forestcycling": 4868,
      "weenie": 4869,
      "Wurms": 4870,
      "Bogbrew": 4871,
      "Nights": 4872,
      "bring": 4873,
      "arms": 4874,
      "exchanged": 4875,
      "Intellect": 4876,
      "Ley": 4877,
      "Lethal": 4878,
      "Shabraz": 4879,
      "Ascendant": 4880,
      "Sketch": 4881,
      "Renewer": 4882,
      "Krav": 4883,
      "explains": 4884,
      "Hyphen": 4885,
      "Corrupter": 4886,
      "torture": 4887,
      "Hald": 4888,
      "Halana": 4889,
      "Current": 4890,
      "Korlash": 4891,
      "clears": 4892,
      "Employe": 4893,
      "eleven": 4894,
      "Battlements": 4895,
      "Heavy": 4896,
      "Garrison": 4897,
      "Mirran": 4898,
      "Tezz": 4899,
      "Teferi": 4900,
      "Rider": 4901,
      "sliver": 4902,
      "ney": 4903,
      "device": 4904,
      "sculptor": 4905,
      "points": 4906,
      "Timey": 4907,
      "balance": 4908,
      "enemy": 4909,
      "sectors": 4910,
      "Archelos": 4911,
      "Assassins": 4912,
      "cerous": 4913,
      "glass": 4914,
      "Guan": 4915,
      "berman": 4916,
      "items": 4917,
      "Gorilla": 4918,
      "Vorosh": 4919,
      "delve": 4920,
      "Reflections": 4921,
      "buyback": 4922,
      "Sorcerous": 4923,
      "credits": 4924,
      "interplanar": 4925,
      "tified": 4926,
      "Disenchant": 4927,
      "Disinteg": 4928,
      "jumping": 4929,
      "Sanwell": 4930,
      "Xenos": 4931,
      "currency": 4932,
      "determined": 4933,
      "switched": 4934,
      "Crabs": 4935,
      "Balrog": 4936,
      "Protege": 4937,
      "Fighting": 4938,
      "Glorfin": 4939,
      "Glamorous": 4940,
      "Imodane": 4941,
      "Sylv": 4942,
      "Solafl": 4943,
      "Tetsuo": 4944,
      "sunset": 4945,
      "sunrise": 4946,
      "duplication": 4947,
      "balancing": 4948,
      "Antimagic": 4949,
      "Burst": 4950,
      "Brian": 4951,
      "Blaster": 4952,
      "Callaphe": 4953,
      "Gaea": 4954,
      "Muxus": 4955,
      "Prism": 4956,
      "fangs": 4957,
      "Brainiac": 4958,
      "Braingeyser": 4959,
      "Circuit": 4960,
      "Dalek": 4961,
      "History": 4962,
      "Quintori": 4963,
      "defense": 4964,
      "erette": 4965,
      "Flavorful": 4966,
      "Caverns": 4967,
      "Survivor": 4968,
      "Survivors": 4969,
      "Acid": 4970,
      "Maarika": 4971,
      "Regna": 4972,
      "Deserter": 4973,
      "Auroch": 4974,
      "Crash": 4975,
      "Praetor": 4976,
      "Tomcani": 4977,
      "medium": 4978,
      "Rakish": 4979,
      "Skyshark": 4980,
      "Paradox": 4981,
      "laughed": 4982,
      "Telepathy": 4983,
      "France": 4984,
      "Heresy": 4985,
      "Manticore": 4986,
      "Nurgle": 4987,
      "fury": 4988,
      "italicized": 4989,
      "claws": 4990,
      "awakening": 4991,
      "Healing": 4992,
      "...?": 4993,
      "Avenger": 4994,
      "Avoidance": 4995,
      "Ayesha": 4996,
      "Aetherborn": 4997,
      "Arabian": 4998,
      "Bilbo": 4999,
      "Bubbling": 5000,
      "Cyberman": 5001,
      "Cephal": 5002,
      "Carthalion": 5003,
      "DIS": 5004,
      "Dumathoin": 5005,
      "Everflame": 5006,
      "Efreet": 5007,
      "Flesh": 5008,
      "Frenzied": 5009,
      "Guests": 5010,
      "Hixus": 5011,
      "Hazoret": 5012,
      "Jared": 5013,
      "Keranos": 5014,
      "Kamber": 5015,
      "Kosei": 5016,
      "Kangee": 5017,
      "Khorvath": 5018,
      "Llanow": 5019,
      "Lotus": 5020,
      "Laurine": 5021,
      "Mowu": 5022,
      "Missile": 5023,
      "Nicol": 5024,
      "Nature": 5025,
      "National": 5026,
      "Omarthis": 5027,
      "Piercer": 5028,
      "Sacrificing": 5029,
      "Szadek": 5030,
      "Synap": 5031,
      "Something": 5032,
      "Turtle": 5033,
      "Temple": 5034,
      "TARDIS": 5035,
      "Vraska": 5036,
      "Wimey": 5037,
      "Yanggu": 5038,
      "Zndrspl": 5039,
      "Zethi": 5040,
      "drink": 5041,
      "fingers": 5042,
      "fessional": 5043,
      "footwear": 5044,
      "music": 5045,
      "middle": 5046,
      "numeral": 5047,
      "parentheses": 5048,
      "reversed": 5049,
      "strength": 5050,
      "isolation": 5051,
      "demonstration": 5052,
      "mannequin": 5053,
      "Regeneration": 5054,
      "Reminder": 5055,
      "adapts": 5056,
      "underneath": 5057,
      "Execution": 5058,
      "icators": 5059,
      "Spinnerette": 5060,
      "Species": 5061,
      "Plaguebearer": 5062,
      "Slaanesh": 5063,
      "Shrieking": 5064,
      "Unquestionable": 5065,
      "truthfully": 5066,
      "Adjudicators": 5067,
      "Contortionist": 5068,
      "DevilKNevil": 5069,
      "Hyphenated": 5070,
      "Employee": 5071,
      "Tezzeret": 5072,
      "slivercycling": 5073,
      "Glorfindel": 5074,
      "Sylvia": 5075,
      "Solaflora": 5076,
      "Quintorius": 5077,
      "Aurochs": 5078,
      "Llanowar": 5079,
      "Zndrsplt": 5080,
      "04": 5081,
      "704": 5082,
      "Ax": 5083,
      "Age": 5084,
      "Ace": 5085,
      "Astral": 5086,
      "Braw": 5087,
      "Bue": 5088,
      "Bew": 5089,
      "Bet": 5090,
      "Blessing": 5091,
      "Bidd": 5092,
      "Brush": 5093,
      "Catt": 5094,
      "Cra": 5095,
      "Cap": 5096,
      "Civ": 5097,
      "Clo": 5098,
      "Carn": 5099,
      "Day": 5100,
      "Doom": 5101,
      "Ether": 5102,
      "Fo": 5103,
      "Fin": 5104,
      "Fast": 5105,
      "Foil": 5106,
      "Found": 5107,
      "FIN": 5108,
      "Frenzy": 5109,
      "Gw": 5110,
      "Great": 5111,
      "Gore": 5112,
      "Grow": 5113,
      "Hire": 5114,
      "Heads": 5115,
      "Haze": 5116,
      "Iro": 5117,
      "Ich": 5118,
      "Icy": 5119,
      "ITE": 5120,
      "Ki": 5121,
      "Kant": 5122,
      "Krup": 5123,
      "Kitt": 5124,
      "Lag": 5125,
      "Mach": 5126,
      "Mart": 5127,
      "Mold": 5128,
      "Met": 5129,
      "Mult": 5130,
      "Make": 5131,
      "Mama": 5132,
      "Nad": 5133,
      "Neg": 5134,
      "ON": 5135,
      "OW": 5136,
      "Ob": 5137,
      "Opp": 5138,
      "Obu": 5139,
      "Pe": 5140,
      "Py": 5141,
      "Pac": 5142,
      "Phen": 5143,
      "Pine": 5144,
      "Pak": 5145,
      "Psion": 5146,
      "POW": 5147,
      "Rer": 5148,
      "Run": 5149,
      "Rich": 5150,
      "Sa": 5151,
      "Sle": 5152,
      "Seld": 5153,
      "Sil": 5154,
      "Sell": 5155,
      "Sti": 5156,
      "Sare": 5157,
      "Sid": 5158,
      "Scept": 5159,
      "Sie": 5160,
      "Sma": 5161,
      "Scheme": 5162,
      "Sek": 5163,
      "Satch": 5164,
      "Tan": 5165,
      "Tear": 5166,
      "Tiv": 5167,
      "Tapped": 5168,
      "Tek": 5169,
      "Van": 5170,
      "Viv": 5171,
      "Vron": 5172,
      "Wise": 5173,
      "Wake": 5174,
      "Watch": 5175,
      "Writh": 5176,
      "Zink": 5177,
      "ah": 5178,
      "ales": 5179,
      "air": 5180,
      "ader": 5181,
      "ault": 5182,
      "aud": 5183,
      "burn": 5184,
      "bow": 5185,
      "border": 5186,
      "bann": 5187,
      "cel": 5188,
      "cers": 5189,
      "care": 5190,
      "cator": 5191,
      "catch": 5192,
      "d12": 5193,
      "eak": 5194,
      "flo": 5195,
      "fet": 5196,
      "freak": 5197,
      "gar": 5198,
      "gen": 5199,
      "gly": 5200,
      "hu": 5201,
      "held": 5202,
      "hits": 5203,
      "hir": 5204,
      "hler": 5205,
      "iar": 5206,
      "ield": 5207,
      "igh": 5208,
      "jack": 5209,
      "kel": 5210,
      "lot": 5211,
      "mat": 5212,
      "mfar": 5213,
      "othing": 5214,
      "pact": 5215,
      "pun": 5216,
      "ring": 5217,
      "sent": 5218,
      "sol": 5219,
      "tit": 5220,
      "tains": 5221,
      "task": 5222,
      "uel": 5223,
      "uation": 5224,
      "uous": 5225,
      "van": 5226,
      "vas": 5227,
      "vite": 5228,
      "vious": 5229,
      "vortex": 5230,
      "worn": 5231,
      "wagg": 5232,
      "wald": 5233,
      "zon": 5234,
      "zed": 5235,
      "rera": 5236,
      "rell": 5237,
      "respe": 5238,
      "retains": 5239,
      "threshold": 5240,
      "thrall": 5241,
      "ourer": 5242,
      "erfinal": 5243,
      "errata": 5244,
      "errant": 5245,
      "arity": 5246,
      "anced": 5247,
      "ensive": 5248,
      "inch": 5249,
      "inyrr": 5250,
      "thea": 5251,
      "ona": 5252,
      "cool": 5253,
      "covery": 5254,
      "aces": 5255,
      "accept": 5256,
      "stuck": 5257,
      "anders": 5258,
      "andrix": 5259,
      "els": 5260,
      "elite": 5261,
      "elrod": 5262,
      "elixir": 5263,
      "issor": 5264,
      "iskel": 5265,
      "alith": 5266,
      "alice": 5267,
      "filib": 5268,
      "fives": 5269,
      "urous": 5270,
      "urry": 5271,
      "amax": 5272,
      "raband": 5273,
      "ravite": 5274,
      "deep": 5275,
      "dead": 5276,
      "illeg": 5277,
      "achnus": 5278,
      "utely": 5279,
      "ender": 5280,
      "ended": 5281,
      "ppel": 5282,
      "lyp": 5283,
      "rian": 5284,
      "bler": 5285,
      "blank": 5286,
      "anta": 5287,
      "antom": 5288,
      "iled": 5289,
      "Youthful": 5290,
      "action": 5291,
      "rification": 5292,
      "arterfinal": 5293,
      "Thous": 5294,
      "Throne": 5295,
      "thering": 5296,
      "counterclockwise": 5297,
      "twalk": 5298,
      "mob": 5299,
      "tagame": 5300,
      "taking": 5301,
      "irl": 5302,
      "performance": 5303,
      "happ": 5304,
      "allic": 5305,
      "Reassemb": 5306,
      "Relent": 5307,
      "Recovery": 5308,
      "appl": 5309,
      "Detain": 5310,
      "Enthrall": 5311,
      "abides": 5312,
      "absol": 5313,
      "dog": 5314,
      "doors": 5315,
      "shell": 5316,
      "install": 5317,
      "nonsorcery": 5318,
      "shuffling": 5319,
      "quire": 5320,
      "Charge": 5321,
      "Chalice": 5322,
      "metagame": 5323,
      "itect": 5324,
      "moved": 5325,
      "copying": 5326,
      "ways": 5327,
      "ctuation": 5328,
      "iding": 5329,
      "omination": 5330,
      "provoke": 5331,
      "professional": 5332,
      "Spoil": 5333,
      "ivore": 5334,
      "venturous": 5335,
      "test": 5336,
      "clothing": 5337,
      "diss": 5338,
      "touched": 5339,
      "Anik": 5340,
      "Information": 5341,
      "Invas": 5342,
      "Swarm": 5343,
      "Swiss": 5344,
      "ips": 5345,
      "llink": 5346,
      "Arachnus": 5347,
      "conspire": 5348,
      "conson": 5349,
      "vok": 5350,
      "tried": 5351,
      "body": 5352,
      "ulpt": 5353,
      "ulations": 5354,
      "notes": 5355,
      "lemr": 5356,
      "flipp": 5357,
      "polyp": 5358,
      "ager": 5359,
      "remium": 5360,
      "hix": 5361,
      "banded": 5362,
      "ops": 5363,
      "Phara": 5364,
      "Anya": 5365,
      "Undead": 5366,
      "changes": 5367,
      "Phyrexia": 5368,
      "whole": 5369,
      "Veiled": 5370,
      "Roales": 5371,
      "started": 5372,
      "mulus": 5373,
      "Devourer": 5374,
      "resolve": 5375,
      "Wizardcycling": 5376,
      "Climb": 5377,
      "Coming": 5378,
      "Sub": 5379,
      "rust": 5380,
      "Stalk": 5381,
      "Stref": 5382,
      "petrification": 5383,
      "Ninjas": 5384,
      "Noninstant": 5385,
      "Bandits": 5386,
      "Meet": 5387,
      "Manalith": 5388,
      "zimoc": 5389,
      "represented": 5390,
      "Prowler": 5391,
      "nik": 5392,
      "Squirrellink": 5393,
      "cient": 5394,
      "Triskel": 5395,
      "Buy": 5396,
      "Adrian": 5397,
      "Adventurous": 5398,
      "defined": 5399,
      "corated": 5400,
      "deciding": 5401,
      "aihir": 5402,
      "Performance": 5403,
      "Scissor": 5404,
      "Sculpt": 5405,
      "lich": 5406,
      "liked": 5407,
      "Contraband": 5408,
      "surveils": 5409,
      "Spike": 5410,
      "Shadowheart": 5411,
      "manifestation": 5412,
      "Multiple": 5413,
      "ninety": 5414,
      "previous": 5415,
      "Ameri": 5416,
      "Eternity": 5417,
      "regulations": 5418,
      "bearers": 5419,
      "Leader": 5420,
      "guard": 5421,
      "Prix": 5422,
      "itching": 5423,
      "Skemfar": 5424,
      "Scavengers": 5425,
      "split": 5426,
      "hourglass": 5427,
      "brie": 5428,
      "Shamans": 5429,
      "posting": 5430,
      "Avacy": 5431,
      "seeks": 5432,
      "losing": 5433,
      "booming": 5434,
      "Inklings": 5435,
      "Monks": 5436,
      "Strike": 5437,
      "Break": 5438,
      "Pests": 5439,
      "kima": 5440,
      "Grima": 5441,
      "slide": 5442,
      "111": 5443,
      "Abdel": 5444,
      "Aberrant": 5445,
      "Abomination": 5446,
      "Kalamax": 5447,
      "scries": 5448,
      "!\":": 5449,
      "Timeless": 5450,
      "azir": 5451,
      "hereafter": 5452,
      "Architect": 5453,
      "Archlich": 5454,
      "Homeland": 5455,
      "Graf": 5456,
      "Mini": 5457,
      "Mercenaries": 5458,
      "Bring": 5459,
      "Bladewing": 5460,
      "fifth": 5461,
      "Rascal": 5462,
      "Web": 5463,
      "Karox": 5464,
      "Helm": 5465,
      "INFIN": 5466,
      "current": 5467,
      "begun": 5468,
      "Warlocks": 5469,
      "Reveler": 5470,
      "Artificers": 5471,
      "Salamanders": 5472,
      "Tetravite": 5473,
      "Tetzimoc": 5474,
      "Yannik": 5475,
      "embalmed": 5476,
      "Harvest": 5477,
      "Harpy": 5478,
      "Prince": 5479,
      "Ruin": 5480,
      "Ruel": 5481,
      "Whisper": 5482,
      "Virtuous": 5483,
      "Circle": 5484,
      "Nevinyrr": 5485,
      "Quandrix": 5486,
      "Servos": 5487,
      "000": 5488,
      "Desertwalk": 5489,
      "Badger": 5490,
      "Crown": 5491,
      "Masked": 5492,
      "Paper": 5493,
      "Rigger": 5494,
      "Riggers": 5495,
      "sleep": 5496,
      "sleight": 5497,
      "Guardian": 5498,
      "Imaginary": 5499,
      "Imaginative": 5500,
      "Azor": 5501,
      "Arek": 5502,
      "Calim": 5503,
      "Camarid": 5504,
      "Denry": 5505,
      "Hermit": 5506,
      "Jolene": 5507,
      "Kuhn": 5508,
      "Poison": 5509,
      "Rosie": 5510,
      "Senses": 5511,
      "rayer": 5512,
      "supertypes": 5513,
      "mulligans": 5514,
      "Logt": 5515,
      "Strategist": 5516,
      "Crossing": 5517,
      "Hobbit": 5518,
      "Jabari": 5519,
      "Presenting": 5520,
      "Rites": 5521,
      "Rabbit": 5522,
      "Sonic": 5523,
      "Smoke": 5524,
      "Steal": 5525,
      "Township": 5526,
      "Ukkima": 5527,
      "school": 5528,
      "resets": 5529,
      "proceeded": 5530,
      "Incin": 5531,
      "Haldir": 5532,
      "Disintegr": 5533,
      "Axelrod": 5534,
      "Agents": 5535,
      "Acerera": 5536,
      "Brawl": 5537,
      "Buehler": 5538,
      "Bewitching": 5539,
      "Betrayer": 5540,
      "Bidding": 5541,
      "Brushwagg": 5542,
      "Catti": 5543,
      "Cradle": 5544,
      "Civil": 5545,
      "Cloist": 5546,
      "Carnivore": 5547,
      "Etherium": 5548,
      "Gwaihir": 5549,
      "Gorex": 5550,
      "Hazezon": 5551,
      "Iroas": 5552,
      "Kibler": 5553,
      "Kanto": 5554,
      "Kruphix": 5555,
      "Lagrell": 5556,
      "Multani": 5557,
      "Nadier": 5558,
      "Obzed": 5559,
      "Opposition": 5560,
      "Obuun": 5561,
      "Peer": 5562,
      "Phenax": 5563,
      "Pako": 5564,
      "Psionic": 5565,
      "POWER": 5566,
      "Reroll": 5567,
      "Richard": 5568,
      "Selden": 5569,
      "Stimulus": 5570,
      "Sarevok": 5571,
      "Sidar": 5572,
      "Scepter": 5573,
      "Siege": 5574,
      "Smaug": 5575,
      "Sekki": 5576,
      "Satchel": 5577,
      "Tanazir": 5578,
      "Tivit": 5579,
      "Tekik": 5580,
      "Vanguard": 5581,
      "Vivien": 5582,
      "Vrondiss": 5583,
      "Writhing": 5584,
      "banned": 5585,
      "fetch": 5586,
      "freaking": 5587,
      "glyph": 5588,
      "lots": 5589,
      "filibuster": 5590,
      "illegally": 5591,
      "Thousand": 5592,
      "Reassembling": 5593,
      "Relentless": 5594,
      "Enthralling": 5595,
      "absolutely": 5596,
      "Spoilers": 5597,
      "Anikthea": 5598,
      "Invasion": 5599,
      "consonant": 5600,
      "flipping": 5601,
      "Pharaoh": 5602,
      "Roalesk": 5603,
      "Strefan": 5604,
      "Triskelavite": 5605,
      "Scissors": 5606,
      "American": 5607,
      "Homelands": 5608,
      "INFINITE": 5609,
      "Nevinyrral": 5610,
      "Acererak": 5611,
      "Lagrella": 5612,
      "Obzedat": 5613,
      "\"),": 5614,
      "'-": 5615,
      "/,": 5616,
      "2K": 5617,
      "3s": 5618,
      "98": 5619,
      "99": 5620,
      "AK": 5621,
      "Ale": 5622,
      "Ato": 5623,
      "Ais": 5624,
      "Ash": 5625,
      "Aval": 5626,
      "Aid": 5627,
      "Atom": 5628,
      "Amu": 5629,
      "Aim": 5630,
      "Ashi": 5631,
      "Agg": 5632,
      "Aegis": 5633,
      "ACTI": 5634,
      "ATE": 5635,
      "Ber": 5636,
      "Ben": 5637,
      "Bard": 5638,
      "Bor": 5639,
      "Bev": 5640,
      "Brave": 5641,
      "Bill": 5642,
      "Bank": 5643,
      "Boul": 5644,
      "Banish": 5645,
      "Bened": 5646,
      "Card": 5647,
      "Conce": 5648,
      "Cult": 5649,
      "Crush": 5650,
      "Caz": 5651,
      "CER": 5652,
      "Cutter": 5653,
      "CAR": 5654,
      "Durn": 5655,
      "Dast": 5656,
      "Dep": 5657,
      "Dare": 5658,
      "Dance": 5659,
      "Did": 5660,
      "Dood": 5661,
      "Dungeon": 5662,
      "Dav": 5663,
      "Dawn": 5664,
      "Dani": 5665,
      "Divers": 5666,
      "Eph": 5667,
      "Eruption": 5668,
      "Fer": 5669,
      "Fal": 5670,
      "Fut": 5671,
      "Fend": 5672,
      "Fly": 5673,
      "Four": 5674,
      "Fink": 5675,
      "Fung": 5676,
      "Fier": 5677,
      "Feral": 5678,
      "Fallen": 5679,
      "Field": 5680,
      "Gh": 5681,
      "Gut": 5682,
      "Graveyard": 5683,
      "Gha": 5684,
      "Gown": 5685,
      "Gall": 5686,
      "Gear": 5687,
      "Ghi": 5688,
      "Groom": 5689,
      "Gyr": 5690,
      "Gang": 5691,
      "HR": 5692,
      "Ho": 5693,
      "Hay": 5694,
      "Hall": 5695,
      "Hook": 5696,
      "Hiv": 5697,
      "Hol": 5698,
      "Heat": 5699,
      "Hope": 5700,
      "Hinter": 5701,
      "Hail": 5702,
      "Host": 5703,
      "Hounds": 5704,
      "Hunger": 5705,
      "Iron": 5706,
      "Ji": 5707,
      "Jel": 5708,
      "Jian": 5709,
      "Ka": 5710,
      "Kn": 5711,
      "Kr": 5712,
      "Kib": 5713,
      "Kess": 5714,
      "Kill": 5715,
      "Kath": 5716,
      "Kelp": 5717,
      "Kry": 5718,
      "Kiss": 5719,
      "Kaz": 5720,
      "Kurb": 5721,
      "Lh": 5722,
      "Lan": 5723,
      "Lead": 5724,
      "Luck": 5725,
      "Loud": 5726,
      "Lamb": 5727,
      "Mi": 5728,
      "Mand": 5729,
      "May": 5730,
      "Mal": 5731,
      "Mur": 5732,
      "Med": 5733,
      "Mong": 5734,
      "Mad": 5735,
      "Mus": 5736,
      "Might": 5737,
      "Mag": 5738,
      "March": 5739,
      "Muse": 5740,
      "Mull": 5741,
      "Matter": 5742,
      "Moss": 5743,
      "Mists": 5744,
      "Mender": 5745,
      "Nu": 5746,
      "Name": 5747,
      "Nass": 5748,
      "Neither": 5749,
      "Nether": 5750,
      "Oy": 5751,
      "Oth": 5752,
      "Och": 5753,
      "Oper": 5754,
      "Omin": 5755,
      "Oko": 5756,
      "Oubl": 5757,
      "Own": 5758,
      "Pat": 5759,
      "Pit": 5760,
      "Pal": 5761,
      "Pain": 5762,
      "Pha": 5763,
      "Path": 5764,
      "Prag": 5765,
      "Pox": 5766,
      "Position": 5767,
      "Pyrr": 5768,
      "Premium": 5769,
      "Quest": 5770,
      "QUE": 5771,
      "Ral": 5772,
      "Rage": 5773,
      "Rever": 5774,
      "Ramp": 5775,
      "Rot": 5776,
      "Range": 5777,
      "Rise": 5778,
      "Ruck": 5779,
      "Rouse": 5780,
      "Riders": 5781,
      "Roma": 5782,
      "Rief": 5783,
      "Rona": 5784,
      "Sur": 5785,
      "Sage": 5786,
      "Sep": 5787,
      "Sty": 5788,
      "Sigil": 5789,
      "Stom": 5790,
      "Sight": 5791,
      "Set": 5792,
      "Sark": 5793,
      "Saw": 5794,
      "Sara": 5795,
      "Sifters": 5796,
      "Tro": 5797,
      "Tast": 5798,
      "Tib": 5799,
      "Tact": 5800,
      "Tig": 5801,
      "Tze": 5802,
      "Tru": 5803,
      "Tade": 5804,
      "Tish": 5805,
      "Tears": 5806,
      "Trag": 5807,
      "Tunn": 5808,
      "Ut": 5809,
      "Umb": 5810,
      "Using": 5811,
      "Ugl": 5812,
      "Vit": 5813,
      "Varch": 5814,
      "Vortex": 5815,
      "Won": 5816,
      "Wood": 5817,
      "Wire": 5818,
      "Wils": 5819,
      "Yell": 5820,
      "Year": 5821,
      "Yav": 5822,
      "Zh": 5823,
      "Zone": 5824,
      "Zol": 5825,
      "af": 5826,
      "athe": 5827,
      "ael": 5828,
      "bre": 5829,
      "bro": 5830,
      "bing": 5831,
      "bite": 5832,
      "brand": 5833,
      "bert": 5834,
      "binger": 5835,
      "cage": 5836,
      "call": 5837,
      "cating": 5838,
      "ccur": 5839,
      "crib": 5840,
      "dur": 5841,
      "dde": 5842,
      "dos": 5843,
      "danger": 5844,
      "dips": 5845,
      "eel": 5846,
      "ech": 5847,
      "ebe": 5848,
      "emon": 5849,
      "ething": 5850,
      "eem": 5851,
      "fr": 5852,
      "fit": 5853,
      "fam": 5854,
      "fact": 5855,
      "fest": 5856,
      "fish": 5857,
      "feat": 5858,
      "frag": 5859,
      "funk": 5860,
      "frenzy": 5861,
      "fought": 5862,
      "gus": 5863,
      "glo": 5864,
      "good": 5865,
      "giving": 5866,
      "graz": 5867,
      "han": 5868,
      "hall": 5869,
      "hear": 5870,
      "hance": 5871,
      "hid": 5872,
      "holt": 5873,
      "hides": 5874,
      "hind": 5875,
      "hund": 5876,
      "hunger": 5877,
      "husk": 5878,
      "ij": 5879,
      "ient": 5880,
      "iers": 5881,
      "imay": 5882,
      "iment": 5883,
      "ize": 5884,
      "iation": 5885,
      "iately": 5886,
      "iosis": 5887,
      "jor": 5888,
      "jic": 5889,
      "join": 5890,
      "ku": 5891,
      "lit": 5892,
      "liest": 5893,
      "lacks": 5894,
      "lanta": 5895,
      "mary": 5896,
      "mir": 5897,
      "mong": 5898,
      "mig": 5899,
      "mates": 5900,
      "march": 5901,
      "magic": 5902,
      "mix": 5903,
      "matter": 5904,
      "mension": 5905,
      "ny": 5906,
      "never": 5907,
      "ok": 5908,
      "oderm": 5909,
      "occur": 5910,
      "ps": 5911,
      "prom": 5912,
      "pall": 5913,
      "pip": 5914,
      "pilot": 5915,
      "psych": 5916,
      "posing": 5917,
      "pony": 5918,
      "prise": 5919,
      "pantom": 5920,
      "ris": 5921,
      "ril": 5922,
      "rout": 5923,
      "ruct": 5924,
      "rity": 5925,
      "rane": 5926,
      "ransom": 5927,
      "rarity": 5928,
      "sou": 5929,
      "sen": 5930,
      "sel": 5931,
      "sur": 5932,
      "sock": 5933,
      "sca": 5934,
      "skin": 5935,
      "sign": 5936,
      "scaven": 5937,
      "slee": 5938,
      "sne": 5939,
      "signed": 5940,
      "tte": 5941,
      "tates": 5942,
      "tter": 5943,
      "trap": 5944,
      "uro": 5945,
      "upp": 5946,
      "uish": 5947,
      "vin": 5948,
      "vic": 5949,
      "vener": 5950,
      "vely": 5951,
      "vanishing": 5952,
      "wre": 5953,
      "wire": 5954,
      "women": 5955,
      "wants": 5956,
      "yers": 5957,
      "yell": 5958,
      "yri": 5959,
      "zerker": 5960,
      "~\"": 5961,
      "rel": 5962,
      "rear": 5963,
      "rede": 5964,
      "resp": 5965,
      "restri": 5966,
      "rection": 5967,
      "recon": 5968,
      "reroom": 5969,
      "revol": 5970,
      "reply": 5971,
      "refuse": 5972,
      "ths": 5973,
      "thama": 5974,
      "thought": 5975,
      "ats": 5976,
      "atli": 5977,
      "atog": 5978,
      "outh": 5979,
      "ounce": 5980,
      "eron": 5981,
      "eries": 5982,
      "erom": 5983,
      "erub": 5984,
      "ergy": 5985,
      "erving": 5986,
      "erwear": 5987,
      "arre": 5988,
      "arto": 5989,
      "arrow": 5990,
      "arfish": 5991,
      "anx": 5992,
      "anche": 5993,
      "enish": 5994,
      "encer": 5995,
      "inal": 5996,
      "ined": 5997,
      "inspiration": 5998,
      "inanim": 5999,
      "information": 6000,
      "inarto": 6001,
      "thed": 6002,
      "theft": 6003,
      "lethal": 6004,
      "ardly": 6005,
      "onso": 6006,
      "ongest": 6007,
      "codile": 6008,
      "acon": 6009,
      "acious": 6010,
      "sten": 6011,
      "strom": 6012,
      "state": 6013,
      "stub": 6014,
      "stial": 6015,
      "staf": 6016,
      "steel": 6017,
      "robot": 6018,
      "rogram": 6019,
      "rotates": 6020,
      "tocopy": 6021,
      "tocopies": 6022,
      "town": 6023,
      "tostub": 6024,
      "orni": 6025,
      "itous": 6026,
      "itter": 6027,
      "itting": 6028,
      "italiz": 6029,
      "elled": 6030,
      "eloth": 6031,
      "elstrom": 6032,
      "ised": 6033,
      "isition": 6034,
      "issi": 6035,
      "ayer": 6036,
      "aysi": 6037,
      "alt": 6038,
      "always": 6039,
      "alanx": 6040,
      "entch": 6041,
      "fic": 6042,
      "fizz": 6043,
      "inguish": 6044,
      "urant": 6045,
      "urist": 6046,
      "urgoy": 6047,
      "ifism": 6048,
      "ifinal": 6049,
      "iforni": 6050,
      "ames": 6051,
      "amator": 6052,
      "aminarto": 6053,
      "edient": 6054,
      "ason": 6055,
      "ases": 6056,
      "esis": 6057,
      "esbe": 6058,
      "esid": 6059,
      "cher": 6060,
      "ching": 6061,
      ".))": 6062,
      "dest": 6063,
      "derer": 6064,
      "ilt": 6065,
      "illed": 6066,
      "ilids": 6067,
      "plite": 6068,
      "plasmic": 6069,
      "pliment": 6070,
      "plenish": 6071,
      "astating": 6072,
      "behind": 6073,
      "better": 6074,
      "utum": 6075,
      "utilids": 6076,
      "mancer": 6077,
      "ppres": 6078,
      "evolve": 6079,
      "spot": 6080,
      "sprout": 6081,
      "sponso": 6082,
      "spelled": 6083,
      "lymorph": 6084,
      "ceases": 6085,
      "dden": 6086,
      "spellmorph": 6087,
      "riel": 6088,
      "rider": 6089,
      "riarch": 6090,
      "rical": 6091,
      "rieve": 6092,
      "rivener": 6093,
      "puter": 6094,
      "mbiosis": 6095,
      "fortified": 6096,
      "ibly": 6097,
      "ibles": 6098,
      "antage": 6099,
      "cannon": 6100,
      "gaining": 6101,
      "rific": 6102,
      "manabond": 6103,
      "Three": 6104,
      "Thresh": 6105,
      "Thrab": 6106,
      "countermagic": 6107,
      "}.'": 6108,
      "quad": 6109,
      "quite": 6110,
      "quet": 6111,
      "quarterfinal": 6112,
      "quisition": 6113,
      "motivate": 6114,
      "tail": 6115,
      "taken": 6116,
      "tagard": 6117,
      "unear": 6118,
      "undeathtouch": 6119,
      "unmarked": 6120,
      "unwrap": 6121,
      "underer": 6122,
      "gine": 6123,
      "iral": 6124,
      "peror": 6125,
      "tie": 6126,
      "tist": 6127,
      "tive": 6128,
      "tips": 6129,
      "Atlanta": 6130,
      "what": 6131,
      "hagus": 6132,
      "allin": 6133,
      "Rest": 6134,
      "Rekind": 6135,
      "Replic": 6136,
      "Retreat": 6137,
      "Reanim": 6138,
      "Require": 6139,
      "Replenish": 6140,
      "apol": 6141,
      "tops": 6142,
      "umble": 6143,
      "Targeting": 6144,
      "onghold": 6145,
      "Dead": 6146,
      "Demil": 6147,
      "Decorated": 6148,
      "Demig": 6149,
      "Enlightened": 6150,
      "Enmit": 6151,
      "Enhance": 6152,
      "Energy": 6153,
      "Engine": 6154,
      "absor": 6155,
      "compliment": 6156,
      "computer": 6157,
      "doc": 6158,
      "shot": 6159,
      "shred": 6160,
      "short": 6161,
      "instruct": 6162,
      "powerful": 6163,
      "extinguish": 6164,
      "ada": 6165,
      "adin": 6166,
      "Exter": 6167,
      "erys": 6168,
      "sorption": 6169,
      "sorceries": 6170,
      "icus": 6171,
      "iction": 6172,
      "ician": 6173,
      "vald": 6174,
      "oted": 6175,
      "essThat": 6176,
      "wouldn": 6177,
      "ctiva": 6178,
      "ctively": 6179,
      "cophagus": 6180,
      "themsel": 6181,
      "planes": 6182,
      "Chant": 6183,
      "Child": 6184,
      "Cherub": 6185,
      "Chitter": 6186,
      "met": 6187,
      "means": 6188,
      "member": 6189,
      "stribut": 6190,
      "igan": 6191,
      "outerwear": 6192,
      "cted": 6193,
      "ctum": 6194,
      "ctrical": 6195,
      "pter": 6196,
      "omic": 6197,
      "Action": 6198,
      "prop": 6199,
      "proved": 6200,
      "Spin": 6201,
      "Spear": 6202,
      "Spore": 6203,
      "Spores": 6204,
      "iverse": 6205,
      "uscating": 6206,
      "iette": 6207,
      "olism": 6208,
      "teh": 6209,
      "randomly": 6210,
      "clamator": 6211,
      "season": 6212,
      "cracks": 6213,
      "nodes": 6214,
      "And": 6215,
      "Ang": 6216,
      "Angra": 6217,
      "Ancient": 6218,
      "sim": 6219,
      "Plow": 6220,
      "Plasma": 6221,
      "Plasmic": 6222,
      "Places": 6223,
      "Plunderer": 6224,
      "Incarn": 6225,
      "Insur": 6226,
      "Inquisition": 6227,
      "ipwre": 6228,
      "Archange": 6229,
      "Argo": 6230,
      "Array": 6231,
      "Arson": 6232,
      "Artist": 6233,
      "phones": 6234,
      "Humph": 6235,
      "Huatli": 6236,
      "Forge": 6237,
      "Force": 6238,
      "Fortified": 6239,
      "location": 6240,
      "estone": 6241,
      "esteal": 6242,
      "mons": 6243,
      "Firstest": 6244,
      "Allure": 6245,
      "Spiritual": 6246,
      "ulcher": 6247,
      "Elite": 6248,
      "Elim": 6249,
      "Elven": 6250,
      "Elspe": 6251,
      "Elixir": 6252,
      "Projection": 6253,
      "Project": 6254,
      "Probing": 6255,
      "Proclamator": 6256,
      "amounts": 6257,
      "flipped": 6258,
      "winch": 6259,
      "caused": 6260,
      "pole": 6261,
      "Landship": 6262,
      "Confound": 6263,
      "Sligh": 6264,
      "hian": 6265,
      "hide": 6266,
      "hidden": 6267,
      "dimension": 6268,
      "distribut": 6269,
      "Scrycast": 6270,
      "rounds": 6271,
      "condition": 6272,
      "Pharika": 6273,
      "Pherom": 6274,
      "Phalanx": 6275,
      "Bliss": 6276,
      "Blaz": 6277,
      "Blows": 6278,
      "Anywhere": 6279,
      "Anything": 6280,
      "Shipwre": 6281,
      "emblems": 6282,
      "Unho": 6283,
      "Unlike": 6284,
      "Unspeak": 6285,
      "Uncovered": 6286,
      "Uninstall": 6287,
      "Unrede": 6288,
      "Universe": 6289,
      "tima": 6290,
      "Veil": 6291,
      "Veils": 6292,
      "Player": 6293,
      "Rod": 6294,
      "Rome": 6295,
      "rolling": 6296,
      "etc": 6297,
      "eted": 6298,
      "Beyond": 6299,
      "Becoming": 6300,
      "Beacon": 6301,
      "maz": 6302,
      "made": 6303,
      "major": 6304,
      "Spellmorph": 6305,
      "storum": 6306,
      "Oran": 6307,
      "Order": 6308,
      "Orca": 6309,
      "Devastating": 6310,
      "isted": 6311,
      "istic": 6312,
      "nowhere": 6313,
      "Unearthly": 6314,
      "imit": 6315,
      "arche": 6316,
      "Knightlifelink": 6317,
      "Clock": 6318,
      "Claw": 6319,
      "Claim": 6320,
      "terrane": 6321,
      "ordinator": 6322,
      "reprieve": 6323,
      "Rappel": 6324,
      "Who": 6325,
      "Whack": 6326,
      "Whirl": 6327,
      "please": 6328,
      "umal": 6329,
      "umphant": 6330,
      "umination": 6331,
      "Backstory": 6332,
      "things": 6333,
      "tells": 6334,
      "track": 6335,
      "trash": 6336,
      "Suppres": 6337,
      "capitaliz": 6338,
      "assignment": 6339,
      "venir": 6340,
      "venwald": 6341,
      "minator": 6342,
      "onded": 6343,
      "identical": 6344,
      "Step": 6345,
      "Stall": 6346,
      "Starfish": 6347,
      "Nonexist": 6348,
      "Hornet": 6349,
      "Horrific": 6350,
      "Upgra": 6351,
      "Coast": 6352,
      "Codes": 6353,
      "Coordinator": 6354,
      "Does": 6355,
      "Dovin": 6356,
      "zaar": 6357,
      "zahn": 6358,
      "Mega": 6359,
      "Metab": 6360,
      "Flurry": 6361,
      "Flayer": 6362,
      "Flames": 6363,
      "Image": 6364,
      "irrel": 6365,
      "ertsen": 6366,
      "yrdom": 6367,
      "Although": 6368,
      "Align": 6369,
      "Aliri": 6370,
      "Alien": 6371,
      "Alpha": 6372,
      "Domri": 6373,
      "Tryn": 6374,
      "Buzz": 6375,
      "Budde": 6376,
      "Constructed": 6377,
      "eating": 6378,
      "inted": 6379,
      "emed": 6380,
      "emes": 6381,
      "Gix": 6382,
      "Storvald": 6383,
      "Storms": 6384,
      "Perpetually": 6385,
      "Perfect": 6386,
      "announce": 6387,
      "rors": 6388,
      "Scrolls": 6389,
      "Scream": 6390,
      "Sculptor": 6391,
      "Scrivener": 6392,
      "Citizens": 6393,
      "Outrider": 6394,
      "Basri": 6395,
      "advise": 6396,
      "aware": 6397,
      "nineteen": 6398,
      "drafts": 6399,
      "drafting": 6400,
      "facing": 6401,
      "swarm": 6402,
      "sworn": 6403,
      "swats": 6404,
      "Front": 6405,
      "Sneak": 6406,
      "Despair": 6407,
      "Skilled": 6408,
      "preva": 6409,
      "previ": 6410,
      "ruples": 6411,
      "MagicCard": 6412,
      "Bogard": 6413,
      "versions": 6414,
      "bringer": 6415,
      "iah": 6416,
      "provided": 6417,
      "akos": 6418,
      "akstone": 6419,
      "teammates": 6420,
      "Illumination": 6421,
      "Ascension": 6422,
      "League": 6423,
      "Leave": 6424,
      "Shake": 6425,
      "Ascended": 6426,
      "Primarch": 6427,
      "Redistribute": 6428,
      "Redeem": 6429,
      "wari": 6430,
      "specific": 6431,
      "swampcycling": 6432,
      "itious": 6433,
      "Transfigure": 6434,
      "Translocation": 6435,
      "Transdimension": 6436,
      "conjures": 6437,
      "Devouring": 6438,
      "explain": 6439,
      "Coruscating": 6440,
      "Republ": 6441,
      "Repair": 6442,
      "Reprogram": 6443,
      "himself": 6444,
      "Goaded": 6445,
      "nail": 6446,
      "incubates": 6447,
      "Transmutation": 6448,
      "Corruption": 6449,
      "Scions": 6450,
      "mountaincycling": 6451,
      "Node": 6452,
      "squirrel": 6453,
      "places": 6454,
      "monoblue": 6455,
      "bracketed": 6456,
      "Barge": 6457,
      "Barrage": 6458,
      "Barrity": 6459,
      "Section": 6460,
      "Seething": 6461,
      "Halvar": 6462,
      "norant": 6463,
      "Goats": 6464,
      "Mythic": 6465,
      "Emperor": 6466,
      "master": 6467,
      "Fabricator": 6468,
      "Rhuk": 6469,
      "electrical": 6470,
      "Heir": 6471,
      "Sunlit": 6472,
      "Underdog": 6473,
      "asks": 6474,
      "asking": 6475,
      "marks": 6476,
      "Adventurer": 6477,
      "Garza": 6478,
      "Planech": 6479,
      "called": 6480,
      "Assault": 6481,
      "subtype": 6482,
      "Breathe": 6483,
      "Bretagard": 6484,
      "Combined": 6485,
      "Grizz": 6486,
      "soulshift": 6487,
      "Paris": 6488,
      "Parade": 6489,
      "Parcel": 6490,
      "Pariah": 6491,
      "Teeth": 6492,
      "Colony": 6493,
      "Legions": 6494,
      "despair": 6495,
      "deserving": 6496,
      "hats": 6497,
      "necro": 6498,
      "sprocket": 6499,
      "Abian": 6500,
      "Absorption": 6501,
      "Ballistic": 6502,
      "Twenty": 6503,
      "Twisted": 6504,
      "finishing": 6505,
      "vited": 6506,
      "Archers": 6507,
      "Archery": 6508,
      "Chapter": 6509,
      "Opal": 6510,
      "plainscycling": 6511,
      "Endless": 6512,
      "Endurant": 6513,
      "Grav": 6514,
      "Grant": 6515,
      "Minor": 6516,
      "Minsc": 6517,
      "Phoebe": 6518,
      "Photocopies": 6519,
      "Celestial": 6520,
      "GuessThat": 6521,
      "Oxen": 6522,
      "berating": 6523,
      "Reflect": 6524,
      "Brallin": 6525,
      "Type": 6526,
      "Triple": 6527,
      "Triumphant": 6528,
      "expedient": 6529,
      "Advanced": 6530,
      "Advantage": 6531,
      "Breathsteal": 6532,
      "Grunn": 6533,
      "photocopy": 6534,
      "Druids": 6535,
      "Trail": 6536,
      "Trader": 6537,
      "built": 6538,
      "Kyler": 6539,
      "Omnissi": 6540,
      "Weapon": 6541,
      "Weakstone": 6542,
      "trad": 6543,
      "traumal": 6544,
      "interaction": 6545,
      "Ignorant": 6546,
      "Neuro": 6547,
      "Gargoyles": 6548,
      "Keeper": 6549,
      "Displace": 6550,
      "Kinfall": 6551,
      "Shields": 6552,
      "Volley": 6553,
      "Deathpact": 6554,
      "indicating": 6555,
      "INCAR": 6556,
      "Sanctum": 6557,
      "curse": 6558,
      "harvest": 6559,
      "investigated": 6560,
      "2000": 6561,
      "2001": 6562,
      "2004": 6563,
      "survived": 6564,
      "write": 6565,
      "Hakim": 6566,
      "Masticore": 6567,
      "Sandfall": 6568,
      "speaking": 6569,
      "Baldur": 6570,
      "Crocodile": 6571,
      "Geertsen": 6572,
      "Nautilids": 6573,
      "Nazahn": 6574,
      "Tajic": 6575,
      "arriage": 6576,
      "Protectiva": 6577,
      "Fei": 6578,
      "Journey": 6579,
      "Linde": 6580,
      "Symph": 6581,
      "Symbiosis": 6582,
      "sunburst": 6583,
      "standing": 6584,
      "Empyri": 6585,
      "original": 6586,
      "Ante": 6587,
      "Brood": 6588,
      "Bury": 6589,
      "Burakos": 6590,
      "Bride": 6591,
      "Brimaz": 6592,
      "Blastoderm": 6593,
      "Donna": 6594,
      "Donkey": 6595,
      "Gathering": 6596,
      "Harbinger": 6597,
      "Muiral": 6598,
      "Rapacious": 6599,
      "fingertips": 6600,
      "fingernail": 6601,
      "arov": 6602,
      "shoes": 6603,
      "Flamebreak": 6604,
      "Daemon": 6605,
      "Darksteel": 6606,
      "Have": 6607,
      "High": 6608,
      "Historic": 6609,
      "Lobster": 6610,
      "Psychatog": 6611,
      "Sarcophagus": 6612,
      "Stronghold": 6613,
      "Termag": 6614,
      "Titanic": 6615,
      "laud": 6616,
      "alyst": 6617,
      "Shelter": 6618,
      "Beeble": 6619,
      "______": 6620,
      "__________": 6621,
      "Maelstrom": 6622,
      "Stench": 6623,
      "Torsten": 6624,
      "cube": 6625,
      "lawyers": 6626,
      "rogate": 6627,
      "Regal": 6628,
      "Chimney": 6629,
      "Clouds": 6630,
      "Shieldwall": 6631,
      "Feeder": 6632,
      "Autostub": 6633,
      "Crack": 6634,
      "Diego": 6635,
      "However": 6636,
      "Paquet": 6637,
      "Praesid": 6638,
      "Ultima": 6639,
      "Ulvenwald": 6640,
      "folds": 6641,
      "mediately": 6642,
      "walls": 6643,
      "arius": 6644,
      "beats": 6645,
      "beatdown": 6646,
      "showing": 6647,
      "Chainsword": 6648,
      "Rakdos": 6649,
      "Skyswarm": 6650,
      "Interplanar": 6651,
      "Interrogate": 6652,
      "1998": 6653,
      "1999": 6654,
      "Hyperphase": 6655,
      "Hypertoxic": 6656,
      "Hyperfrag": 6657,
      "Paragon": 6658,
      "laughs": 6659,
      "Teleport": 6660,
      "pictured": 6661,
      "Baeloth": 6662,
      "Bazaar": 6663,
      "Californi": 6664,
      "Camarids": 6665,
      "Genomic": 6666,
      "Genesteal": 6667,
      "Herbert": 6668,
      "Jolly": 6669,
      "Polymorph": 6670,
      "Pools": 6671,
      "Rosarius": 6672,
      "Rainbow": 6673,
      "Vishgraz": 6674,
      "Winds": 6675,
      "circ": 6676,
      "circle": 6677,
      "passed": 6678,
      "supertype": 6679,
      "championed": 6680,
      "championship": 6681,
      "undaunted": 6682,
      "mulligan": 6683,
      "Armour": 6684,
      "Elderhall": 6685,
      "explosive": 6686,
      "explosions": 6687,
      "\"~\":": 6688,
      "Strategic": 6689,
      "Banana": 6690,
      "Brightflame": 6691,
      "Brightspear": 6692,
      "Family": 6693,
      "Familiar": 6694,
      "Gatling": 6695,
      "Gatstaf": 6696,
      "Grothama": 6697,
      "Groesbe": 6698,
      "Labarre": 6699,
      "Relay": 6700,
      "Relics": 6701,
      "Stowage": 6702,
      "Storeroom": 6703,
      "Summary": 6704,
      "Summons": 6705,
      "Traps": 6706,
      "Village": 6707,
      "closest": 6708,
      "latest": 6709,
      "ogize": 6710,
      "thrown": 6711,
      "steals": 6712,
      "ambitious": 6713,
      "challenge": 6714,
      "challenged": 6715,
      "taxes": 6716,
      "dermis": 6717,
      "Deception": 6718,
      "Universes": 6719,
      "University": 6720,
      "Beams": 6721,
      "Mulldrifter": 6722,
      "Mulldrifters": 6723,
      "Prismatic": 6724,
      "Brainiacs": 6725,
      "Cephalid": 6726,
      "Cephalids": 6727,
      "Synapse": 6728,
      "Synaptic": 6729,
      "Executioner": 6730,
      "Captive": 6731,
      "Focus": 6732,
      "Finery": 6733,
      "Founding": 6734,
      "Growl": 6735,
      "Machines": 6736,
      "Martyrdom": 6737,
      "Metallic": 6738,
      "Negative": 6739,
      "Pyro": 6740,
      "Pacifism": 6741,
      "Runestone": 6742,
      "Sainted": 6743,
      "Sleight": 6744,
      "Silvar": 6745,
      "auded": 6746,
      "careful": 6747,
      "catches": 6748,
      "floor": 6749,
      "garment": 6750,
      "huge": 6751,
      "matrix": 6752,
      "punctuation": 6753,
      "sentence": 6754,
      "title": 6755,
      "respectively": 6756,
      "inches": 6757,
      "coolness": 6758,
      "mobile": 6759,
      "happen": 6760,
      "applauded": 6761,
      "Subterrane": 6762,
      "Stalking": 6763,
      "Sculptures": 6764,
      "Avacyn": 6765,
      "Ministorum": 6766,
      "currently": 6767,
      "Ruinous": 6768,
      "Incinerator": 6769,
      "Disintegrator": 6770,
      "Cloister": 6771,
      "2K2": 6772,
      "Alex": 6773,
      "Atog": 6774,
      "Aisha": 6775,
      "Avalanche": 6776,
      "Atomic": 6777,
      "Amulet": 6778,
      "Ashiok": 6779,
      "Aggressive": 6780,
      "ACTION": 6781,
      "Berzerker": 6782,
      "Bardic": 6783,
      "Borteh": 6784,
      "Bevand": 6785,
      "Boulder": 6786,
      "Banishment": 6787,
      "Benediction": 6788,
      "Concealed": 6789,
      "Crushing": 6790,
      "Cazur": 6791,
      "CERATE": 6792,
      "Durnan": 6793,
      "Dastardly": 6794,
      "Depths": 6795,
      "Doodle": 6796,
      "Davriel": 6797,
      "Dawnbringer": 6798,
      "Daniel": 6799,
      "Diversion": 6800,
      "Ephara": 6801,
      "Ferny": 6802,
      "Futurist": 6803,
      "Finkel": 6804,
      "Fungi": 6805,
      "Fierce": 6806,
      "Ghoul": 6807,
      "Gutpip": 6808,
      "Ghazi": 6809,
      "Gallery": 6810,
      "Ghired": 6811,
      "Gyrus": 6812,
      "Hoplite": 6813,
      "Haywire": 6814,
      "Hallar": 6815,
      "Hooks": 6816,
      "Hivis": 6817,
      "Hinterland": 6818,
      "Hailer": 6819,
      "Jiwari": 6820,
      "Jelly": 6821,
      "Jiang": 6822,
      "Kaho": 6823,
      "Kibo": 6824,
      "Kessig": 6825,
      "Killbot": 6826,
      "Kathril": 6827,
      "Krydle": 6828,
      "Kazarov": 6829,
      "Kurbis": 6830,
      "Lhurgoy": 6831,
      "Lancer": 6832,
      "Leading": 6833,
      "Lambholt": 6834,
      "Miasma": 6835,
      "Mandibles": 6836,
      "Malaysi": 6837,
      "Murder": 6838,
      "Medicus": 6839,
      "Muscle": 6840,
      "Mightstone": 6841,
      "Magnus": 6842,
      "Mulligans": 6843,
      "Nuij": 6844,
      "Nassif": 6845,
      "Oyaminarto": 6846,
      "Otharri": 6847,
      "Ochre": 6848,
      "Operative": 6849,
      "Ominous": 6850,
      "Oubliette": 6851,
      "Patriarch": 6852,
      "Paladin": 6853,
      "Phaeron": 6854,
      "Prague": 6855,
      "Pyrrhian": 6856,
      "Questions": 6857,
      "QUEUE": 6858,
      "Reverberating": 6859,
      "Rampant": 6860,
      "Rangeling": 6861,
      "Ruckus": 6862,
      "Romao": 6863,
      "Surprise": 6864,
      "Sepulcher": 6865,
      "Style": 6866,
      "Sarkhan": 6867,
      "Sawjack": 6868,
      "Saradoc": 6869,
      "Troops": 6870,
      "Tasty": 6871,
      "Tibalt": 6872,
      "Tactician": 6873,
      "Tiger": 6874,
      "Tzeentch": 6875,
      "Truth": 6876,
      "Tadeas": 6877,
      "Tishana": 6878,
      "Tragic": 6879,
      "Tunnels": 6880,
      "Umbris": 6881,
      "Ugluk": 6882,
      "Vitu": 6883,
      "Varchild": 6884,
      "Wonder": 6885,
      "Wirefly": 6886,
      "Wilson": 6887,
      "Yavimay": 6888,
      "Zhang": 6889,
      "branded": 6890,
      "cribed": 6891,
      "dangerous": 6892,
      "frame": 6893,
      "famous": 6894,
      "globe": 6895,
      "hundred": 6896,
      "mirrors": 6897,
      "monger": 6898,
      "occurs": 6899,
      "palliation": 6900,
      "piloted": 6901,
      "psychosis": 6902,
      "pantomime": 6903,
      "souvenir": 6904,
      "socket": 6905,
      "scale": 6906,
      "scavenge": 6907,
      "sneak": 6908,
      "upper": 6909,
      "rearrange": 6910,
      "responded": 6911,
      "restricted": 6912,
      "reconstruct": 6913,
      "revolves": 6914,
      "inanimate": 6915,
      "statement": 6916,
      "fizzles": 6917,
      "spotted": 6918,
      "sponsored": 6919,
      "Threshers": 6920,
      "Thraben": 6921,
      "quadruples": 6922,
      "unearthed": 6923,
      "Rekindling": 6924,
      "Replicated": 6925,
      "Reanimator": 6926,
      "Requirement": 6927,
      "apologize": 6928,
      "Demilich": 6929,
      "Demigod": 6930,
      "Enmitic": 6931,
      "Enhancement": 6932,
      "absorb": 6933,
      "instructed": 6934,
      "extinguisher": 6935,
      "Exterminator": 6936,
      "themselves": 6937,
      "Children": 6938,
      "Cherubael": 6939,
      "Chittering": 6940,
      "Angrath": 6941,
      "Incarnate": 6942,
      "Insurrection": 6943,
      "Archangel": 6944,
      "Argoth": 6945,
      "Humpherys": 6946,
      "Eliminator": 6947,
      "Elspeth": 6948,
      "Confounding": 6949,
      "distributes": 6950,
      "Pheromone": 6951,
      "Blazing": 6952,
      "Shipwreck": 6953,
      "Unholy": 6954,
      "Unspeakable": 6955,
      "Unredeemed": 6956,
      "Claimed": 6957,
      "Whirlwind": 6958,
      "Suppressing": 6959,
      "capitalized": 6960,
      "Nonexistent": 6961,
      "Upgrade": 6962,
      "Megalegendary": 6963,
      "Metabolism": 6964,
      "Alirios": 6965,
      "Trynn": 6966,
      "prevalent": 6967,
      "previously": 6968,
      "Bogardan": 6969,
      "Redeemer": 6970,
      "Transdimensional": 6971,
      "Republic": 6972,
      "Reprogramming": 6973,
      "Barrityl": 6974,
      "Planechase": 6975,
      "Grizzled": 6976,
      "necrodermis": 6977,
      "GuessThatMagicCard": 6978,
      "Breathstealer": 6979,
      "Omnissiah": 6980,
      "Neurotraumal": 6981,
      "Displacement": 6982,
      "INCARCERATE": 6983,
      "Symphony": 6984,
      "Empyrial": 6985,
      "Termagants": 6986,
      "Autostubs": 6987,
      "Paquette": 6988,
      "Praesidium": 6989,
      "California": 6990,
      "Genestealer": 6991,
      "Polymorphine": 6992,
      "Groesbeek": 6993,
      "Subterranean": 6994,
      "Gutpipes": 6995,
      "Lhurgoyf": 6996,
      "Nuijten": 6997,
      "Oyaminartok": 6998,
      "Yavimaya": 6999,
      "!'": 7000,
      "\".": 7001,
      "\":": 7002,
      "\").": 7003,
      "(\"": 7004,
      "-,": 7005,
      ".'": 7006,
      "17": 7007,
      "18": 7008,
      "22": 7009,
      "24": 7010,
      "96": 7011,
      "97": 7012,
      "AN": 7013,
      "Aa": 7014,
      "Ae": 7015,
      "Ak": 7016,
      "Ap": 7017,
      "Ach": 7018,
      "Ade": 7019,
      "Aunt": 7020,
      "Anto": 7021,
      "Again": 7022,
      "Aqu": 7023,
      "Ata": 7024,
      "Acade": 7025,
      "Aub": 7026,
      "Apple": 7027,
      "Amber": 7028,
      "Autum": 7029,
      "Burn": 7030,
      "Bes": 7031,
      "Bly": 7032,
      "Big": 7033,
      "Bus": 7034,
      "Bold": 7035,
      "Bounty": 7036,
      "Braz": 7037,
      "Boss": 7038,
      "CI": 7039,
      "CR": 7040,
      "Cou": 7041,
      "Cos": 7042,
      "Cab": 7043,
      "Camp": 7044,
      "Care": 7045,
      "Cath": 7046,
      "Cycl": 7047,
      "City": 7048,
      "Cze": 7049,
      "Cry": 7050,
      "Cara": 7051,
      "Carriage": 7052,
      "Di": 7053,
      "Du": 7054,
      "Der": 7055,
      "Dut": 7056,
      "Dow": 7057,
      "Dig": 7058,
      "Div": 7059,
      "Dag": 7060,
      "Dust": 7061,
      "Dures": 7062,
      "Dusk": 7063,
      "Duel": 7064,
      "DCI": 7065,
      "Ec": 7066,
      "Ed": 7067,
      "Eu": 7068,
      "Ev": 7069,
      "Eat": 7070,
      "Est": 7071,
      "Ento": 7072,
      "Eder": 7073,
      "Eig": 7074,
      "Eight": 7075,
      "Eigh": 7076,
      "FF": 7077,
      "Fre": 7078,
      "Fac": 7079,
      "Fit": 7080,
      "Fur": 7081,
      "Fell": 7082,
      "Free": 7083,
      "Fol": 7084,
      "Faren": 7085,
      "Frag": 7086,
      "Fellow": 7087,
      "Frant": 7088,
      "Fencer": 7089,
      "Fada": 7090,
      "Gn": 7091,
      "Gre": 7092,
      "Gal": 7093,
      "Gos": 7094,
      "Gary": 7095,
      "Goose": 7096,
      "Gum": 7097,
      "Gabri": 7098,
      "Goma": 7099,
      "Hamp": 7100,
      "Had": 7101,
      "Hag": 7102,
      "Hans": 7103,
      "Half": 7104,
      "Haw": 7105,
      "Harri": 7106,
      "Heral": 7107,
      "Hatchling": 7108,
      "Home": 7109,
      "IT": 7110,
      "Ice": 7111,
      "Je": 7112,
      "Jan": 7113,
      "Jon": 7114,
      "Jul": 7115,
      "Jak": 7116,
      "Janos": 7117,
      "Kat": 7118,
      "Kard": 7119,
      "Kon": 7120,
      "Kel": 7121,
      "Kil": 7122,
      "Kage": 7123,
      "Kol": 7124,
      "Know": 7125,
      "Kord": 7126,
      "Kru": 7127,
      "Keg": 7128,
      "Kind": 7129,
      "Lu": 7130,
      "Lure": 7131,
      "Lit": 7132,
      "Los": 7133,
      "Lone": 7134,
      "Lumber": 7135,
      "Law": 7136,
      "Lump": 7137,
      "Mc": 7138,
      "Matt": 7139,
      "Main": 7140,
      "Mary": 7141,
      "Mock": 7142,
      "Map": 7143,
      "Milit": 7144,
      "Mess": 7145,
      "Mol": 7146,
      "Mass": 7147,
      "Mond": 7148,
      "Maga": 7149,
      "Mission": 7150,
      "MIT": 7151,
      "ND": 7152,
      "Ner": 7153,
      "Nor": 7154,
      "Nos": 7155,
      "Nest": 7156,
      "Net": 7157,
      "Nine": 7158,
      "Nav": 7159,
      "Nek": 7160,
      "Nongreen": 7161,
      "Natur": 7162,
      "Nik": 7163,
      "Natter": 7164,
      "Nashi": 7165,
      "Numble": 7166,
      "Of": 7167,
      "Oath": 7168,
      "Oph": 7169,
      "Opa": 7170,
      "Ohi": 7171,
      "Oub": 7172,
      "OFF": 7173,
      "Pi": 7174,
      "Pre": 7175,
      "Pen": 7176,
      "Pon": 7177,
      "Por": 7178,
      "Pow": 7179,
      "Pun": 7180,
      "Pill": 7181,
      "Pie": 7182,
      "Pink": 7183,
      "Pag": 7184,
      "Pyre": 7185,
      "Pry": 7186,
      "Pious": 7187,
      "Pony": 7188,
      "Pitt": 7189,
      "Pinch": 7190,
      "Ran": 7191,
      "Res": 7192,
      "Rex": 7193,
      "Rare": 7194,
      "Rash": 7195,
      "Rive": 7196,
      "Ranger": 7197,
      "Rootw": 7198,
      "Rarity": 7199,
      "Rumble": 7200,
      "Sin": 7201,
      "Sunt": 7202,
      "Sta": 7203,
      "Slo": 7204,
      "Skin": 7205,
      "Sim": 7206,
      "Sem": 7207,
      "Scor": 7208,
      "Sav": 7209,
      "Shim": 7210,
      "Sove": 7211,
      "Scorn": 7212,
      "Sledge": 7213,
      "Super": 7214,
      "Sewer": 7215,
      "South": 7216,
      "Ti": 7217,
      "Tat": 7218,
      "Tar": 7219,
      "Ten": 7220,
      "Test": 7221,
      "Toul": 7222,
      "Temp": 7223,
      "Tang": 7224,
      "Trop": 7225,
      "Um": 7226,
      "Uph": 7227,
      "Vi": 7228,
      "Vast": 7229,
      "Vic": 7230,
      "Vance": 7231,
      "Vold": 7232,
      "Vali": 7233,
      "Vry": 7234,
      "Vild": 7235,
      "Vault": 7236,
      "Wa": 7237,
      "Wy": 7238,
      "Win": 7239,
      "Way": 7240,
      "Wid": 7241,
      "West": 7242,
      "Wish": 7243,
      "Winter": 7244,
      "Wave": 7245,
      "Wield": 7246,
      "Yaw": 7247,
      "Ze": 7248,
      "abl": 7249,
      "award": 7250,
      "aum": 7251,
      "autum": 7252,
      "ba": 7253,
      "bb": 7254,
      "bend": 7255,
      "bell": 7256,
      "bord": 7257,
      "boun": 7258,
      "bber": 7259,
      "bender": 7260,
      "cat": 7261,
      "cis": 7262,
      "cut": 7263,
      "cri": 7264,
      "cery": 7265,
      "cip": 7266,
      "cca": 7267,
      "cence": 7268,
      "cumul": 7269,
      "cular": 7270,
      "cayed": 7271,
      "calm": 7272,
      "ctable": 7273,
      "case": 7274,
      "cund": 7275,
      "canta": 7276,
      "dro": 7277,
      "dent": 7278,
      "dart": 7279,
      "dig": 7280,
      "dark": 7281,
      "daunt": 7282,
      "ef": 7283,
      "eop": 7284,
      "eake": 7285,
      "eoh": 7286,
      "etest": 7287,
      "eba": 7288,
      "fre": 7289,
      "fer": 7290,
      "fers": 7291,
      "fun": 7292,
      "fumb": 7293,
      "fere": 7294,
      "faste": 7295,
      "fresh": 7296,
      "fane": 7297,
      "fense": 7298,
      "fram": 7299,
      "famil": 7300,
      "funn": 7301,
      "gi": 7302,
      "ging": 7303,
      "gir": 7304,
      "gree": 7305,
      "got": 7306,
      "gia": 7307,
      "gang": 7308,
      "gged": 7309,
      "hy": 7310,
      "hon": 7311,
      "ham": 7312,
      "hib": 7313,
      "hany": 7314,
      "hum": 7315,
      "hero": 7316,
      "hung": 7317,
      "honey": 7318,
      "hym": 7319,
      "ifi": 7320,
      "ione": 7321,
      "ival": 7322,
      "ius": 7323,
      "jeop": 7324,
      "kite": 7325,
      "kill": 7326,
      "keland": 7327,
      "lou": 7328,
      "lay": 7329,
      "lith": 7330,
      "lder": 7331,
      "loose": 7332,
      "lic": 7333,
      "lid": 7334,
      "lath": 7335,
      "lord": 7336,
      "ltr": 7337,
      "lav": 7338,
      "lung": 7339,
      "linn": 7340,
      "latter": 7341,
      "lips": 7342,
      "longest": 7343,
      "limit": 7344,
      "mp": 7345,
      "mbe": 7346,
      "mage": 7347,
      "mant": 7348,
      "mun": 7349,
      "mally": 7350,
      "maro": 7351,
      "mouth": 7352,
      "mifinal": 7353,
      "marriage": 7354,
      "nay": 7355,
      "ners": 7356,
      "nes": 7357,
      "nith": 7358,
      "nate": 7359,
      "nick": 7360,
      "nsy": 7361,
      "ngest": 7362,
      "ov": 7363,
      "oler": 7364,
      "oph": 7365,
      "ocolored": 7366,
      "oeba": 7367,
      "pure": 7368,
      "pto": 7369,
      "pare": 7370,
      "pick": 7371,
      "pine": 7372,
      "present": 7373,
      "peci": 7374,
      "pitch": 7375,
      "port": 7376,
      "pull": 7377,
      "pump": 7378,
      "pansion": 7379,
      "poss": 7380,
      "premium": 7381,
      "pmonger": 7382,
      "rat": 7383,
      "rance": 7384,
      "rul": 7385,
      "rhym": 7386,
      "sever": 7387,
      "sir": 7388,
      "sequ": 7389,
      "sult": 7390,
      "sci": 7391,
      "splic": 7392,
      "sbur": 7393,
      "slowest": 7394,
      "smid": 7395,
      "sang": 7396,
      "sevent": 7397,
      "save": 7398,
      "sical": 7399,
      "sbre": 7400,
      "sitting": 7401,
      "tar": 7402,
      "ture": 7403,
      "tti": 7404,
      "tall": 7405,
      "tree": 7406,
      "tongue": 7407,
      "tusk": 7408,
      "uth": 7409,
      "ume": 7410,
      "uction": 7411,
      "ulo": 7412,
      "ually": 7413,
      "vis": 7414,
      "vir": 7415,
      "vamp": 7416,
      "vad": 7417,
      "vig": 7418,
      "vak": 7419,
      "vager": 7420,
      "went": 7421,
      "wil": 7422,
      "want": 7423,
      "wary": 7424,
      "wart": 7425,
      "wunder": 7426,
      "wrest": 7427,
      "wid": 7428,
      "wood": 7429,
      "watch": 7430,
      "winter": 7431,
      "yle": 7432,
      "yay": 7433,
      "yager": 7434,
      "ylath": 7435,
      "zen": 7436,
      "zomb": 7437,
      "zum": 7438,
      "{}": 7439,
      "rely": 7440,
      "replay": 7441,
      "redd": 7442,
      "react": 7443,
      "resor": 7444,
      "reme": 7445,
      "reorder": 7446,
      "reign": 7447,
      "require": 7448,
      "thless": 7449,
      "thara": 7450,
      "atu": 7451,
      "atin": 7452,
      "atis": 7453,
      "atsu": 7454,
      "ouyay": 7455,
      "erk": 7456,
      "eror": 7457,
      "eric": 7458,
      "ervill": 7459,
      "arcti": 7460,
      "ariest": 7461,
      "arlid": 7462,
      "anic": 7463,
      "ania": 7464,
      "analyst": 7465,
      "ancis": 7466,
      "youngest": 7467,
      "enha": 7468,
      "ences": 7469,
      "enna": 7470,
      "enger": 7471,
      "enses": 7472,
      "enius": 7473,
      "envir": 7474,
      "reaten": 7475,
      "inth": 7476,
      "inhe": 7477,
      "inexp": 7478,
      "invited": 7479,
      "insult": 7480,
      "theon": 7481,
      "thered": 7482,
      "ured": 7483,
      "urent": 7484,
      "leer": 7485,
      "lege": 7486,
      "leon": 7487,
      "lete": 7488,
      "leful": 7489,
      "leclaw": 7490,
      "arded": 7491,
      "ardiz": 7492,
      "oned": 7493,
      "onment": 7494,
      "onable": 7495,
      "onnay": 7496,
      "coat": 7497,
      "cooler": 7498,
      "acre": 7499,
      "acly": 7500,
      "aciers": 7501,
      "stur": 7502,
      "stra": 7503,
      "stalk": 7504,
      "stem": 7505,
      "stayed": 7506,
      "staring": 7507,
      "stones": 7508,
      "static": 7509,
      "style": 7510,
      "ronto": 7511,
      "rodu": 7512,
      "togg": 7513,
      "tories": 7514,
      "orter": 7515,
      "orously": 7516,
      "orgia": 7517,
      "itary": 7518,
      "ities": 7519,
      "itten": 7520,
      "itim": 7521,
      "elance": 7522,
      "elim": 7523,
      "elope": 7524,
      "elbow": 7525,
      "isma": 7526,
      "islandcycling": 7527,
      "getting": 7528,
      "ala": 7529,
      "along": 7530,
      "alter": 7531,
      "ented": 7532,
      "ficient": 7533,
      "filtr": 7534,
      "attends": 7535,
      "henge": 7536,
      "urd": 7537,
      "ami": 7538,
      "amat": 7539,
      "amble": 7540,
      "amoeba": 7541,
      "vetou": 7542,
      "vehic": 7543,
      "vecraft": 7544,
      "veleer": 7545,
      "erson": 7546,
      "edom": 7547,
      "asa": 7548,
      "asy": 7549,
      "esay": 7550,
      "especi": 7551,
      "rath": 7552,
      "raised": 7553,
      "chi": 7554,
      "chic": 7555,
      "chance": 7556,
      "chum": 7557,
      "chief": 7558,
      "chanic": 7559,
      "destr": 7560,
      "demonstrate": 7561,
      "decorated": 7562,
      "degree": 7563,
      "ily": 7564,
      "illegal": 7565,
      "ilized": 7566,
      "plos": 7567,
      "aster": 7568,
      "achie": 7569,
      "bey": 7570,
      "bear": 7571,
      "becca": 7572,
      "utan": 7573,
      "utters": 7574,
      "mane": 7575,
      "mano": 7576,
      "manage": 7577,
      "manoid": 7578,
      "ppled": 7579,
      "evolves": 7580,
      "}{}.": 7581,
      "spay": 7582,
      "spawn": 7583,
      "spea": 7584,
      "spring": 7585,
      "spaces": 7586,
      "sperson": 7587,
      "playmat": 7588,
      "playtest": 7589,
      "cestral": 7590,
      "ddon": 7591,
      "elliest": 7592,
      "ageddon": 7593,
      "rich": 7594,
      "rios": 7595,
      "riest": 7596,
      "ritor": 7597,
      "caster": 7598,
      "damaged": 7599,
      "excel": 7600,
      "osal": 7601,
      "oske": 7602,
      "blers": 7603,
      "blaster": 7604,
      "anti": 7605,
      "aryll": 7606,
      "handle": 7607,
      "Youth": 7608,
      "kenrath": 7609,
      "artic": 7610,
      "artest": 7611,
      "artwork": 7612,
      "Thing": 7613,
      "Thumb": 7614,
      "Thank": 7615,
      "Thaw": 7616,
      "Thorn": 7617,
      "Thrall": 7618,
      "Thaum": 7619,
      "Threaten": 7620,
      "cky": 7621,
      "ckless": 7622,
      "ckster": 7623,
      "anytime": 7624,
      "ept": 7625,
      "epher": 7626,
      "quake": 7627,
      "queror": 7628,
      "upor": 7629,
      "lescence": 7630,
      "taic": 7631,
      "ocked": 7632,
      "blocker": 7633,
      "unopen": 7634,
      "unpre": 7635,
      "unguessed": 7636,
      "uninstall": 7637,
      "unlimit": 7638,
      "performan": 7639,
      "ties": 7640,
      "tical": 7641,
      "Atrop": 7642,
      "whay": 7643,
      "hael": 7644,
      "alla": 7645,
      "allax": 7646,
      "allows": 7647,
      "Reorder": 7648,
      "Reflip": 7649,
      "Rector": 7650,
      "Recur": 7651,
      "Reassemble": 7652,
      "Rebecca": 7653,
      "Reckless": 7654,
      "apting": 7655,
      "dernity": 7656,
      "Deal": 7657,
      "Decayed": 7658,
      "Defense": 7659,
      "Delete": 7660,
      "Engl": 7661,
      "Enwhay": 7662,
      "Creation": 7663,
      "abru": 7664,
      "compet": 7665,
      "compe": 7666,
      "commun": 7667,
      "door": 7668,
      "dominus": 7669,
      "dozen": 7670,
      "ategy": 7671,
      "shire": 7672,
      "shorter": 7673,
      "nonblocking": 7674,
      "Itli": 7675,
      "theirs": 7676,
      "enchanting": 7677,
      "earning": 7678,
      "ility": 7679,
      "adding": 7680,
      "ades": 7681,
      "adow": 7682,
      "advent": 7683,
      "adise": 7684,
      "adesh": 7685,
      "adian": 7686,
      "adapting": 7687,
      "menting": 7688,
      "Extri": 7689,
      "Express": 7690,
      "Exhib": 7691,
      "Expansion": 7692,
      "Explos": 7693,
      "Exoske": 7694,
      "reeching": 7695,
      "becoming": 7696,
      "earcher": 7697,
      "icate": 7698,
      "icated": 7699,
      "icip": 7700,
      "ications": 7701,
      "quietest": 7702,
      "aretti": 7703,
      "essra": 7704,
      "ameter": 7705,
      "typal": 7706,
      "typical": 7707,
      "plans": 7708,
      "ashed": 7709,
      "ashivan": 7710,
      "Chest": 7711,
      "Charm": 7712,
      "Chang": 7713,
      "meets": 7714,
      "metown": 7715,
      "mechanic": 7716,
      "meadow": 7717,
      "strictor": 7718,
      "planeswalked": 7719,
      "oop": 7720,
      "redistribute": 7721,
      "igpay": 7722,
      "igner": 7723,
      "igation": 7724,
      "igator": 7725,
      "outdoors": 7726,
      "outfit": 7727,
      "idian": 7728,
      "tomy": 7729,
      "Spy": 7730,
      "Sped": 7731,
      "Spitting": 7732,
      "Speake": 7733,
      "usive": 7734,
      "usually": 7735,
      "stray": 7736,
      "stract": 7737,
      "strong": 7738,
      "strange": 7739,
      "stranger": 7740,
      "strongest": 7741,
      "strategy": 7742,
      "acrificesay": 7743,
      "olar": 7744,
      "olith": 7745,
      "icks": 7746,
      "teers": 7747,
      "teeth": 7748,
      "teeoh": 7749,
      "athook": 7750,
      "class": 7751,
      "climb": 7752,
      "displays": 7753,
      "orek": 7754,
      "seated": 7755,
      "section": 7756,
      "secur": 7757,
      "semifinal": 7758,
      "nod": 7759,
      "nover": 7760,
      "notab": 7761,
      "Zombify": 7762,
      "Ancestral": 7763,
      "leaf": 7764,
      "attaches": 7765,
      "gender": 7766,
      "sire": 7767,
      "sien": 7768,
      "sight": 7769,
      "simil": 7770,
      "sipmonger": 7771,
      "leday": 7772,
      "Plate": 7773,
      "Plag": 7774,
      "Plum": 7775,
      "resume": 7776,
      "yclave": 7777,
      "Invoke": 7778,
      "Initi": 7779,
      "Inspir": 7780,
      "Ingen": 7781,
      "Infest": 7782,
      "Invited": 7783,
      "Ingot": 7784,
      "Infiltr": 7785,
      "Indominus": 7786,
      "Insight": 7787,
      "looking": 7788,
      "iphany": 7789,
      "Arrest": 7790,
      "Argu": 7791,
      "Ardent": 7792,
      "Arlinn": 7793,
      "Arvad": 7794,
      "Arteeoh": 7795,
      "Drakes": 7796,
      "Hump": 7797,
      "Attune": 7798,
      "establ": 7799,
      "conside": 7800,
      "vocate": 7801,
      "pausing": 7802,
      "hadn": 7803,
      "forehead": 7804,
      "reassemb": 7805,
      "reasonable": 7806,
      "Dragonfly": 7807,
      "Allows": 7808,
      "tribe": 7809,
      "tricky": 7810,
      "Spiritmonger": 7811,
      "charisma": 7812,
      "boast": 7813,
      "botomy": 7814,
      "angel": 7815,
      "ighten": 7816,
      "ndicate": 7817,
      "Warning": 7818,
      "Warchief": 7819,
      "ulator": 7820,
      "suant": 7821,
      "Elbr": 7822,
      "Elusive": 7823,
      "Process": 7824,
      "Professional": 7825,
      "Prodig": 7826,
      "Profane": 7827,
      "prevents": 7828,
      "flaw": 7829,
      "flicks": 7830,
      "postor": 7831,
      "Landing": 7832,
      "Condu": 7833,
      "Convic": 7834,
      "Conqueror": 7835,
      "Constrictor": 7836,
      "agers": 7837,
      "verbal": 7838,
      "vertically": 7839,
      "Slide": 7840,
      "diameter": 7841,
      "sixteen": 7842,
      "shared": 7843,
      "izer": 7844,
      "Phantom": 7845,
      "Phylath": 7846,
      "Blaze": 7847,
      "Blurry": 7848,
      "Blades": 7849,
      "Shot": 7850,
      "Shredd": 7851,
      "Shepher": 7852,
      "Shessra": 7853,
      "isoner": 7854,
      "Unwary": 7855,
      "Uninvited": 7856,
      "diest": 7857,
      "timed": 7858,
      "cessary": 7859,
      "Veteran": 7860,
      "Playing": 7861,
      "Roar": 7862,
      "kinesis": 7863,
      "Lift": 7864,
      "Tome": 7865,
      "Toronto": 7866,
      "etle": 7867,
      "etstone": 7868,
      "Behe": 7869,
      "Befriend": 7870,
      "Beetle": 7871,
      "Angeles": 7872,
      "storm": 7873,
      "Orang": 7874,
      "Ornith": 7875,
      "cyst": 7876,
      "Devoted": 7877,
      "chair": 7878,
      "imwalk": 7879,
      "impact": 7880,
      "immob": 7881,
      "immediately": 7882,
      "import": 7883,
      "mainstay": 7884,
      "bution": 7885,
      "helping": 7886,
      "Artisan": 7887,
      "Clan": 7888,
      "Clap": 7889,
      "Cluck": 7890,
      "Cluster": 7891,
      "territor": 7892,
      "overrun": 7893,
      "ords": 7894,
      "ordway": 7895,
      "Ravager": 7896,
      "Compass": 7897,
      "Whetstone": 7898,
      "umfere": 7899,
      "coined": 7900,
      "Bloodline": 7901,
      "Catalyst": 7902,
      "Catacly": 7903,
      "Merchant": 7904,
      "everypony": 7905,
      "trying": 7906,
      "Install": 7907,
      "Instigator": 7908,
      "Copenha": 7909,
      "Levy": 7910,
      "Suq": 7911,
      "Suit": 7912,
      "Supple": 7913,
      "Wolfbit": 7914,
      "Wolfgang": 7915,
      "capital": 7916,
      "rubber": 7917,
      "akest": 7918,
      "reads": 7919,
      "Delver": 7920,
      "mind": 7921,
      "mostly": 7922,
      "Stud": 7923,
      "Stitch": 7924,
      "Stones": 7925,
      "Stunning": 7926,
      "Stoned": 7927,
      "Stupor": 7928,
      "Nonblue": 7929,
      "Coach": 7930,
      "Cobb": 7931,
      "Covetou": 7932,
      "Docent": 7933,
      "Doku": 7934,
      "opter": 7935,
      "Demonic": 7936,
      "ubiqu": 7937,
      "Bandar": 7938,
      "Bandit": 7939,
      "Meathook": 7940,
      "Manuel": 7941,
      "Insects": 7942,
      "olls": 7943,
      "Flap": 7944,
      "Flutters": 7945,
      "Urami": 7946,
      "Arcanist": 7947,
      "Imperi": 7948,
      "Immediately": 7949,
      "Imaryll": 7950,
      "Impostor": 7951,
      "partners": 7952,
      "particip": 7953,
      "Server": 7954,
      "nian": 7955,
      "primar": 7956,
      "going": 7957,
      "goblin": 7958,
      "cedented": 7959,
      "Mutating": 7960,
      "Monocolored": 7961,
      "Monolith": 7962,
      "syl": 7963,
      "system": 7964,
      "yrinth": 7965,
      "Alive": 7966,
      "Alicorn": 7967,
      "Alrun": 7968,
      "Alpine": 7969,
      "Altar": 7970,
      "stacked": 7971,
      "plicity": 7972,
      "Powerstones": 7973,
      "Entry": 7974,
      "Entrance": 7975,
      "horde": 7976,
      "lets": 7977,
      "introdu": 7978,
      "Afflic": 7979,
      "Mox": 7980,
      "Modernity": 7981,
      "Splinter": 7982,
      "eming": 7983,
      "Advocate": 7984,
      "cheap": 7985,
      "questions": 7986,
      "Startled": 7987,
      "Fears": 7988,
      "Fearless": 7989,
      "figures": 7990,
      "useful": 7991,
      "Stormfront": 7992,
      "130": 7993,
      "cors": 7994,
      "Perfection": 7995,
      "rows": 7996,
      "alien": 7997,
      "follows": 7998,
      "complement": 7999,
      "complements": 8000,
      "Scroll": 8001,
      "Screeching": 8002,
      "liquid": 8003,
      "Eskeland": 8004,
      "Outcast": 8005,
      "Outcasts": 8006,
      "surveilled": 8007,
      "Spiked": 8008,
      "Basking": 8009,
      "Shadowcat": 8010,
      "Channeler": 8011,
      "advanced": 8012,
      "Overlord": 8013,
      "Werebear": 8014,
      "swap": 8015,
      "swept": 8016,
      "Metalwor": 8017,
      "Snoop": 8018,
      "overloaded": 8019,
      "Designed": 8020,
      "Skoph": 8021,
      "Skyclave": 8022,
      "prefers": 8023,
      "weft": 8024,
      "weakest": 8025,
      "Americ": 8026,
      "ugliest": 8027,
      "Magician": 8028,
      "Bochum": 8029,
      "Nightstalk": 8030,
      "regarded": 8031,
      "exchanges": 8032,
      "stunning": 8033,
      "guy": 8034,
      "Shade": 8035,
      "Shape": 8036,
      "Shauk": 8037,
      "offers": 8038,
      "offensive": 8039,
      "Primal": 8040,
      "German": 8041,
      "Online": 8042,
      "Scavenger": 8043,
      "Scavenging": 8044,
      "dragged": 8045,
      "Rennes": 8046,
      "splashed": 8047,
      "Godsire": 8048,
      "Gateway": 8049,
      "Shrill": 8050,
      "hometown": 8051,
      "Hellkite": 8052,
      "dedicated": 8053,
      "Shapeshifters": 8054,
      "Rebels": 8055,
      "Lovecraft": 8056,
      "Lobotomy": 8057,
      "Noble": 8058,
      "Nogi": 8059,
      "placed": 8060,
      "Inkcaster": 8061,
      "eaval": 8062,
      "Seer": 8063,
      "Select": 8064,
      "Seizer": 8065,
      "summer": 8066,
      "sumasa": 8067,
      "Curious": 8068,
      "gris": 8069,
      "Avid": 8070,
      "Avabru": 8071,
      "Mental": 8072,
      "normally": 8073,
      "sticks": 8074,
      "Dwarfhold": 8075,
      "Pegasi": 8076,
      "Berserk": 8077,
      "Emory": 8078,
      "inessperson": 8079,
      "boom": 8080,
      "Heirl": 8081,
      "keywords": 8082,
      "Worldly": 8083,
      "Striker": 8084,
      "subtypes": 8085,
      "subsection": 8086,
      "Awake": 8087,
      "sometimes": 8088,
      "cleanest": 8089,
      "Mirari": 8090,
      "denim": 8091,
      "Key": 8092,
      "Parallax": 8093,
      "Paradise": 8094,
      "midgame": 8095,
      "Collect": 8096,
      "College": 8097,
      "Laurent": 8098,
      "Legion": 8099,
      "Legitim": 8100,
      "design": 8101,
      "described": 8102,
      "designer": 8103,
      "Golden": 8104,
      "Goldmeadow": 8105,
      "health": 8106,
      "neck": 8107,
      "neous": 8108,
      "necessary": 8109,
      "legions": 8110,
      "legged": 8111,
      "devic": 8112,
      "Abbey": 8113,
      "Kaladesh": 8114,
      "scariest": 8115,
      "lected": 8116,
      "Ravengard": 8117,
      "Doctors": 8118,
      "finished": 8119,
      "Timebender": 8120,
      "balances": 8121,
      "Lightshield": 8122,
      "Ops": 8123,
      "Package": 8124,
      "feels": 8125,
      "Minthara": 8126,
      "York": 8127,
      "glue": 8128,
      "matches": 8129,
      "Ready": 8130,
      "direct": 8131,
      "increasing": 8132,
      "Gust": 8133,
      "Guay": 8134,
      "Guards": 8135,
      "Guild": 8136,
      "Kroger": 8137,
      "Bratis": 8138,
      "Bramble": 8139,
      "Trickster": 8140,
      "Vogar": 8141,
      "Voyager": 8142,
      "knocked": 8143,
      "knolls": 8144,
      "Assistant": 8145,
      "Celebrity": 8146,
      "Hanover": 8147,
      "Hannover": 8148,
      "Pursuant": 8149,
      "iquities": 8150,
      "prescribed": 8151,
      "speed": 8152,
      "physical": 8153,
      "Daring": 8154,
      "Kytheon": 8155,
      "Sorin": 8156,
      "Sorcery": 8157,
      "Weinhe": 8158,
      "friendliest": 8159,
      "ropean": 8160,
      "finals": 8161,
      "finalists": 8162,
      "Booster": 8163,
      "Cave": 8164,
      "Cabe": 8165,
      "Igneous": 8166,
      "Karona": 8167,
      "Necro": 8168,
      "Nezum": 8169,
      "Voltaic": 8170,
      "cursed": 8171,
      "2002": 8172,
      "2003": 8173,
      "Djinns": 8174,
      "Hunter": 8175,
      "Huntmaster": 8176,
      "Lily": 8177,
      "written": 8178,
      "fluke": 8179,
      "Gravestorm": 8180,
      "Rockslide": 8181,
      "Sentry": 8182,
      "Sigurd": 8183,
      "ronen": 8184,
      "smith": 8185,
      "smile": 8186,
      "smelliest": 8187,
      "smartest": 8188,
      "Geier": 8189,
      "Georgia": 8190,
      "Kenku": 8191,
      "Tails": 8192,
      "affection": 8193,
      "tlecyst": 8194,
      "vale": 8195,
      "refer": 8196,
      "enablers": 8197,
      "roughly": 8198,
      "winnings": 8199,
      "working": 8200,
      "Hollowhenge": 8201,
      "Cannot": 8202,
      "Canada": 8203,
      "Canadian": 8204,
      "Fecund": 8205,
      "Fighter": 8206,
      "Gloom": 8207,
      "Glaciers": 8208,
      "Markov": 8209,
      "Symbol": 8210,
      "Syndicate": 8211,
      "Solitary": 8212,
      "Virus": 8213,
      "lightning": 8214,
      "coveted": 8215,
      "Swords": 8216,
      "sideboarding": 8217,
      "Antarcti": 8218,
      "Antelope": 8219,
      "Antiquities": 8220,
      "Buried": 8221,
      "Bribe": 8222,
      "Blasting": 8223,
      "Caller": 8224,
      "Gather": 8225,
      "Gathered": 8226,
      "Gaveleer": 8227,
      "Harald": 8228,
      "Pray": 8229,
      "Prisoner": 8230,
      "Rules": 8231,
      "Ruby": 8232,
      "Ruthless": 8233,
      "Raphael": 8234,
      "Survival": 8235,
      "piece": 8236,
      "contained": 8237,
      "dominating": 8238,
      "Sparkmage": 8239,
      "assault": 8240,
      "Unicorns": 8241,
      "Flametongue": 8242,
      "Gremlins": 8243,
      "Circular": 8244,
      "Dave": 8245,
      "Darkness": 8246,
      "Neva": 8247,
      "Quarterfinal": 8248,
      "Randy": 8249,
      "Stranger": 8250,
      "Tinker": 8251,
      "Tombspawn": 8252,
      "merry": 8253,
      "define": 8254,
      "defeat": 8255,
      "defensive": 8256,
      "defenses": 8257,
      "correct": 8258,
      "Mystics": 8259,
      "Accept": 8260,
      "Accumul": 8261,
      "Accursed": 8262,
      "Carlos": 8263,
      "Cunningham": 8264,
      "Epiphany": 8265,
      "Mahoney": 8266,
      "Narfi": 8267,
      "ikestray": 8268,
      "rogenius": 8269,
      "toys": 8270,
      "allenhorde": 8271,
      "Regulator": 8272,
      "college": 8273,
      "cruised": 8274,
      "Static": 8275,
      "Teamwork": 8276,
      "Gorgons": 8277,
      "smaller": 8278,
      "Cannons": 8279,
      "Mystical": 8280,
      "eyebrows": 8281,
      "Growths": 8282,
      "HAND": 8283,
      "Howler": 8284,
      "Jarsyl": 8285,
      "Paulo": 8286,
      "Ulder": 8287,
      "Ulrich": 8288,
      "Wasteland": 8289,
      "events": 8290,
      "eventual": 8291,
      "Retribution": 8292,
      "England": 8293,
      "Internet": 8294,
      "Intervention": 8295,
      "1994": 8296,
      "1997": 8297,
      "alphabet": 8298,
      "Sigardian": 8299,
      "Azar": 8300,
      "Azcanta": 8301,
      "Baleful": 8302,
      "Denmark": 8303,
      "Denimwalk": 8304,
      "Earthquake": 8305,
      "Francis": 8306,
      "Genesis": 8307,
      "Heretical": 8308,
      "Kuala": 8309,
      "Kumano": 8310,
      "Mantle": 8311,
      "Nurture": 8312,
      "Offer": 8313,
      "Rainboom": 8314,
      "Senor": 8315,
      "Sengir": 8316,
      "bigger": 8317,
      "circuit": 8318,
      "furious": 8319,
      "kicks": 8320,
      "lvania": 8321,
      "passes": 8322,
      "animal": 8323,
      "took": 8324,
      "performs": 8325,
      "performed": 8326,
      "Armor": 8327,
      "Armory": 8328,
      "Armageddon": 8329,
      "Elderfang": 8330,
      "Elderleaf": 8331,
      "explosion": 8332,
      "Logic": 8333,
      "Logger": 8334,
      "Healer": 8335,
      "Tormentor": 8336,
      "Tormented": 8337,
      "Smasher": 8338,
      "Crossbre": 8339,
      "Everything": 8340,
      "Everypony": 8341,
      "Hobbling": 8342,
      "Jaba": 8343,
      "Labs": 8344,
      "Labyrinth": 8345,
      "Ritual": 8346,
      "Rabid": 8347,
      "Schemes": 8348,
      "Schwart": 8349,
      "Scholar": 8350,
      "Scheming": 8351,
      "Smolder": 8352,
      "Steel": 8353,
      "Uktab": 8354,
      "Villager": 8355,
      "Villagers": 8356,
      "Wildfire": 8357,
      "closet": 8358,
      "gathering": 8359,
      "holding": 8360,
      "rataal": 8361,
      "schemes": 8362,
      "threats": 8363,
      "Deceiver": 8364,
      "December": 8365,
      "proceeding": 8366,
      "Increase": 8367,
      "checked": 8368,
      "brings": 8369,
      "bringing": 8370,
      "Haldan": 8371,
      "Currently": 8372,
      "glasses": 8373,
      "Disintegrate": 8374,
      "Efreets": 8375,
      "Nicolas": 8376,
      "Nationals": 8377,
      "Capenna": 8378,
      "Daybreak": 8379,
      "Doomed": 8380,
      "Foam": 8381,
      "Final": 8382,
      "Foundry": 8383,
      "Growing": 8384,
      "Machine": 8385,
      "Martial": 8386,
      "Mettle": 8387,
      "Neglected": 8388,
      "Pyrogenius": 8389,
      "Pacifi": 8390,
      "Sao": 8391,
      "Sleuth": 8392,
      "Silencer": 8393,
      "Watchkeep": 8394,
      "Watchdog": 8395,
      "audibly": 8396,
      "career": 8397,
      "eakspay": 8398,
      "floating": 8399,
      "humanoid": 8400,
      "punch": 8401,
      "sentences": 8402,
      "titles": 8403,
      "uelords": 8404,
      "respectable": 8405,
      "accepted": 8406,
      "ppelin": 8407,
      "happy": 8408,
      "applied": 8409,
      "Subject": 8410,
      "Stalker": 8411,
      "Sculpture": 8412,
      "Avacynian": 8413,
      "Breakneck": 8414,
      "Ruiner": 8415,
      "Incinerate": 8416,
      "Disintegration": 8417,
      "Civilized": 8418,
      "Cloistered": 8419,
      "Ashnod": 8420,
      "Falcon": 8421,
      "Falkenrath": 8422,
      "Holland": 8423,
      "Holga": 8424,
      "Ironworks": 8425,
      "Ironsmith": 8426,
      "Known": 8427,
      "Knife": 8428,
      "Krark": 8429,
      "Krallenhorde": 8430,
      "Mayor": 8431,
      "Mongoose": 8432,
      "Mongrel": 8433,
      "Netherlands": 8434,
      "Stompie": 8435,
      "Stompy": 8436,
      "Utama": 8437,
      "Utility": 8438,
      "breath": 8439,
      "broken": 8440,
      "brother": 8441,
      "calls": 8442,
      "festive": 8443,
      "feature": 8444,
      "features": 8445,
      "joining": 8446,
      "joined": 8447,
      "promos": 8448,
      "promoted": 8449,
      "sleeve": 8450,
      "sleeves": 8451,
      "victories": 8452,
      "relies": 8453,
      "ifinalist": 8454,
      "quarterfinals": 8455,
      "quarterfinalist": 8456,
      "metallic": 8457,
      "propose": 8458,
      "proposal": 8459,
      "Andrios": 8460,
      "Angler": 8461,
      "Angry": 8462,
      "Ancients": 8463,
      "simple": 8464,
      "simply": 8465,
      "Plowshares": 8466,
      "Arsonist": 8467,
      "Arsonists": 8468,
      "Forgemaster": 8469,
      "conditions": 8470,
      "majority": 8471,
      "imitate": 8472,
      "archetype": 8473,
      "archetypal": 8474,
      "Parisian": 8475,
      "trading": 8476,
      "traditional": 8477,
      "circled": 8478,
      "circumfere": 8479,
      "Pyromancer": 8480,
      "Pyrokinesis": 8481,
      "Malaysia": 8482,
      "Malaysian": 8483,
      "ANK": 8484,
      "Aaah": 8485,
      "Aeo": 8486,
      "Akros": 8487,
      "Apes": 8488,
      "Adept": 8489,
      "Auntie": 8490,
      "Antoine": 8491,
      "Against": 8492,
      "Aquamoeba": 8493,
      "Academy": 8494,
      "Aubervill": 8495,
      "Applejack": 8496,
      "Ambergris": 8497,
      "Autumnal": 8498,
      "Burning": 8499,
      "Besides": 8500,
      "Blyte": 8501,
      "Bigby": 8502,
      "Businessperson": 8503,
      "Brazil": 8504,
      "CRANK": 8505,
      "Courage": 8506,
      "Cosmic": 8507,
      "Cabaretti": 8508,
      "Careful": 8509,
      "Cathar": 8510,
      "Cyclops": 8511,
      "Czech": 8512,
      "Crypto": 8513,
      "Carah": 8514,
      "Distract": 8515,
      "Duplicity": 8516,
      "Derm": 8517,
      "Dutch": 8518,
      "Dowsing": 8519,
      "Divine": 8520,
      "Dagger": 8521,
      "Dustspea": 8522,
      "Duress": 8523,
      "Duskwatch": 8524,
      "Dueling": 8525,
      "Ecstatic": 8526,
      "Edition": 8527,
      "European": 8528,
      "Evangel": 8529,
      "Estwald": 8530,
      "Entomb": 8531,
      "Eigth": 8532,
      "Eighteen": 8533,
      "Freedom": 8534,
      "Faced": 8535,
      "Fittest": 8536,
      "Fury": 8537,
      "Fells": 8538,
      "Folk": 8539,
      "Fragment": 8540,
      "Frantic": 8541,
      "Gnarlid": 8542,
      "Greven": 8543,
      "Galleon": 8544,
      "Gossipmonger": 8545,
      "Gabriel": 8546,
      "Hampshire": 8547,
      "Hadana": 8548,
      "Hagra": 8549,
      "Hawk": 8550,
      "Harrier": 8551,
      "Herald": 8552,
      "Hometown": 8553,
      "Jeff": 8554,
      "Julien": 8555,
      "Jakub": 8556,
      "Janosch": 8557,
      "Katana": 8558,
      "Kardum": 8559,
      "Koni": 8560,
      "Kelsien": 8561,
      "Killer": 8562,
      "Kagemaro": 8563,
      "Koln": 8564,
      "Knowledge": 8565,
      "Kruin": 8566,
      "Kegs": 8567,
      "Kindly": 8568,
      "Ludevic": 8569,
      "Little": 8570,
      "Lumbering": 8571,
      "Lumpur": 8572,
      "McCabe": 8573,
      "Mainz": 8574,
      "Maryland": 8575,
      "Mockery": 8576,
      "Militia": 8577,
      "Messenger": 8578,
      "Molting": 8579,
      "Massacre": 8580,
      "Mondronen": 8581,
      "Missionaries": 8582,
      "Nerf": 8583,
      "Norway": 8584,
      "Nosfer": 8585,
      "Nettlecyst": 8586,
      "Navigation": 8587,
      "Nekrataal": 8588,
      "Naturalize": 8589,
      "Nikara": 8590,
      "Natterknolls": 8591,
      "Oathsworn": 8592,
      "Ophidian": 8593,
      "Opalescence": 8594,
      "Ohio": 8595,
      "Oubleday": 8596,
      "Piper": 8597,
      "Precip": 8598,
      "Pennsy": 8599,
      "Ponies": 8600,
      "Portal": 8601,
      "Powder": 8602,
      "Punctuation": 8603,
      "Pillage": 8604,
      "Pinkie": 8605,
      "Pagorek": 8606,
      "Pittsbur": 8607,
      "Pincher": 8608,
      "Rancors": 8609,
      "Researcher": 8610,
      "Rashka": 8611,
      "Riveteers": 8612,
      "Rootwalla": 8613,
      "Suntail": 8614,
      "Stare": 8615,
      "Slovak": 8616,
      "Semifinalist": 8617,
      "Scorching": 8618,
      "Savage": 8619,
      "Shimatsu": 8620,
      "Sovereign": 8621,
      "Scorned": 8622,
      "Tiamat": 8623,
      "Tatsumasa": 8624,
      "Targ": 8625,
      "Tenured": 8626,
      "Toulouse": 8627,
      "Tempered": 8628,
      "Tangleclaw": 8629,
      "Tropical": 8630,
      "Umara": 8631,
      "Upheaval": 8632,
      "Viashivan": 8633,
      "Vastwood": 8634,
      "Vicious": 8635,
      "Voldaren": 8636,
      "Valiant": 8637,
      "Vryn": 8638,
      "Vildin": 8639,
      "Waif": 8640,
      "Wyvern": 8641,
      "Winning": 8642,
      "Wayne": 8643,
      "Widget": 8644,
      "Westvale": 8645,
      "Wielder": 8646,
      "Yawning": 8647,
      "Zeppelin": 8648,
      "autumn": 8649,
      "borders": 8650,
      "bounces": 8651,
      "cutest": 8652,
      "crippled": 8653,
      "calmly": 8654,
      "dropped": 8655,
      "darts": 8656,
      "daunting": 8657,
      "efficient": 8658,
      "freelance": 8659,
      "function": 8660,
      "fumbling": 8661,
      "fastest": 8662,
      "freshman": 8663,
      "frames": 8664,
      "familiar": 8665,
      "funniest": 8666,
      "honor": 8667,
      "hungriest": 8668,
      "ioneers": 8669,
      "jeopardiz": 8670,
      "loudest": 8671,
      "lava": 8672,
      "lungs": 8673,
      "mbered": 8674,
      "mantle": 8675,
      "nicknamed": 8676,
      "parents": 8677,
      "pulling": 8678,
      "pumped": 8679,
      "possibly": 8680,
      "premiums": 8681,
      "ratio": 8682,
      "ruling": 8683,
      "rhyming": 8684,
      "several": 8685,
      "sequence": 8686,
      "science": 8687,
      "spliced": 8688,
      "smidgen": 8689,
      "seventeen": 8690,
      "taller": 8691,
      "tusks": 8692,
      "visible": 8693,
      "vampire": 8694,
      "vigorously": 8695,
      "wildest": 8696,
      "wanted": 8697,
      "wunderkind": 8698,
      "wrestle": 8699,
      "widely": 8700,
      "zombie": 8701,
      "resord": 8702,
      "remembered": 8703,
      "atinlay": 8704,
      "environment": 8705,
      "inexpensive": 8706,
      "sturdiest": 8707,
      "straighten": 8708,
      "toggle": 8709,
      "elimination": 8710,
      "alternate": 8711,
      "vehicle": 8712,
      "especially": 8713,
      "chicken": 8714,
      "destruction": 8715,
      "achieved": 8716,
      "playmats": 8717,
      "excellent": 8718,
      "article": 8719,
      "Thumbs": 8720,
      "Thawing": 8721,
      "Thornmantle": 8722,
      "Thralls": 8723,
      "Thaumatic": 8724,
      "unopened": 8725,
      "unprecedented": 8726,
      "unlimited": 8727,
      "performances": 8728,
      "Atropal": 8729,
      "Recurring": 8730,
      "English": 8731,
      "competition": 8732,
      "compete": 8733,
      "communications": 8734,
      "Itlimoc": 8735,
      "adventuring": 8736,
      "Extricator": 8737,
      "Exhibition": 8738,
      "Explosioneers": 8739,
      "Exoskeleton": 8740,
      "Changing": 8741,
      "Speakeasy": 8742,
      "strangest": 8743,
      "classic": 8744,
      "climbs": 8745,
      "security": 8746,
      "semifinals": 8747,
      "notably": 8748,
      "similar": 8749,
      "Plaguelords": 8750,
      "Plummet": 8751,
      "Initiate": 8752,
      "Inspiring": 8753,
      "Ingenious": 8754,
      "Infesting": 8755,
      "Infiltrator": 8756,
      "Arguel": 8757,
      "Attunement": 8758,
      "establish": 8759,
      "considered": 8760,
      "reassembles": 8761,
      "Elbrus": 8762,
      "Procession": 8763,
      "Prodigy": 8764,
      "flawless": 8765,
      "Conduit": 8766,
      "Convicted": 8767,
      "Shredder": 8768,
      "Shepherd": 8769,
      "Behemoth": 8770,
      "Orangutan": 8771,
      "Ornithopter": 8772,
      "immobilized": 8773,
      "important": 8774,
      "territory": 8775,
      "Cataclysm": 8776,
      "Copenhagen": 8777,
      "Supplementing": 8778,
      "Wolfbitten": 8779,
      "Study": 8780,
      "Stitched": 8781,
      "Cobbled": 8782,
      "Covetous": 8783,
      "Dokuchi": 8784,
      "ubiquitous": 8785,
      "Fluttershy": 8786,
      "Imperial": 8787,
      "participant": 8788,
      "primarily": 8789,
      "Alicorns": 8790,
      "Alrund": 8791,
      "introduced": 8792,
      "Afflicted": 8793,
      "Metalworker": 8794,
      "Skophos": 8795,
      "America": 8796,
      "Nightstalker": 8797,
      "Shauku": 8798,
      "Avabruck": 8799,
      "Heirloom": 8800,
      "Legitimate": 8801,
      "Guildsworn": 8802,
      "Bratislava": 8803,
      "Brambleweft": 8804,
      "Weinheim": 8805,
      "Necromancer": 8806,
      "Nezumi": 8807,
      "affectionately": 8808,
      "Fecundity": 8809,
      "Antarctica": 8810,
      "Quarterfinalist": 8811,
      "Accumulated": 8812,
      "Francisco": 8813,
      "Nurturer": 8814,
      "Crossbreed": 8815,
      "Ritualist": 8816,
      "Schwartz": 8817,
      "Smoldering": 8818,
      "Uktabi": 8819,
      "Pacifist": 8820,
      "circumference": 8821,
      "Aubervilliers": 8822,
      "Cryptolith": 8823,
      "Dustspeaker": 8824,
      "Nosferatu": 8825,
      "Precipitous": 8826,
      "Pennsylvania": 8827,
      "Pittsburgh": 8828,
      "jeopardizing": 8829
    },
    "merges": [
      "r e",
      "t h",
      "a t",
      "o u",
      "n t",
      "e r",
      "a r",
      "a n",
      "y ou",
      "e n",
      "re at",
      "c reat",
      "i n",
      "th e",
      "u re",
      "creat ure",
      "l e",
      "g e",
      "ar d",
      "o n",
      "c o",
      "a c",
      "s t",
      "r o",
      "t o",
      "o r",
      "c ard",
      "i t",
      "an d",
      "e l",
      "i s",
      "o f",
      "ge t",
      "a y",
      "a l",
      "e nt",
      "f i",
      "at t",
      "you r",
      "h en",
      "in g",
      "ar get",
      "ro l",
      "u r",
      "co nt",
      "cont rol",
      "W hen",
      "i f",
      "ur n",
      "a m",
      "t urn",
      "t arget",
      "el d",
      "att le",
      "b attle",
      "v e",
      "fi eld",
      "battle field",
      "er s",
      "e d",
      "a s",
      "e s",
      "r a",
      "th is",
      "c h",
      "} :",
      ". )",
      "d e",
      "i l",
      "p l",
      "a st",
      "ac h",
      "th at",
      "b e",
      "i th",
      "u t",
      "m an",
      "en d",
      "w ith",
      "ent ers",
      "ou nt",
      "p p",
      "e v",
      "} {",
      "s p",
      "l y",
      "pl ay",
      "/ +",
      "m ay",
      "c e",
      "d d",
      "el l",
      "a ge",
      "ev er",
      "ro m",
      "f rom",
      "sp ell",
      "When ever",
      "am age",
      "u nt",
      "r i",
      "c ount",
      "c ast",
      "d amage",
      "play er",
      "card s",
      "e x",
      "de al",
      "e ach",
      "} ,",
      "ac k",
      "o s",
      "a in",
      "p ut",
      "m b",
      "f or",
      "A dd",
      "b l",
      "i b",
      "a nt",
      "ly ing",
      "ar y",
      "l and",
      "o w",
      "unt il",
      "i le",
      "h and",
      "Y ou",
      "nt o",
      "ac t",
      "l ib",
      "lib r",
      "libr ary",
      "creature s",
      "it s",
      "l if",
      "ra ve",
      "y ard",
      "rave yard",
      "g raveyard",
      "c an",
      "g ain",
      "ra w",
      "k en",
      "deal s",
      "ri fi",
      "ac rifi",
      "ar t",
      "I f",
      "man a",
      "lif e",
      "to ken",
      "T h",
      "th er",
      "c k",
      "ch ant",
      "an y",
      "if act",
      "os e",
      "count er",
      "on ent",
      "pp onent",
      "o pponent",
      "art ifact",
      "acrifi ce",
      "} .",
      "att ack",
      "on e",
      "e p",
      "q u",
      "pp ed",
      "u p",
      "get s",
      "le s",
      "t w",
      "m o",
      "k e",
      "co st",
      "F lying",
      "tw o",
      "t a",
      "les s",
      "o ck",
      "o ther",
      "bl ock",
      "u n",
      "g in",
      "ex ile",
      "be gin",
      "n ing",
      "th en",
      "begin ning",
      "i r",
      "p er",
      "i nto",
      "t i",
      "man ent",
      "per manent",
      "d raw",
      "A t",
      "( {",
      "w h",
      "h a",
      "p ay",
      "st ro",
      "ow n",
      "stro y",
      "i es",
      "al l",
      "S acrifice",
      "ta pped",
      "h as",
      "R e",
      "a p",
      "to p",
      "Th is",
      "co l",
      "d er",
      "co mb",
      "o ose",
      "u mb",
      "umb er",
      "n umber",
      "T arget",
      "on g",
      "count ers",
      "comb at",
      "col or",
      "D e",
      "E n",
      "C reat",
      "En chant",
      "a b",
      "co m",
      "d o",
      "at e",
      "u e",
      "am p",
      "e qu",
      "creat e",
      "mo re",
      "f f",
      "ha ve",
      "ow er",
      "s h",
      "~ .",
      "in st",
      "l d",
      "p ower",
      "o nto",
      "n on",
      "P ut",
      "f lying",
      "gain s",
      "I t",
      "the ir",
      "is card",
      "} .)",
      "en chant",
      "e re",
      "ke ep",
      "up keep",
      "e ar",
      "st ep",
      "equ al",
      "i on",
      "g h",
      "block ed",
      "re ve",
      "ex t",
      "D raw",
      "on ly",
      "il it",
      "ab ilit",
      "u ff",
      "a dd",
      "a d",
      "sh uff",
      "m ent",
      "un der",
      "De stroy",
      "E x",
      "attack s",
      "re e",
      "ast e",
      "own er",
      "n ext",
      "er y",
      "A s",
      "th ree",
      "s or",
      "~ :",
      "sor c",
      "sorc ery",
      "al k",
      "control s",
      "ou ld",
      "be com",
      "amp le",
      "w alk",
      "re turn",
      "Ex ile",
      "ear ch",
      "b y",
      "i c",
      "r ample",
      "reve al",
      "an other",
      "t y",
      "qu i",
      "shuff le",
      "E qui",
      "t ou",
      "Creat e",
      "ch oose",
      "Re turn",
      "v al",
      "o t",
      "d ies",
      "l ong",
      "a re",
      "becom es",
      ". \"",
      "es s",
      "w ould",
      "val ue",
      "c ti",
      "am e",
      "it ion",
      "co p",
      "add ition",
      "the m",
      "l er",
      "s acrifice",
      "ty p",
      "pl an",
      "as h",
      "C h",
      "m e",
      "ac e",
      "unt ap",
      "es walk",
      "bl ack",
      "h aste",
      "E ach",
      "st ri",
      "plan eswalk",
      "o o",
      "re d",
      "it e",
      "i g",
      "control ler",
      "wh ere",
      "l ash",
      "re st",
      "stri ke",
      "e ad",
      "mo ve",
      "cop y",
      "v ate",
      "ou t",
      "th an",
      "re en",
      "enchant ment",
      "wh ite",
      "w ay",
      "deal t",
      "spell s",
      "c t",
      "g reen",
      "ou r",
      "b as",
      "os es",
      "token s",
      "Th e",
      "Ch oose",
      "an ce",
      "inst ead",
      "ti me",
      "n ess",
      "un less",
      "planeswalk er",
      "d iscard",
      "/ -",
      "am ong",
      "Enchant ed",
      "de stroy",
      "ig il",
      "igil ance",
      "U nt",
      "p t",
      "Equi p",
      "f end",
      "addition al",
      "inst ant",
      "the y",
      "D iscard",
      "i d",
      "attack ing",
      "land s",
      "o m",
      "S earch",
      "ur ing",
      "r st",
      "fi rst",
      "abilit ies",
      "non land",
      "with out",
      "l oses",
      "oo k",
      "b ot",
      "Creat ure",
      "t rample",
      "gh ness",
      "tou ghness",
      "abilit y",
      "to m",
      "bot tom",
      "bas ic",
      "d uring",
      "A cti",
      "T hen",
      "il l",
      "p ro",
      "th ose",
      "Acti vate",
      "ce pt",
      "typ e",
      "ex cept",
      "d on",
      "Creature s",
      "f ace",
      "exile d",
      "F lash",
      "S p",
      "i v",
      "u s",
      "enchant ed",
      "st r",
      "cost s",
      "permanent s",
      "i e",
      "acrifi c",
      "s acrific",
      "w as",
      "or der",
      "o l",
      "f our",
      "en er",
      "in k",
      "os en",
      "ch osen",
      "re move",
      "b ack",
      "ch o",
      "el ink",
      "ta p",
      "v ent",
      "pay ing",
      "i ck",
      "de fend",
      "T rample",
      "l ose",
      "\" {",
      "opponent s",
      "i ce",
      "t e",
      "at ed",
      "u ct",
      "str uct",
      "r and",
      "O ther",
      "g reat",
      "rand om",
      "g ener",
      "a th",
      "c l",
      "v igilance",
      "d is",
      "dis cards",
      "o re",
      "re vent",
      "tou ch",
      "m u",
      "s e",
      "c r",
      "s earch",
      "bl ue",
      "ve s",
      "ib le",
      "de struct",
      "destruct ible",
      "ath touch",
      "o mb",
      "f t",
      "cr y",
      "C ount",
      "n o",
      "Z omb",
      "do es",
      "T ap",
      "Count er",
      "m and",
      "Unt il",
      "A n",
      "defend ing",
      "g ame",
      "color less",
      "target s",
      "le a",
      "att ach",
      "lif elink",
      "g end",
      "Equi pped",
      "s i",
      "great er",
      "The y",
      "le d",
      "com mand",
      "typ es",
      "P l",
      "G o",
      "le gend",
      "cti on",
      "d own",
      "artifact s",
      "ain s",
      "L ook",
      "man y",
      "t al",
      "does n",
      "re s",
      "sacrific es",
      "y cl",
      "in destructible",
      "ycl ing",
      "~ ,",
      "Re move",
      "en ace",
      "te ction",
      "o rest",
      "gh t",
      "~ '",
      "Zomb ie",
      "m ill",
      "legend ary",
      "b le",
      "draw s",
      "I I",
      "n ame",
      "I n",
      "Th at",
      "Unt ap",
      "ou ble",
      "to tal",
      "ab le",
      "S w",
      "pay s",
      "F orest",
      "fi ve",
      "l ook",
      "i p",
      "r ou",
      "a pped",
      "l l",
      "p has",
      "f lash",
      "ou gh",
      "unt apped",
      "Sw amp",
      "e w",
      "n am",
      "A r",
      "D ra",
      "o ld",
      "ev en",
      "ft er",
      "I s",
      "p h",
      "H u",
      "F or",
      "e ct",
      "non creature",
      "Hu man",
      "the re",
      "At t",
      "H aste",
      "l o",
      "e st",
      "s o",
      "V igilance",
      "c on",
      "v o",
      "act i",
      "lea ves",
      "p a",
      "ha d",
      "cho ice",
      "ir st",
      "c a",
      "re ach",
      "acti vate",
      "g on",
      "m on",
      "f ore",
      "re as",
      "Dra gon",
      "C ycling",
      "block ing",
      "reas ure",
      ".\" )",
      "ick er",
      "T reasure",
      "s our",
      "onto ken",
      "nam ed",
[...]
